node {
  name: "x"
  op: "Placeholder"
  attr {
    key: "dtype"
    value {
      type: DT_FLOAT
    }
  }
  attr {
    key: "shape"
    value {
      shape {
        dim {
          size: -1
        }
        dim {
          size: 16
        }
      }
    }
  }
}
node {
  name: "decoder/de_dense_final/MatMul/ReadVariableOp/resource"
  op: "Const"
  attr {
    key: "dtype"
    value {
      type: DT_FLOAT
    }
  }
  attr {
    key: "value"
    value {
      tensor {
        dtype: DT_FLOAT
        tensor_shape {
          dim {
            size: 16
          }
          dim {
            size: 512
          }
        }
        tensor_content: "\233\323S=U\360-=\203\247\022=m\215\355=\352\224[=\335\016D=\372\264E<\265\271\000>5\374\335\274B()\275,\3201<3\004_\275V\343\252<\224v\214=\3635\302=\'h\031=\242\253\251\275\326\335\274<\366\350\242\275D\251\257=\223\205,\274c\377\312=\321R%\275i\321\311;k\304\244\275~OY\275\343B\250\275\020\236\252=\340\361\230=L\313&=ws\373<\373\223\007>\006qP\275\215\365\307=D\351j\275\322\014\201\275\377\316E=\303\306\222\275\236\006\343;\342\341\312\274\333Z\266=\223\212\360=\313zw=\277_\346=3\313\220\275\357X\221\274T\351\264\273\220\t\336\267\t!\377=\366\\\370<u\261\342\274\013\321W=\330\022\250\274!\3671=\333\240\001=Mjl\274\203\240L\275a\306\242<\032\276\236\274\"\'\242\274\022\027\273=\006\266\205\2759\376\245\275\340H7\274\344\\\216=K\276\256\275\311\301\030=\357\335\370=\237\214\221\275\0278D\275y\202\210\275\360&K\273\232\352\367=\0357\004\275\033\356\006=\351R\255<Z\305\343=\370+\023<\307\251\240\275\3229\347=K^\335;R\034L\2754y\334\274\346%Z=\203u\253\275\310[\036\275\210\376\273=\363[\313\2743~\032\275\277\235\031\275\201\'\026\275\025\371\031=\350\007\300<?-\332\274\250\227N=\211\037\261\275\317Ji=\326]\256\275\014?\377=\002=\034\275+\310\035\275\327\304m=&\275v\275|A\274=i\311\307=\367[\312=\267\357\363\274\217)\303\274\262\225\315=Z5\215=\215\201\027\275\314U\233\275\333\333\323=j\343\322=|Oa=\342L\232\275,\302\262\275!kv=G\277u=Y,\334\275\317\321\344=x3\222=\026+\264=g\345\202\275\347(\247\274M\377\312\275\3758\221\275\010\365W\275\006\221\253=\000\030\002=\306\371u<#\322+\275\334*\303\275\210\203\250=\016].\275\326\270\302=LI5=\247h\255=F\242\345=\342\210\220=\307\264\016=\327\265\373=\214^n=-\302\262\275\346 \253=\021\320}=\'\223\242=\345\035\324;\273\006\370=}\014\233\275\360\023\370\274\331\261\251=5\273\316<\216y\236=\254\016\244<5;\215\275#Z]>\310\'\327=\265\277\r=x+:\275\333\027\356<\372%\200\274\351T\312=\t)\362=\370\'\014<\276\234\001\275)S\273>\033\243C=.k\002\274\210\204\200<\332\300&\275\341\"Y\275\203x!=Oj\003>c\330\257;\335N\207=xc\315=\271i:=Q\251\316:\325\022\211=\303\213v<-m\220;\2264\242\275b{\r<\031>k<O\354#\275\202\201\004=\3267\373=\223\031f<>z\225\275\253\275\372\274\212\263\'<\260\234\261=R\223\311\274}gl<q\t\233\275\3323\001=$\200\033\276\221\276\255\275\266Y\031\275\016)\206<\036\023\334=\266\2233\275\"!\320<h;Q8\244%\313=\000\205\355=~g^\275\'\200\200<[\215\035=#c\250:\321W\210;^\325\262=n\227D\274\317\330\323=\241\030\316<3\023\213\274\316\246\273<>\027]=\346\225\263=[F\243=\271\202\034\274\217\204\311=\375R\331=\310K-\275\332\213\316\274}/\227\274\020\304G;\237t\004\2758mw=\230\253\361= \300\266\275\r\005\300=\250@8\275\037\210\025\276\254\347\347<*\3463=t\271W=u$!=\304L\330=z\022\272\274\327\016\234\275\347\204\021=0\356\353\273\257\247\365=\177u\221=2\316\253\2759p\3559\312\352\234\274\300\233\010>T\036\013\275c\375\233=\026\006\253\275x#)\271\022\342m=\032\364\006<\272\340\370=<\324\202=\340\275X=P\271\025\275\272\023\361\275\317\037\037\2750H\025\275\311\"T=l\002\247=:\343\377=\305RE\275H\004\255=\370\211\221\275\036\253\243\275\367\031\214\275\215\322\201=E\333&=\206j\215\275\231H\037\275\374\346O=\326\007\020\275\266.\253\275\202u\305\274hm\212=\257}V\275\370\033\354\273\334\336p\275\303\264\001<\001\247\334=\027\304\366<\354|\366=hf\337\275\276\030\302=7G\226\275\3305D\275\343\206\210=jdf<\317\030_=`\300(\274I\344;\275\216L\211=\333\034\207=\026\n4\275_A\211=bb\320=<\351\253\275U\016\032\275{\313H\275\306\266\004\275`h\261;\250\034\351=\222\007\016=[\177\377=\374q\275\274\210{\210<R\302\265=l=\345=\261(Q=\2303\034=\271\265k=\353\212\033>%Z\276=\"\247.=\331\200*\275r}\016\274\256\351\'=p\245\204\275F\317\013=\320r\345>\235^\340\274\366\002\010\275\033\241\320=\367\220\316\274!\003\031\274\223S\300=Dy\330=\254\265\335=R\306~=\002\234\310\275\225\003N\275&T\030\274\036\203K=\326\354\354<\215\270\217=D\371\252\275\252\007n\275M\020\350=\006.\030=dO\300=\365Kp\275S\'\234=\036\373\261=#\257\246\274\277U\034=\244\327\324=n\217T\275\327\'\322=\310jO;\237\244\002>\211\362\252=c\244\272=\300\303d\275D\350\207=3\\6\275RJ\323\274E\324\376<\272\013\221<\325D\234=Z-Y=O\214\316=\276\302$\274T\241\262=\200G\205=\014<I\275q\004\223\275\210\352\232=\235g_<\r\360\000=\203\221\335=\\4\307=\341\006\257\275\3747k=\217S\245;J\260\364=8E\354\274\035\324\231\274\363\237$=\363\314\227\275\334\026\r>\262\341d\275]$\210=\035\311\215\275\023!\025=\256g\335\275D\243\262=\275S8\274\315(X<`\360*=\246v\200<\254O\236=\254\231\305=T\010\233<7\230\256\274\303p*=p\310l=\016\307\266<\203\373\367=s\245\354\275\230\033\250\275\371\024\177=\rE\240=\304\3271<#\307\214>\337\031\304\275\330\027\320=\312F\363=\223\231\356<\227;\367=K\327\006>\021?\220=\201\256\237=`@\224=\035\212\363=z\310\272\275\234\003\023\274\371\r\246=\345\201\242=\317\356u\275\036\321\n>\212\322\274=u\014\204=`\376\241\275\346-D\275\353\n\351=+\243\236=$\204\250\275o\204\214=\375L@;\203K\304\274~\347\371=\264\235\234;\236\334\322<\322\225\233=\216\337R=\343q\227\274[\255\253\275\017\266\243=S>\010\275\334\021\241\275\246\277\177\275\277\002\306<v\302\257==\202\326<\231J\330<\264\006(\275o\231\022=\210T\231=\002Ow=Od\323=\227\3527\274r\034Z=\017\032\307=\"\272\374<\376\311W\275\334\255\203=\215\\\024;g\350+=\270z1=D\242[=\333\260T\274[T\271\274\343U\\=]\344r\275AC\264=\376c\350<\374\321-=\257/\300\275Q\005\374\274LA\320=\323\300O\275\225\273\022>\264T\032\275Sb\253=\037\"\030\2750g\337=\037\343\365;\371\230\177\2759\030\353=\336_\221=~up=\221\222\272\275=}\224\275\003\237\034\275\305\225\367=v.\204=\342y|\274\370P\224\275\340Mp<\214\342\245\273+(\226\275\356\335\242=\342\256\024\275\256\221b\275)R\331;\316\244H=\342P{=\3300\206=\202Fc=\316f1\274\210$\261=|\333\305:}O4\275\024\r\022\275\221Kp=\244D\227=\213\\^\275\271y`=\307s\242<<\352\305=O,\265\275~\304\010=\336\327\002>.\375\325\274\251\340\001>\342\275\236\2751\355\262\274\332\311\316<\004J\354=g\213b\275|\322\251\275\311\267\303=\323\205\325=\256@;=\220L\362\274uaA<W\010\256\275\212\365\271\275V`\367=\037\376\275\2751BF\275I\253\356=ff\225\273\313}\242\274\245a\242\274\340c\330<g,~\275\213\362\227;\312P\253\275\244\002\210<5\242\242=k\232\233=\272\336\251</jr\275\213\234\310=\210\236\207=\0214q\275)B\273=\224\0223=\017\365\203=\267\213w\275s\243\271\272\311J\257\275\203\366#\275\343\257\001\276\355m\336=\331K\216;\205\266\200\275G\370\346\274T\014T<\313\205\211\275\207\036l=\212\341%=\226\345\224\274\300#\275=\2048\342=\007\351\205=\376\210\243<\220>\226\275\311\036\366\274\337\223\321\274\252<\304\274\232yo=m\377\232\275f\250\354<\2362\356=\2241\304\275\024\217Z=\232ui=\237\261\234=\227\\C<\326\037h\275n+\026\275H\343\024\275\366S\354=O-\327=2\362\312=ZY\220\275\370\305I=OGK=\204[\256=\302\313T=\220\300\315=_\305\205<\330\221\310=[\342\231\275\211\245\302\274s\321\274=C\rb\275\255\205\240\276\310\272\201=\266\016O=\225\266\211=\201\376\262\275\n\345\017=\004\246\241\275a\374\242\274W\023\312<[@\333=@+\257=G\002\310=a\305\237\274gA\301\275\350;c<g\305E\275\353\001S=9\334\237\275\331\342\233\275\235\236\273=\020\376\005=\255V\354<,\235\277=\304K\214\275\002d\217=\366\tp<\330\306\225\275\355\305\247={\241\304<\354\024,\275j\'\265=\2378\301\275\316QV\275~\316\210\274\227\014\310=\276\030\002\275\263\303\205<R\225G=SQ\\\275!\203v=\300\n\007?u\232\221=[\326\213\275\202\220\013\275+\336:\275A\267\245\275X\010\200=\240\322\254\273\270)\237=\303N\255=\037|\215<e\324\244=7x\211=&V\252=\242\261)=M\273]= U\244<\\ \320<\177\351\317=\340\372\221\275D?\231\2743\024\223=\230$\307\274\r\264Y\275\226/\326\276Jk\274\274\302\235\177<S\352\243<|\274\256\275o;\210=\244\372\305\2746:\350;b4\310<Y\3353\274x~\017?U\200\023\274\372\010\363=\"(\013\275K\006\221;\313Z\223\275>\323\237=o\337\327\273\251\027I\275L/\023\275\021\035\205\274\343\346\317=;\232>\274&\202\207\275o\022\033\273\266\366\361=\352.\211\27532H\275\257\024\222\275k\247\245=Y45\272\276&\332<2Z:\275\230\020\325=z\243\326=\177\336\205\275*\333F\275\370\237D\275?pA\275O\356\030=i`\200=\302Q\210>^\355\201=\004\032\306\274\312\3411=2FK=\314|\244=!\032\235\274\3642Y\274)*\256\275|{\333=\305+\376=\365\301\353\275*4\326; \271\343=\326\374\321=v\230\033=)\246\237<\362T<=\360G =r\204\260=\005K\303=\346\022\276=\020H\001>\224i\n=q\250\315\273\234\000\254=\207\260\254;q\323p<\217\325\336=\263\311\206:h\215S\275\230\321\261=\023\215\333=\325\224\"=GBo\274;I\306=\325\371\367<t7\231\274\324]\352=V7\250=\262S\\=\376F\224\275\330{\345=\236\372\336\274\213o6=!\330\367=$\375\270=\021\206M=\235l\244\275\260%D=5H0\275T\003\252=\032t\366\275jL\t<\376\255%=\035\354\366\275\006.\232\275\306\030E=\276\177@=\026\270U\273\373N=>\332q\025\274@\235.\275\240Z\010\275\177E\t>y2\026\274\022\217\001=\356\254\276<8kT\275-\027\352=e\003\014=\231\226\337<\345\357\311\275O\030\220\275\340\351~\275\311\223\t=\234\016U\275BL8=.\000\212=\335\310I\2726\016\214\275\001fm\275\377:\215\275\356o\300=)\374Y\275\366\347*=r!\201\275\212\240\312\275\352\016\022\275\002M\'=\212\306\016\275\371G\246\276\227\321\234;\035st=[\206\023<\024\260\316<\336\230\246\275\322\236\235=\205\226\250=\317\211\250=\213}D=\227\304\264\274\026\317n=\374\350\020\274/\201\367\274F\007\211=\360\003\316=2\277\326\274eH\201\275\343\027\021\274\212\'\013\274\300\276\200\275\025A3=4wI=\"\206\241=-N\331<\026(\350<L\351\311=\256\336\254\275<9\234\275\222\021*>\34678=\223\372\224=s\205A=\257h\265=\325\376T=Mh\000=8V\345>TR\025=\016\371\215=\212\257\233\2756\010\303\275\031\210?=S\361\325=j\3057\2752\024\373\274\225\344\244\275\007\013\236\275\210\016\031=\003\370\220=\236u\364=7\261\000>\033\250\007\273%\242\250\275\204\034q=N\013\314=\n\235\247:\027\256\301=%i\321=\370\241\260=B9\030<\276\366S\2751\347\267;\003\004\373=\305\354\203\275\336\206\264=\255\276\"=\341\3624\275\362\330\353\273\034\340\201<~;L=\345@\374>\304|\n\276T\230-\275\307\267\177\275?}\255=zp\256=\337(\026\275\334<\275\273\353\026\031=0\245\374=\252\377W=\2273\252\274;\222N\275\036B\345<dy\363=K7\234=y\250\177\275\232\262\203=\210\205\204\276$\331\2779\311\325\314\2742j\213=Ua\233\274\340\221d\274\204\270\224\275\240\310\342=\212q\034=\331\366\202<\205\007\211\275O<\274;\007\013\203=\032\017y\275\'\260\340=\272\332\231=\374\362\r<f7\344\274\232q\313=u5\316=G#c=<\331\022\274\030\267\326<%\213\352<d\024\263<zX\257=;8\000\275\232K\214\2756\316\360=\311^\205=\254\203\251<Uo~=-w\002>t\256\267\275(\326\361\274\0271\017\275\366_\226\274\243$\330<\341E\035=\322\226\370<\233\307\211\275Vc\265<\247|\236<\364\0208<j\023\323=\201<\000>\252VE<P\2751=\227\266\342=u\005\020\274P\317\262<\220\374!\275\225&\214=\205-\023=DtR\2755\224\212\274\010\247w<\010\360o\275\342\020~=n\236-=\354~.\275e\267\000>r\364\027\276\352d\201;\177\246{=\003s\236=\302n\330\274XQ\363<R\\\322\275WR\034=\322\325X=D\257G\275\222%\240<\211=\272;\177\017[=|9z=\003\000^=\231d\247=\345\366\276=.@}\275V\316 \2755\250\201=\203\025P=I\364\361=\217\"\216<\242\206\324\274\337\261\017\275\245(F>4<T=\356\325\276=-\217\000=!\240\334\274MRB=,{\206=\225\225\321=\234\006\254\275\221\037\204=H\320\200\275\336X\300\271b\026\374\274\272\343\003\275\215\221\204;\310)\273\274@\'K<\026\365\004>\340\322\357=\254\244\307\275c\020I=a\004\277\275&\024\204=\020q\251\275\250\207\267\275\35556\275\342\322\307=-\370\206=)J;=eFl=]\361\235=\201\271+=\350\306A\275K\351\375=\262\360\230=\376S\220\275*B\245\275^\030\000>e\254\333<m:\254=\035\354^\273\223.\276\275\341\203\201\275}\374t\274\361\035\350\274\200\341\253=}\025\017=\364M\333=\331N\322\274ZI\347=\006\256\321=\255\003\273=\311e\357=\303X\353=-R\260\274\361\\\303=cq\220\275Rn\231=\352\224W<\317v\256=\205\357\375\274\200-)9\233\222\347=\374\031\302<\340(\022\275=\264\030=\330R\\\275\373A(<u\226R<\360\332D\274\303:\276<\361\363\207\275\305;\205=7\246\303=/\356\350<XR\215=\305v3\275\240W\262=\034\356\377:\235\016\362\273\240,.\276*[ \275\t\323\212<U\223\206=\250q\333=\237\357\247<\272\3539\274G\2549\275\364\206\014=d\000\321\274\207\312\220\275\366\314\303<_\032\343\274\314\301\267=\211\030\264=\213A\261=_G\224>L46=X\313\227\275\033:L\275\220\211E\275\022*\001\275\302\306\212\274\"\351\333=[z\243\274Ln4<o\343\233\275,\232\334=\021E\370\274\321om\275\374\376t\274\226p\301\275\362;\234\274D\343\001=<ti<`Ev\275\317\327\275=\023\275j=\271\333\225\274\263l#=\317b =\331I\354\274\304{\212\275\001\010\250=p\230\254\2750\267\212\274{e5=\366\235M=g\271\021\274@\375\263\275\266\323\272=\013=\305=\203\'\342=\244\232w\275G<{\275\2112\031;\"I\270=\371\267\"=\350\250\275\275l~L\275\305x\262=\340\2561>\244\355\265=\357L\236\275\315\005\t:\027\354;\275\212#C=\342hW\275}S*\275Iw\336<\362JC<\321\333\245=\327\200\220=>\352\236<\250\272\317=\260\020\030\275\377Y\367\274\310\032`=h\213\336=P\246\257\275s\262p<O\205\n\274;\355\255\275\277zq<ZZ\231\275Il\264=\337F\225\274F\355\333=\025q\342<[\246\361\273q\373R=oy\233\275[mA=\246W\266=\034\202\026=\001\274\325=\244m\233=S\345\273\275\265~Q=\247\322`\274\306\224\325=\301\321\247<MF\206<\327\337g=\371\000\235\275\271\213M\274\372\214\200\275r@\304\275>D\330\274\221F\332=\017\036\263=Q\231x\275\310\247\004=g\366\225\275\301\\\353=!F\313=\255\201S<\353\\\237\275\026\367\321=Y\221W<\332\233p<muI<=P\210\275\034a\301=1\304\201<\021\221D>\221(\361=\177*\264\275$\335@<\250\325\274=i\254\350\272Hiz\275mc\336=)\376\373\274\302V\320=\027{\344>/8\254<\334>\227\275\20038\275\246?\325=c4\253=484<g\026\337=\243\225\006\275\253\201\216\274\205\363\272=\233\362\356=\177P/\275b\352\375=\021\020\330=R\326\263=\374\300\021<\240-\250=\204\371\223=\376\030\275\274RR\345=\354\230\371=m\377\346</\273\325\274\241B=;\331\330\221=;\031U<A_w=\217-\003>\0011\332=\305\020(<M>G>\007XK=\010_\324=\306\3206\274\205\017\342=/\036\323\273\203\322\337=\21714\2759b\215<\271kK\275\010\215f\275g\375\263=\\&\322<<\251n\275\210\224\035\275s\030/\274vu\213=\232\312\344<r\330q\273\254\241\200=<\030\327\273\252\202==8r\256==/\203\274\035\241\356=\205\375\341=\314c\277=\273C\353=\206E\302=\263\347\357=\0328\r=w\266\201=\343\257^\275[\221\255=2M\240\275\203<\202=\304\007\274\274!\341z=P\345\322;\362\242^\2757\356~=\005\362K<\013\224\300=m2\232\275\037d\207=\"\301\207\274\006|)=\323\326\314\273\216\270>\275+\210}<\0325\355\275\257\0230<K\201\216>\200f\002;\321\323\263<\301\357\223=\177E\217\2753}\205\275\244\245\340=\304\311\262\275t\214\260\2769\263G<\327a~=]\370\250\274\226\246\332\275\t\272w=*\355\270<\346\3630<<\314$=\035\362_=u\251\\\275-\376\007=\3433\271=S\321E\275ye\223<\222\252\274\275\002\035\025=\035r\327=\034\032{=\273so\2739J\007\275\364\303\327=\222\230\221=\225\371\362=bW\247=t\332\016=\345\230\234;\256\014\202;\332\323\206=x>\005<\202\005\026=\221\306(>i$\312=\334$\274\274\312\020\245<u\246\255=\354\366\303=\364d\236=\364 D;\3417/\2741$:\275\304\360x=\306\006\201;g<\361\274\017\243\030\273o\2277=<\252\202=)\2248=\272\301\004=^\241\031\275\005\277\365=\206\377\302\275\345XT\275\356Ar=\337p\352=\270\246k\275\275a\005>\340\327\337=\343hO=JZ\253<\316\243h=\000=\363=D\241G\275\271\246>=\220d\223\275m\233*=\321\365k\273\262\300x>\2569\n=\237&\030>\323+\270\275h\034\206=Ln\225=87\225=m7X\273\357\221\336=\354\002#\275\030\244\240\275\252\224)\275\001\234\t\275\335\325\252\274\033\245_=v\224\006>/G\350=\323\224\353=\365\261\330\2744|\350<\255\214O\275\302\356\330\274zh\217\275\267%\330=\351Q\355\275TL\244\275\256\254\227\274\224\351k\275\310[|=c\262\n\275\222\2141=N\377\370:\302\213\272\275\303W\205=6\371\221\276\377\211\304\273\360\271\226\275R\233\217\2755\262\244=D\364B\274\272\006\365=\"S\202=\010\350\232\275\277\347.=p\263\230<\375\376\024=}\303\300\275\262P\205\274\203\377\275\274\020X\314=\t\355\306\274\302_\373=\272v\034>\200e\005>\217?y=\372\336\217<\257\026\\\274\366\203\261=\200\017\032\274\266\035\342=\243qf>\373\017\276\274\0014\226=\310\020P<\t\234\233=\343\n\312\275\2000\377=\334VT=\202\232\271= \t\362<\253\260\222=85\025=\265]\227\273\317!\223=\254\336\316=\255\277\304=\232\266\"=\254\304\235=R\256H\275\\-\200=sqt<[Pq\274\260\373\224=\346K\244=\207\317\204=\374p\204=a\032\342\275\373q\232;\370\026\016\275\"3;\275\021\240\241\275\216\016\325\274\013!\343<\2747\373<:\325\207\274\372\317\253<U\355\376\274\225m(\274\376A\335=y:b\273\255J\313\274\316\257\271=\2317\261=\363S\305=5\213\355={\273\233=\223B\277=\231J\353;\271\n\367\274\000\341\020=\367t\372=-c`\275N{G\275j\376G\275\355\201\315=\"g\010\275\312\255&\2725\231\303<O\n1\2752D\211\275W+\332<\204\377\213\275\177f\202\274SH\342=n\357\240\275\347\017\003\275\352\t\274\275A\357\247\273\024\016r:\347\325k<\255[1>2\247\252<\362\025A=\203\332\253<\212\370\220\274\302V\356\274Z/\357<\257\355&=\361|\300\274\233!\377=\316\342:\275\037\203?\275\371\035\003>CJ\007>\363_\211=\021\245t\275h\035\346\273\3077f\275\271\342I\275\024\033\370<\037a\237=nR\300==@\272\275K\007\324\275^H_\275*\341x=\272\244-=\250U\254\275\330\017%\275\257$H=\360\343\313\273\344[\371=\204(1\275F\303J9\335\215\300\275#w\360\273\315\256H=\303\032\361\275\003\244W:\236\276\213<d\000\333=\241\255\\\274.\004x=>\002L\275R|\032=s\335\264\274%F\227=m\335Y=\331\235\340=\312\303\357=\262K[=\244o\360<lb\333\274\321\030\326=\313\327\221\275j\010z=\307R\203=$\377\225;;q\240\275\314\377\026\275~\341\243\275\247\002\366=\017U$\275\232{F<\243a\254=;\276\214\275\367\344\353=\331\231\201\275\367C\330={_\341=\365G_<T\014\376=\314\203\246<:\312\323=\246\300\327=\031J\221\275\034\311M=\005\301(\274D\250\220\275\321pV\275\250\rR=\212\244\254=\202\014\226\273\003\244\326=\360\340\326\274\225\371\251=\361qZ\275t\225\204=p.\315=\345ca=\316\364\245;M$ <\372\027\215<7\227\231=Yr\270;\332Xq\274\034\241\306\272\253\221\303\273BR\n=\230p\222\275hpW\275-\320\006>O\373/\275\014\3546\275\325I\207=\374\371\223>\254K\376=\016\302\312=\013\241\306=o\303\004=/&\033=~\022\306=\002\220\251\275\025\256\350=\0338\207\274\3220\021=~x\235\275laz=\217\317\027\275\222\010\004\275\3235u=\022Kh\275\253zA\274\314^X=/)9\2758e\247=\252\220\201=\265\026_=\032dK\274\324\332\251\2726\353\327=\245\007\214==\377\357=Hw\345:l\016z\275P\327\351<jb\232=\275Mx=\021\353\217=\274\271\205=qn\324=\003\001\322\274Ty\010<\326\305!=\252\272\203=^\036\002;\013j\264\275\325\212\3419\347\rm=Ff\240\273\200h\010\275\020GJ\275\003\234\212=.\305\\\274\177\265?\275\322\223\375=\016K\263=\006\000\255\275\224\240h<\334\313\221<\033\232\013=\221\r\230=\374\003\334\272\n\026\261\274\023\307\202=A\252\214;\263\265\233;\354r\201\275\201\334\213=\235\364}=\210!\266=:\302Q\274K\0011\275\373\005\250=\337~\214=\356\377\217=\027(;=\227\353k=.\273\315\274\302\347\230\273\026\'t\274\235\313\215\2758\365\335=\351\334\036=|\324\016\275\005\246\363\274\373Hy\275\351[\026=oU<<\371\254\226\275\036\203+>\303(\247\275\277\017\272=\314\312\264=\t\\k\275k\367\210=\306]w<l\2157=r\325o\275\241s>\274\245\256G\274\222\202@=\307\313\351=\302\356\245\274\210}\336=6S\232=\205\344f\275[A\300=\0322\253=\216\201\312\274WT\237=\03752=\257\312(\275BA\004>,\366\213\276)\243\275\273@\332\350\274\017p\301\275?\377\335\275\006L\200=\370x]\275$\213\004\275\311\361\203\275\277\021\310=\256{\016?\220\346\253=e\002\360\272\264\361\240<=\255\\=]\216\317=\367\345D\275\310\013\365<\332\260\332=\267\321\341<f\270\243\275+\213\333=_\347\260=\371\010\230=a\312&=ug\310<mLU:#\221z=\256,\212\275\"Y\246\275\227\256\225=I\356,=\300\372d\275\321`|=J]\002\2751\275L=\031\0060=\253\007\317=l\220\"=\004**\275\217x\214\275g\033\270=%\321\241\273q\261i=\217\010T\275\234\354}=\340\234q:\370\'\003\275Jh\221<E\337\305\275\021\263\346</\252W=\304\326g=\001\022\313=J\033\350=\\pW\275M\234R\275D\341\313\274\363D\342=\360\355\202=\230\222\354<\013?\360<\343M\221\275\036\207\031\275\375\220\346\275\313\267\351=F\326=\275\227\352\n\274\315\211\342=l\351\257=\251!\337=\254\215\230\275\342\205\232=\310t\333=\333\3115\275j\201.\274\233z\321=\007\027\237=\005\\\211<\261G\213\275\337S\207=\010\270y<\300Q?=\363\371\202\275\177~C=\345\334\220\272d\206\272\274\214\340\222=C\016\277\274[\017\327=\372$\006\274\252\'K=\374\373\222<\326\324:>\302S*=\323!\270\274%\022\030\276]4\371\274\220\240w=_\216\271\275\207x\236=\264\363\232=\261V\241\275w\264\203\275G\357(\275h3B=\365\337\234=\377\327\321=\225\370\225\274\007\256\025\275\276\350b=\314\366\347=\370\211X<\245<G\275tL\264=i\372\254=d\324\204=\000\241\267=\270\212\255=\224*\004\274\214\364\220\275[\307\332=$\221\246\274nM\306\275\331\024)\275\361v\362=#\336X\275:m\034=\020\2608\275Y] =\341`\337=\245\355\330\275c\312\246\276\260\222\255\275+\335u\275q\373\310=\371\n\304=;\220\000<\003\t\343=MM\322=\300\032\200=\332\273\201=\3754\013\274\226\321\016=\252\261\351\274V\236F\275=\257\315<\334\320\312=\016=\340=\001\301\317=N)\367<\2123\234\275\231\250\207<\254Q!<-:\264\274y\364\210\275\206\272O=\225a&9\365\265\351=z\246j=\253\212\240<\202<!>j7P\275\335\307\223=\327\233k\274_\261\326=\264\267\003<v\376\273\274\276\\\311>e\024\213<x|5\274+\276\333=\033\207\254\275\352g\216=X\027\020=\300\021v\275\374\352\320=\353n\\\275\323_/\275\315\202\002>\016g\030\274 4\016=H\352#\275f\302\337=\260&\300=%R\374\274\262\361\267=U\362\004<\037Q\263=\204\257\334<\355\375#\275\340\271\210=m\301\213=.\373\321\275\005\205\337<\253c\307=3&\364=`\246\306\274\"\366\316=\372\264\014=\340Ca=\346\020\267=\031\375\304=[\277\245=\231;\013\275o\336\260=\325\275\307\275\2727\213=\310\226`=k\007\232\2724}\215\275\306\023#\275\316\264\214\274\374\014\224<2\237\350<\260\227H=\211\016\213=\000\352\\\2743\250\375=F\353\005\27517\200\276v\313\217=\003,\363<#T\250=\231\375\202\275\272\273.\275IO\341=Pf\351=\221\234x>\027\332\'\275\020\024\352<l6-\275V[\367<=\212\270=\344\224\313=\223\265\023\275\177\266l\275\317\021\277\275!\241\225\274J\013\336=\317pr;\300\376@<\354\006\242\275+Y\272=fL\236=(\014\253=\376\323\304=\266\267\374<\253\013\331\274:\363\370=b\377\233\275\341\276\342=\310:\322>\213\223\273=\344~\030\276bz\022<\256\303\215\275\371\030[;\372\255\257\275\005\211\316\275\222\244\243>\016\241W=T\301\315=<\226O\275B\374\300=\357\365\027=\330\t\237= \023\017=\307\371\350\274h\332\333=\3222\304<y\020\312=\266\035\306\274>J\200=\311\213)\274\022\323Y\275\255y\200\275\235\247\374=\'\332\273=\346\311\203=C\343\312=O\257@\275<Qf\276\221\301\233=Q\372\225=%-\350;\331\005\013\276)\327\225\275\303{#<\013\345\235\275\236Pj\274\024@\375=\207\037\031\274\305\314i=\'\247\271=\346ST\275t\330I>v\362\001>Y\337\241>\377\345T=\272\023\242\275\363|\226\272\016\235\222\275C\021~=^\204\266\271-_\340=\326z\023=d\236\211>\316\346\215=\314\3664\274\334\350\230=\031\214\352=\372\245\005<\321h\351\274N\274\334=\325\031\200:\236.\336\275\026\361U<tU\031<\\\006\007>\250\324\267\276\351K%<\362\013\007=\223\251\331<O8\246<\250&+\275A\242\336\2759\356\276=\024\264 \274\210\002s\275\210\365\251< \322\t\275\367\273y=@\000R\275\315*r\275`\261\026;Fjc<\"\021\256\275\352\334\241\274\325\271A=\006DR\273\274\000W=\341\300U\275 L\030\275r\302\215=Q\r\335=\272E\266=1\273\210\272\017\241\314\275\204\345\020<\"\222\275\275\320gW=|!\242\275\354\241\r\274\274\367\274\275\210\004\363=o\315\246=\033%\227\273}\224\340\274\276\200\376=qX\207=h\243\376=T\333\001=\370\"\222;\032~\371=\014(\341=\203f^=M\370\005=\024\357\221=\200\036\214=p\342\032=\216\223)<\332\250\306=\344Kn\275\317\340\003>wP\205\275H\335\226\274o\266\\=\324;\014\275\303\330\277\274\331\214m=\364\306\250=K\374\026=\272\271\321=~\316\026=\330\200\210;\203\377\251\275K\276\311\276y\334p\275\254\360\001>\225\016\213=M\333R<\177l\317=\203\020`=\026p\363=\352\203\004>\324X\260=\354$v=\006\006\335=Ao\303=\020>\271\275/\202\255<\215l\337=]8\351>}\310\236=F\361\244=\210\217\217=\n\342\336<\007\331\372=DG\372=\253l\224:,\2271=\212\343\313\274\244\252\003>2\200s\275\350\325\305=\320\027x\275\245W,\275\n\365r;\220\2351=\303\327\216<\261f\324<\230\004\253\274v9\022\275\254\2248=c\330\336\275J\331u=\017N\247;\377\217\326=\177\357~=\016\r\344=bw,\275\360*A=f\017\207\275vN\357\273\207\372\276;Q\221\261\275\022\371\234<\367u\265;\341\375 \275H(z\274|k\265\274_\336\031=\212A\341<\304\014I\275\033(\212\275{\242\266=j$.\275R\356\205\276\256G\337\275\365V\360=\312\341\265=o/\320;\242\265\206=\366\000\203<=\037]\275\303%\253\275\270\216\332=\020>a=ep\333=\220\'\371=\266\253\\\276l\235\270\275\260\225\n\275M\037\221=\2341\362=\331\017\036\274\224TD\274\342\260^\275\271\030\340=\"\267h=J\036\024=-\321\210\275\342\303\344=\226\254\261\274\224%\021\275\260\326\232\275U\'\203=7\017\275=\234\375 \275s\337^=\022\374\262\275\210u\340=|\365\'\275I\220\310=b7\001>sy\267=\254\240B;_[\326=\202\277\321<\207\377Z=\027\211\373<\035\344\344\273\\L\351=\366DQ=\246l\277=\032\265\317<\020}Y=\370\032\235<\257b\307=\223\315L=\371\031<\275U\031\365<\230\302\366:\r\234\004=9(\207=XC\214\274\032}\201\275\260\t\277<\335\243k=KVR\275\226\210\230;\362\267\021>\256q\206=\303f\034<\372%1;\307\361\253=ku{=\016;\215=u\0148\273\010\031\231\274r7\251\274\035\237R?! \365=\260\212\001>\237\331\203=V\253j=\336\350\344=\312\221.=\022\332\366\274\333\225\307\275\273\323\276=,\212\223=6\241\006>\202B\323=\010)\326=\235\263\340\274 iQ\274u\0063=t@\'=\336\226l\275\340P\330=;\243\226\275\034\326\327<7\337\201=V\255\304={Z\177=\226V\375=\014\rI;,xq\274\321\342+=\246\016\340\275\364\261\243=R\236e>$\263\017\275\227\255n\275c\255;;j\n\257\274\177\001\216\275\352\2272\275V\000\350\274f\345\207\275Q*\026\275\337\343h\274\350\230\255<\177h\023=\277\r\374=_\336\333<9\r\351<\r|\300=\023)\035=2C\201=\366c\370<\002\004\376=\033L,=\366\032\206=[\177\337\272i\010\317<\2417\206=\320\242d\276\256\246\255=\241\n\313=B8\266\275\340\244\323=\237\235w\274\320\260-=8\001\226\275?+\301=u\256\271\275\013P\t\275_I\251=n\232\232\275\326\312a\275k\343\006:\237\nn=\347\246B\275\244\020%=\031F\201=\n\345\203=\345Q\234<;\006\335<%*\211=\217\251\301=g\254\\\275\347G\037=@\007\371\276\214\025\272= z\320=[\363\'\276G\034x=\026Tv\275c\331\365\272\321\035\375\274D\265\270\275\021\334\032=\036\357\002>\345#Y\275\217o]=\013\3665<B\233<=\310~\004\275\200\202\225=\204e\366=\021\341;=\224\010(\273\2769\220=\241\306\000\275\001&W=\013\014:\275\304\261\206\274#_\334\274\256?\030\275\217*\246\275\310\004==\006@\347=\317\022\325= \\\375=\212\356\342=\010\262\005=\363\213j=S\364\300=-\271\005>\241\035*=\013\331\276\275]\022\372=w\260\002=N\232\264=\203\205\227=\370\255\207\273\035\234\311=\200|\373<F:\372=\361\221\006\275\005\215\314\274ww\005>\377f%=\270\372\364=\342\377\030=\337\244\237\275H3\207\273F\027\235\275v\202F=\345B\257\273 \001\335=\036Q\273=\201\367\002>\331+\304\274E\220\364=_(\370=z\266\316\274u$\021\274j7\312=\276\3772=\246\2470>\t\222|=x-y<|O#=\202\244\214=,*s=\230A\356=\276%\264>\272h\027=\251\002\377=\340n\234\274\263\335\263;\216\317\207\275\372F\006=<o\013>\257.\022\275\371\341H=\345\233\211<5\255\272=yh\375;v\203\214\275\314\331\254\275+\207c=;\357\022=j@\355=\026\t\303=\3422\210\274\304\3535<\257\371y=\302p\221\2750n\204\275\201\342g=8\030\333;\356\205@\275&4\313<\347\321\264;X\254i=&\271\210\271\354_\334=\006\357\367=$\252\271\273\016\241\333>7.\t\276\353!\240=)K\204\275$\003\325\275T\221\275\274\350C\334=\333d\372=\317\017\337<c\305\266<R\021\255\274\2653\317=ln,\274\341\024[\274\257?D=[\031\367=Y\214\213;}\330.=\177 \035\276j%4=\3646@=\330T\004>\"\262\002\276\346\256\246\275\\\2420\275\311%\350=z\206\377:-$\316\275\261\031\260=\033\256\357\274ed\260<^\372\266\275\356l\301:\362\355d=\2225\336<+\321\234:\220\204\235=\344\030\274=\231~\353<\224Z=\275S,7>\351Ba\275DA\247=\324\030\263\272\033\203\332=4\024E\274\332\370\251;\n\2067\274o\026K\275\203~F<\322\323{== \261<\201\336#\276\\\207\222\273\257\204\246=\023\273\376=\013\260\201\275\327\222v\275\257Z\"\2743\243d<fy\315=\2524q\275\nl\346=>n\013>j\023\221\275\341\247\340\275\000\003\333\275\317\334\306=\021\306\300=\217b@\275\227q$=\356\023<=A\314Y=\322\307\005>\332\336\365\275\006\t\323;\177X\036<\365\363\266=*(\223=\213F0\275\314\237n\2759\367\334=\346\231}\275?\224\240=~\305\231\275\241t\204=\243^\262\275z$\335\275\027\357\342\275\251\300\276=%\252\277=t\256\215=\342\233\247=IUW=w}\2168\032+-=\313M\354=\321*O\274\241\023K\275+-\261=\237[\221\274\340`\247=(0\322=vs\373=\'\210\261=\031\356\260;\237\033\231\275\216F\203\275\315P\213\274\274<4<H\240\231<\263\275\357=\010Z\315=\361\2171\271\341&\301=\360\233\252=\377\0251<\331\023\276\274\201\306\016=\362\345\233=\376AC<\"\227\212\275\301[\322=\016S\203=@l\301=C\376\242\275\360\370\335<\250G\357\2743\026,\275\212\332{\275\264\343\261=G\0048\2753;;\275`!\352\275\333\031\321=\031_z=\233Q\352\272\013\327\363=\326\326\202=#\\\000>\353u\325<0\371U<\307\207\232\275\323\272\277<\324\363\271=\000\320\236\274I7\330\274\2016s\275\312~\221=eD\033=\251\033\377=\353{\305=5\236\305<K\240\251\275C\363\206<\"\r\210<\204\2218\275\324$\375=\256\301\230<\202\304A\275P:\341=\210\234\006=A{\336=\020&>\275\273\247\305\274m\217\354\274\014\336\200=\036\275\010>\321D\227=p\345\315=B\241\231\274\361\037\260=\223\312\244=\321\331E\275\240\363\240=\373\201\003>{X\255=N\321u\275\303r\331=\232E\235=\234u\341=\314\027\236=\304p\242=\274\006{\275y\267\226=\230\014\022>\236\204\355\273[\245\302;d-\234=\256u\235=\311\031\263=\230\003\373=\354\240B=?\327\025=1\005\343=\177s\264:B\327\322=\203)\014=,\267\320=xqA<\037\006\201<\263\253\'\276\321D\347=\362\363z\274O\325\201<\207\302\021=\222\205\312=\273F\014\274\2420>=/Z\271\275\223\177H=xn\243\275\001\215\037=\016\360\327\274\224\305\336=\375\177\r=\032\250\327\275\364\327$\276\353x\270=\343\265\206=\"8u=\322:c\275\232\351\337<\201 \265=\0214a=\022\305\241\275\023\273~\275\023\312}\274\356\037\305=\003\021k\275\370&\177=\010\345\316\275-X\311=\001^\246=3\244h<VP\272\274\245d\246\275\007\024m<)\254\261<\2624#=\264\270a=\306\3117\275\227,\254<M\375\320;\244\027~<q\306\300=\004\244\013\277\3676,\2759\023\222\275V\210%\272\240\354\301<-l\004\274\262D\366=d\023\'\275\215\343\274\274\r\016\345=\370\246\212=\000\332\265=\020[{\275\336\323\215\276\207\365\304=Qa \275o_\272=\367\'\210\275\001\226\320\275\225\327\205=\315\027a=\027\356\241=j\231\314=k\305\332=\252c\023\275\037\357\362=\244\227n\275\203\350\203=;f\230<\221f\253\275(\262\254=;\260\202\275h//<\002Z3=\025j\223;\252\263\010\276C\262e\273\036m\247\275\351\343\336=\271\315`\275\022\302\227\276\233?A\275\345\'\240\275\262\370\275=\000\243\206=\371i\374<Z\352\353=WY\275=a\177\010>1\276\323<\320PV=5\203\006=\244\302\347=\343\337\330=Z\213\244\275\311G\311=\273\345\336<1u\317\274\033\006>\275\200|x=\007\210\347\274\333\245\310<\221\0304\275\350\344\006\275z\261\273>\203t\220\275\250J,=\016H\276<_R\301=\366H\341=\204\337\016>\275%\354=;\203\034=\231\361e\274~\354L?\366\235\323=\233\035\367\274\342\213a=?H\260\272\2662\226=xC\364\274E\335W\275&\331\355<sP\237=7\272\354=\201C\002>\240\344\t=\302\372l;\315\035\346=d\304o=Us\333\274RwR\274X\332\310=\014\327\201\275\016\343\214\275c\2030\274\206\372\006>F~F=\224p\354=L\022\227<\'\006\271<\310\215\323<\024\003\230\2755\034\014\276u^\360=Y\362\272>.\212\242\274:\366\216\275\033[\216\275\033\243\004=N\3611\276\221e<\274\n\225{\274z\247\035\276\036q-=0w\346=3J\252\274/EK=!\033W=\0177\370<|=G\275q@\260=9\374\006>e_\236=\020\021\264\275\327\322\246\275\373`\230\275j9\003\275\254\226\265\275\342\327\200\275_E\275\275\364\303|=\346\350\217=\tR\307=\177s\221\275e\243\277\275V\000\217\274\214\333\363=\331bp<,\n\224\275\206\267\231=\204\300F\275<\231G\275_e\0218*\306m\275\347\252\003>8\273\276\2750\235\302\274ZF\t=\036\317\267\274:\006\204=\343\201\200\274\203\311\234\275Nm\367=\250o\337=R\022\007\274Y\257\373=\357q]\2770\216=\275\272\345\307=G\343\027\275LX*=\317\214\333=\221Q\277<\313R\210=\250\272\270=\204L\r=\311\"\026<\226e\362\274\267\270h=\376\222\224<\032\r\235\275\002\037{\275<\336*\275\235\337\000>\016S\256<\361\033\206\275\212\227e\275\375\367\207\275\306\260p<\016\365\215=\215\264\274<\026\336I\270\3402B\275\240E\305\275Z\356k=;\265\224=\252-\340\270!\323\\=\2616\r=\216.\243\273LLV\275\273&\323=\271\343\357=dF\006>\336\204\210=-\373\272=:\306\367=\212\240e=\255\010p\275`Z\217=9\361\241=\nu\004\275:\201Q\275\341)\220\275\325%\307= s\357\273\240\211\201\275\006q\343=\311c\016\274}F\302\274\332\376z<\345\031v=\267co\2757\232\334=\256\333\317=\006\267\313=xI\224\275\"D\372=5/\224\274\302\034\216\275\006\205\246=\224\232|\275\334\256{\275P\300S=\3224Y\275^y\023=?b\217\275\245\340\t>\343\217\233\275\374!X=s4\017>\346`\256>\344\350\311=\321\'\262=H\361{=\313\313S\275\217B\315<\340\245w\275}vL\275c\240E\275!\324\022>\007\r\253\275f\005\231<xX<\275%\377;=\207{\024\2753\262\276\275\230;\227=\227\312T=;h\023>\372]\260\275W\352\025>\251,\220\275<0U=\000\327\301\274\374\313\035>\010\037\206\275\266|\200\275\251*\253\275/(\305\274\353U\377<\376h\244=\253\274\351=\327\275\223\275C\3553\272\221\001Y\275L,\355\275\301\313\353:\347\337\\=g;[\275\213\251\200\274\240\007\314=\207IM\275\205T\326=R\025\330=\317?G<C\350\263=\365\244\204=6\006(\275\300H\360=\243\263\223=N\\\210=4H]=U\314\314\2752\370\365=\217*\017>\226d\321=\375\361\331\274=d\312;i\'\\=4\\\306=\3335\265\274\356\271\300\275\002\232\246\275\024\365\244<-^\033>H\373\225\274$\262\301=\2347\241\275{\374\261\274\210y\257=\373|\316=\320\260\243\274y\207\254=\211\200\301\273V\276\257=\375\275\026>W\324\324=\356\223\210=*\267P\275\261H\232<\021\255K<Z\330\273=\224~\267\274\372}\313=Y\303\337=\352|\321;\r#\241=\345\033\\=\004\327\361\275*N\370=\243 \271\274\273\240s\273[\206\013\275\377/\205=\356\226\355=\257\231\311<\rk\330<\331\273\016\275\222\3168=\376\361\201=j\320\210\275\273\264\335=\253**\275j\347a<\313?X\275\361k\004>Z3\253;\243l\215\275\032J\364<\322+\270\275\214\340\014=\205\231\216=}\357R\275:\332\213=\346\211K>\331\352[\275{6\305=\201h\251=\251\201\300\273\354\342\016=U\326\307<\264{\007\275 6O\275\030\220[=\345LX=gv\r\2754G\203\275#\232\344=\360D\212\275\\C\213\275\302\017\317<\253\273f\274^u\273\275<\237\337\274\236\027Y=u\242\257<\343m\354\274\217B]=\023\234b=DRV\275\034#H=\025R\347=\355\331\351\275O\370l<\021/\234\275\346\233\233=6\271\217\275\004y\227\275G\320\021>\320c\270=\'\330\n>\270\355L\274\215\t\207>\231t\343\275\214\355\212=\260\220\257\274\362\315\237;\234,@=\2270\250\275\227\013\246;\311\211y=\213\266\246=\024\257\006\274\007.U\275H\373\351;\201\324n=\275F\035=F\264\252\275\350\271H\275h\233\023\2754\037\306=\266C\000>\376\026\013\275lA\204=E\n\234=\237\030l\275\234\341\303\273\036\264>=.\216\217\275d\275C\275\261\304\234=\264\265&=\266\304\242<v\233\330=\377\277\240\2757\321\233<\246\032\254\275y\352\037\275\345\334\241\275\375|6=c\302*=\363\341\327\275O\263k\274\033\367\277\274>\324\303\273&\020\275=\250\372\215=t\277\325=<H\341<\035\n\014<\322\365J\275\252\272\276=\032[\306=\373\243c\274\261V\256\275\305\231\222\275\272\317\274\275\355}W\275\303 C\274k\010\246\275\236\246u\275\263hL=\311_\320=jYq=6\340\257<Kf\335\274J\256\0319\325dC\275\314\264L\275\305\335O>\023p\333\275\271l\255:\"da\274m%G=\375\263\230=\347\245\350=\355\005\277=y2Z\275\037E\340\274\n\243g<\301q\224\275\266d\347=64\204=\332\271O\275r\313\000<\010b\240\276\025Q\226<\342\341\276=b\240\353<\255!\272<\213D\357\274\315\303\261\275s\261\n\274\025+\253=$\010\204\275f5\257\274\340\354\227<K\023B\274\240\361\013\276\364\036\232=\213`\262\275\\\304\245=\237\215T=R\272\365=9i\031\274\035M\257\275\320\006\201\275\245?\214\275$\370\201<\377-E\2750\252\217=\021\237\243=\220!\210\275\000\354\243\2746Y\362\273b\204\256<\314-J=I:F=\201\360|\275\236\037\306\274\326H\247\275\256\375o\275\356\336\014=\023\354\014\275\327\261\235\275\306\'Y\275bO\013=D#\337=\251\000S\2752y\247=\376\366\357\274\304J\257\275\370\377(\274l\220\236=\235?>\275\030\257z=\310\025v\273C\365\310=tz\312<;bC\275@\010s\2755w\254=\306.\310=\256{\330<\r\3629=\223\232\343\275z\320\235\275\377\362}=P\030\347<\322Mx=\304\325i=\311\234\245=\237\257\005=wT\n=\324A\354<P\375-\274w\013\036>7JP\275Dx\300=9\214\000>h\r\207=\232,\300</\203\265<\355\024\241\273\216\220\347<%\247\300\275\221;&\275@\246\213=\271tB<(I7<\270\027\226>l\234\345=2\365A\275Y\021<<G\247\210\275\023P[=P\222\343<\306dD<\315\\\301=\311\356\201\275\304\177r=\306!C\275\007w0\273\343\014\205\274\'\\\322\274^\243\035\275\331Ci\275\3411\201=F\020\224\275$\376\252=\276\007\323<\231*\027\274\315\222T=\246DC=\276\306\003\277\265\350]\275\366\036\322:\253w\324=\300\275D=\344{\346=x\225\333=q\220\221=\022\177\242=\013\321\277=\221[N>\202\373\241=\202\372L=+\"P<>h\274<\372\340\276\275R]\322\275\226Z2\275=\0372<gc\331=\353\\\241=\320n\n\274\270\321\214\273\350,\216=1\256\300=+\273\273\274\324\001\274;-\207\255=\030\t\330=\350\244\335=\3139,\275\331\215\251\274\254\214\024\2768\230\303=Hr3\274\240\364g\275\016p\357:\273b\t\275o\330n\275.n\000\275\n\365\220=\014\203\331<\345k\203\275+a&=e$y\274\262\262\210;\304\215\024\275\264#\217<\274\311D=H\'\203\275\315\221\257;\026\235\264=4jU\275\316\025\224=\257\037\225=\017\360\204\274g\210r\274\007\234\353=\004\255Y=\023O \275\237\377\000=Dp_;W\314\241\275\302\377^=\016U\003=\227i\332=s\361\253=e\032t>Rk\351=4A\357;\245\325\320\274b\324\004>\302T\363\274\227\221\306\275&\206\031\276\202T\311\275mZ\002>\327\302\371\274\001\0357=\266s\255\275\300\2753=\351\036\354=\363\000==\353\335\003=\326\377\206\274y\232\027=\213\016H\275x\307\226=\345\244\004>_g\262\274<\321\200=\037\206}\2753\365)\275\351\205\303>C\356k\274*\333.=\022\266\330\275p\306\203\275e)=\275\252\364\317=X\371y>\374*\264>Q3\233=\007\312\273\275\361\344\336;\036]\271=\304\266\364=g\340\330=\236B\003;\322\030\340=1\010\354\274\002\332\320=Z\253\333\274T\020\230=cX\253=\t\235\037=\225p\235=\301a6=\305\353\260<\t8\242;8\235\267\274\031\001\336=9\360]=\317\344\305=\321\376d\275\263\365w\274\352\026\027\274\256\323g\2753.\310=\240R\226\275\020F8=\317ru\274\237\002T\276\232\252\334<\244\310\204\275\204\0350=\273\274\345\274\224\270\t=\327\006\204\274\362_\265\275]*\260<vb\301\274/\320\221=\270\016\357=\331Y\013=\030\032\001\272\243\230\204\274\372L\364=W\351\373=\033\021\222\274\311\312\352=Vs^=\016\223j;\307\333\340=\256\000\373=\355QR=^\334\266\275\343\373Q\272\201\001\236\275\237\366\t=\301#\231<\200\264\214=\373\253Q<Nt}=\327\205\205\275\333\013\320=\260\n\210\275\245\014\303\275\313\233\372>^\235\223=\303\255K\275\200u\210\275\257\360\024\275\202m\030=\245\366^<\342\315\246\275\224\202\216=\252\220\020\275IZ\246=\342\332R=U\001\206\275YZ\224=\2416\347=\272\213;<O\217\013>\254\265\001>\230\312\006>\\\347\000>\333\r$\275i \232=y\234O\275f\004\201\275\305\"\370\275a\376*\275\200\023\246\275\032^I\2754E\375=\304\346 =;\024\256\272Z&%;c\211Z=O9\201=\312\263C\277\304/<>0\306\r>\3515\203=9@\224=\244\356\212\275\027\373\344<X-\315=\305\rw\275k\221\333=M_p\275\022\211\351;\031\367\241=3\301I\275cRw=s\251\014\275\202\'\024\276g\235y\274\3011\200=#\366K=_K\375=b\373B=\301#\242=\345\0253\274z\'\006>\n_\034=\265\302\'?\265\301}=Q\325\324<)\316\030\273\371\244\366<\024CJ\275X\375\020\275VG\366=\375Lh\275k\333\335\274\240\262\341\274u-\304=\221k\001>\022\367\237\275\177]\316\275\311\222`\275S\332\023\275-.\003>Ox\314=\210\315\236\275\312\340\326\274\245)\260<\021\026\260=\311\0021=\304NF?s*\332\2737f\257>\200\226\203\275\261\026\016=\234\3777=\247\024\020>\267\325\220=\353j\367>]\271\335=\360\212\207\274\360\265>=\245~\3209\344\242\216\274N\221\371=\364\312\021=N\212\214>\"\340\376;n^\323=\272\320\305=ri\265\274\003L\013=6\263\227\275\310\231\212=ycn<\220$\213<b\214\022=\023\376\335=N\353\364\274\351\251\354=X\320\027\273\033\327\346=\373\271\233<\277\345\311=\\6\225>\261\263\210=\247\022\247=\241\2361=\363\3518>\212h\344=\347\312\206<\332\r\212=#a.<i\376C=BE\'>\217E\214\273\n\343\005>\244\220\264=\205}\244\273\235\227]\275{\031\256\275\332?)\275l\257\364=\343\354\334=V\364a=I\237G>R\253(=\005z\006<\251\2649>3- \274R\237\202=*Y\343=\024W\223=\311\203\312=\313\307&\274u\367\002\276_\313\216;\262A\2168\353\314\357\275\3728\335<Z\215\327\274\350\362\212=,\224\242\275/\003\233=\273$\031\275\355\305\271=\223\010\006=\315\003\266=\242Rs\275\013b\025=\207;\362\273r\272\234\272\016Q\270\275i\2669=\377)\004=\277\004\033<X\370\212=B\205_=8\037\216\275\000\354\353=\210\235\217\274V\013\334=UO\034\275\033\263\347=s}\214=\2215,\275s\244#\275W\316\014<\343\375\351\275\016\023x\275\033\253\337=\245\227m\275GF\217=K\231\356=;\\\210<\002j\327=\177\375\317={v\227=!M\324=d\244\025=\t8\313\271\rm\200\274\024}e\275|;\214\275W\365\006<C\004\256<\326]\311\275{\254\213\275\270\222\262=t\201\010=\032\324\257=\004,\240<\327\224a\275>\224\376\274\353\223\321\275\000\025z=T\306\030=h\027y\275>\201\216\275|?\331=n\231\276=\003S@\274\221\226\340<\3661\252=\nV\222\275\235{\020>QH>=\335\030\244=\220b\336=T<\252<\204\335\366<NY\223=\355\267\\\275n\224N\275\242\271W=\205\\\275=T\211\236<\033\326\270=[\222\255<G\227\227\274\333\317\375<s\251\307\276\351\013x\275\243\027\340=\266_\251=\r\035\324=jx\200\275\261\")\275\220dS\275y\204\021\275\02013=/\314\233=*\003\032\275\204Z\202=\273\0332=R\005\027\273\023\nx\275>Y\250\275\325\243\247=\256{\234=\3245\315=\255\202\213\275\254\211\215\275\344\346\221\275\345\313T\2759\255\331=\024~\227\275\302\206\252\274\206\262$\275\270&\327\275\264\t5\275\335\311D=})\231<-\327q\274\314\002v=\230\'d=\315B\244=h\035\276=\277\257\370<\231LC=B\233\002\274C~\313=\026\327\267\275})\213\274@\253\301=\245\307l=\300;\266\276;\014\314=LQ3<\360\027\252\275\364%\242=\231\275\3638\003\031\005\274S\000\310=\2124\003\275\245\247\263;\271\354\006\275\370\021A=\320@y\275QyC=m\'\266=G\320\305=\320\257\004=\370\017\006\275\331)#:<\364\274\275Rb!\275\376I^=\220\2431=1\034\241<\nK\013;5\317\221:\245\006X=\342\366\261=\212\247I=&\2642\275Z\214\266\275/\213T=\234B|=\304\003\203=\014wb=\\\036q=\214\341\016\275!&\200=\034\201\241\275o\311\002\275\204\014R>q~\026=\334\277\344=\361X6\275u/\344=\016:\332=\336\207l\275\317\001\242=\'`&\275\030\236\321=<\203\233\275I[\031<\200\336a=\214\203\372<\326\030\t;\252\004*\275\030\035\002>\372\335\252\273\202Y\000\275\341O\362=\230 >\275\233\365y\275\364\272!<;\371\333=\252q\364\2766,\220<\023\n+<0\006\033=\303\215\251=\034\256\037=\017\304c\275\320\037\262\275d\027\205\275\314\017S\275p0\327>\361]\020<W\t\314=\017\377\311\274\030\266\274\275\3658\336\273wI\\=\326\234T=B\366\217=\322\236\360=\211S\250\275\362\333d\275\212\016\273=F\246\344=\\\2633=\235\t\264\275\276\274\310\275\31027\274\227b\224\275Yn\023=\322p\020=\033M\316\273\344\030\253\274K6\206\275\2053\000>\003\276J\274\376h\224\274{\325\332=i)\221=\004&$=&\347\347=\266#8=J>\217=\002^\236=>u%=kq\010=\361\270J\274\215\245\237==\355\240\275S\356\321\275g\371\025=\000\310\340=g\224\005<\344Y\257\274\244\341e=K7\262=\026\301\002=&\204>\275K\310\317<!T\335\274\371X\206=\014\346\372=\242k\323=s\315k\275\272\311V\275\225pD<\345`V\275o\020\361\274\004\013\220=\203l\313\273\355\3016\275Q\364+\275%\0037<b\235\336=n\263\274=\006\317\272=?\243\302=\000O\200\275\270\371\204<\335\336\000>\316\304\227\275r\004\356=\275`\262=Q\301<=#\316N<\202\366\201\275\256\2202<\372x\305=\321^\361=\351j\226\275\333\365\263=\267tQ;I\021i=/\036\203\275\036\013\277\275\371\221]\275x\310Y\275\242\370\365=\225z\n=S\236\215\274M\303?>\271\241\217>z\377\267=\253\027K=4\314\337\275\026\037\272=\027\336\337=}\353]=o\357\003=s7\214\272\246\227#\275\213\352\356=\331\263\224=\226\322\224=\305\346i\275.\n\216=\003\215\026\275\346\274\236=_V2=\2374\321=\306~\250=\332H\317=\3746\252<\026\331\315\275.\241\031=\325\256\222=t\362+\275\020]\177\275\263=#>\357|\242\275\025\324\300=?\205\347<6\370\003\276E@\377=\n\343F=2\360(<\322\304\210\275\267\306o=\330@\303=\204\274\363\274\021c\336\274\274r\212<\312q\265\275r\354\026=7\336q\275(Y\227\273\225\217?=\306\314\345\274\377\260\235\275Ak\370<\032\315?<\344\366\003>9\344:\275\245\212{\275\326\274e\274\232?\224\274\323\355\273=y8\226\275\316\320\302\275\265\232s\275\366\250\004>\363\035\255\275\307\250\223\275}\227E\274\201<;=\027\266\216=\312\0143=\016\363\343=\211\307\304>\274\231C=\003Y\227\273\036#\224=\251\206\226=\3207[\274\3603\310\275\350\000\207\274cR5\275\332\257\350=\371$\354<\331xz<\021}\226;\347\277K\2758\315\024;\363\247\227=\244\350\271=\336\201\237<u\024\242\275\204\204\257=\274\356\005=\2211 \275\277\360 ;\002T\205<\323r\260<;b\305=D\304\266=\032\333g\275\356\232\216\275-\354\006\275\314$\206\275\333M1\275\335\311\332=\372eJ\275^\365\204=\032\354\270\274\254L\270=\253\306\263=\351B\201<\200\306\265<\337\202\325=\275~\374=izs=;\337\306=TvK\275\000\247\247=\210\364\230\275\265[x\2736R6\275\347V\005=Dm\350\274\261\205\304=GA\207\276U\247a=$Z\347=\375MA\275(\305\013\275M\355\263=\001\205\202=\317ZU=\334\025b>\366-\206=d1\301=\371\366J=\324k\336=G4G\2757\300\244=\301f\305=\202\264>\275m\000\021\276\306M\276=\346\220!\275\r\030/=F\313\225=\210sz\275\326g]=#\242\277=R\317v=\273V\354<\261\274\323\275\007z\261<\003\357\300\274\372\306\242=\033\352\036=\230o\375>\372\023\332< \207q=\027\010\002\275\345\257\246<C\022\216=,\355\302\273\265\255\253\275\200:\310>\267\030\266<\332Q\265<\023\035V=\323\266]\273\017`\235\275\350\005R=\236\036\322\275\265\275I=E\033&\274D\230\255=\335\001\005\274\315\211\311=lm\222\275\360\370\226=X\\\252=|e\227\275A%\217\274\320\213X\275.\215\337<Z2\256\274cd\333<\311\004\014>+\340\250=\020\332\253<\250\351\316\274C\224M>r\337U\275\224\241F\275\3652\206\275;\252\230=\0031\356=\240E\013=\214^\253\275\266\313\274<\034\217\361\272\322\200\261\274?\034\222=\177\036\247=6Z!\275S\027y\275\016\301,\274\030\317\347=i\256\225\274\207[\251=\002\264\201=y=e\2759\253\311\274\200\241\266\275\202]I=/\301\253=\376\366Y\275N\270\272<\303\376y=\363\026\347<;\215r=\177\022\222\275,5\361<\235\020\330<\342\211\352<\372/g=\235\033\332\275\212\333\205=\327cs:\273j\005=\310kx\275&\302\344\275\343x\313=\373>l=3\232P\275\360\177c\275\235D\303\275\210\367\330\275\203\200\352=L2h=\320n\246=Z-\232;\370\334\376\273\343P\363<\3439\314=:\377g\275\243\261\226\273\225\362\n\275\314\253\242\274\364\311o=\205\226v=\033Z\255=c:\216=\r\375\310\274YG\334<z\001\243=\343\362l=\322PG\275\263J\"=\233\347\016<mi\333=V\325\273=\304\371\233=T\267\237=@\376?<!\333\022\275Z\311\316=\237\310\225<\345]\000=\347\223\322=\363z\267=\227/\317=u\3756\275n{\342<\374\352\340\275\372S\220\274\375/7=O\211\263=X\245\243=R\303\263=\0316\237\273\037\253\027=v:\343=\271\242\364<\245\252O\275h\352\325\275\207w\300\275\260\213\344=\2373\220\275\246?\246=\347q\275=%\345\240<=\035\206>\222\232]<\306\346\201=#l-\275$\270\252\275sd\230=\3241\305\275\022I\211\274H\254\321\275\265\221\022\274To<=\000\365\207\275\246\256\247\275\032q\233=\n\311W=\351\352m<\304\223=\276\216\t\276\275\r\017\234\2748\310\252={\314\247<\335\354T\274_]\303<\253\256\241\275\325\024=\2751h\005=\265\264\253\275\025\267\270;\355\252\230=v\005\213\275\007c\227\275\234\277\367\274Ek\336\274\n8\367<l\t\275\274\263~\230\274\0210q=7x\320\275f\316:\275>\241R=j\237p\273#)C=\251<\335=\327\247\300=@\322\262;4\221\031\275Ta`\274\n\217\215=\272\215\r\275;\026\267\275F\230\256=\327u$<<t\'\273\n\212\200\275@\010\207<\274]\365=D\244\361<\300\t\232\2744R\335=q\262\210:\271\365\376<Zv1;g\037\305=\206K\266\275?lB>\242\324:\275\022\343\375\274g\017\365=\210W\243=\315\232\275={\'\260=j\242q=\200w\r\275\371\273\311\275Mr\">\372#\353=\016\t\300=\202oi=\302\252\334\273\206\025\334\275\213O\316\275\345\355\316=U\001\360=j9\035\273\203\217\272;\201\'\367=d8\017\275\017\203\261\275\340mu\274\350\244\207\274\311\246U=\274\004\215\275\376U\210\275\'\367\260<\037\331\025=\327(!=\013-\022>\271\214\036\2744i\216=\323.h<\270\222*=2\246u>\370k\275=\356\031,\275#_\251\275(Vp;\325\256\030\275\317\216\210<\271\332\214=\233\354\021\275\367E\201\275xk\351\275\344\215\224\275\302\203\000<\350\363U=L`\262=\237\035\\=\341M\267\274\211>\345<$\225\225=\027s\371\274\210\357\262\275\227\'\327\275\016Z\017=A\244@<\333\374j\276\264~\206\275X\322\336=\240[ \276\262\232\256=\211\346\262\273\343\335\314=)\374\373<O\357\363\274q\317\267=a\347\353\275\357\376\321=\350=X\275\"\250}\2748\221\221<\267\337\245=|:\271=1[\250\274W\033\020\275;3\260=k\236\321\275\251\263x\275\331\267\017=jvr\275\377\264\367=<\303\035=\205\\\275=w\025\002\275\013\204\026>\332;\250<w\344\232\275l\261\253\274\2320\221=vF\003=T\007\214<w\336\332:\365p\033>\'\205\255=*\260\273=fE\347=\0305\327<<\215\032\276\303\010\275=\227\031\021\275\262\273\345\274\315s\253\275\235\233\264=2\363\030\275\350\0218\275j\203\234<h\2773=\016\031\314=\337\311\330\275@\350\212\275o\033W<\275\272!=DA`\275R\352\272\275\272\204\241\275\264\t]=\223\255\364\274\351\361\363=\r\255\321=\031S\233=2\235F\275\347\231\224\275\314\241\337;\234K5\276\317@h\2753\372\241\275\240\327F<,\374#<\243\305\322<\003\275\274\273U\205\256=4\216\"\275A\033\346=\224\277\245\275\332\336\302=\030\200v\274\360\035\200\274G)\200=\036\016\374<wb\363=9F\212\2750\252\366=\236\016\251\274m\256\033=\022\262\265\275L\232\027\275\243\336\355\2750\206>=l\013G=\340!\312>\227f \275\004>{=A\361\006=u\315\312=\000\215\207=\346#\266\275\346\273\216>3\245\250>J\215\006\275\255m\322\27531\360\273\377F&>QR\365<9\265\010=Kz\254=\331\242\030\275\335\261\305\275P\347T=\376\017\246\275\346\017\240\275\362)\016\274\264\003\226=x\271\002>\375\031\021;\376g\002>\r$\375\274\233)/=A\023\006=\365\270\246= _z\275\t\201F\275X%\200\275\345\026\321\27562\204\274\231\260->8}\r<\006rs=\016\255@=\031\245\257=\036\224\224\274\266u\276=\365u\217\272\314\217\212=\001)\224=]\375I\275UUO<\001W\014\275n\331\261=\232>)=.\346@\275\346E\203=\303\240\244\275\335\375\005>\327)\301=\253\205\300=j\201\275\275\006y\210\273T\353\240=\\A\244\275\233\333\210=u\223H\274J\216\326<Di\3519\036\344\226=\230\324*=1t4;wm\006>\032\223\341>8\373-<7\342\264\275\322}\021\276\355\214\325=4\332\321=Z\274\306<\004\016\361>h-\367=\352\t\"><\257\214\275\004\343\261=\215\3135=*\265w\274\246/\364\274\363(\206<2\302`\275\327\360\210\275\022\233\217;\210\253R>pT\250\275\317\3263;i\303+=oP\320\274\247_\365=\344\341\231=\235b\214\275\262v\221\275\270\354\271\275\316\036\013\274s\264\005>\317\003\313\275\037\231\235\275\371\366\360==3G\275Hf\217<\027\230\243<`\247}\274\344\032\264=J\207b\273bZ\354<\034@\024?\376\321(\273\207_\200\275\257\2540=\377\3519=\321\021\031=\322\305\307=1\347\377;\262\031\207=\252\325\027=\357\026\345\274\363\256\027\274(x\267\274\022\367-<El\300;\265t|\275\320\003\n>\023\303\307=\016\356\305\274--\373<\\\010\214<\203\n\371<\266x\024=l\257\273\275X^\306\275\2046?=vrK?\220\210\222\275\177\220c\275\247\307\300\275|\234w\275B=\034\275\240+\223=b\200\246\275\215\365\250=M34\276oqP\275j\315\000=t\025\006\273\'\321g\274\002\210/=\2158\277=o\377y\275\024\374\037\275\035M\022=\341\260B\275\207\314\014>\351\354\325<\314\244M>\323\343\201=\347\273\252?\262\330\000\276<I\244>\027\251\241=jW\241\2757iL\275\321\324\347=\220xP=\311\000\010?C\347\273\274\007f\021\274\006./>\264o\007>\302\357$\2755\230\310=\036f\025\275\366\250\231>\"X\'\275\343\000\312<\216\'\n>_\212\'=S\302\336<\212jM=\352C\031=\366\333]<t\324(=b\217\253<\"\202T=\244\374\262=-H\225\2751.\231\2744\373\002\274g\020\n=6\217\365=\010z\216>\316\033\206\275J\357\254=M\370\330\275\232\264\241>\325c\337=#\031\243=U\340\215\274\0365\225\274Y\021\037=\215\244\231=7\253~\274N\370\210<\341p\306\275\000\264\342\275u\200\321;j\t\235=\371\223\326=\001_\231=\361\332\007<\346\355g=J\301\007>\223\252\272\275b\347\200=a\371\266=\351\360\237=\343\3312\275\360Ql=\212\035\017\274\244\217\233\275_58\276\251\244\247\274\246\351Z\275\r\031g=?\036\344=\303\343\207<R\"\262=\323\267\216=\3238\n=\367L\202=Q{\301\274h\220\204\275\251\2634\275L\021\006\275\262\305\213=\0001\235=P\342\243\275\231HO\274Z\330\033=\310\017\020\275\001\326\350=\316\225\221\275\256\265\214\273u}\010\275c\307\277=\315\026R\275\306=\223=f\346\274=\342\"\224\275\367qy=e&\376=z\273\360<\"Z\201=#\202\242=\256I\261\2741\326\000>a1l\274\265\206`;\3549\270=\257\224v=l\333\205\2753*\222=\357\236?\275\271L\336\274\207\031\341\274\331\212)\275\214Z\327=\245z\362=\240K\361=\021\362\337\274\031\342V=\227\245+\275\263\n<\275\300p\262<3\317\234\275\265\353T\275\035\361\314=\rI#\275BYK\275p|i\275\222v\355<\341\210#\275\215\257y=\023\000\210\275X*\225=\264D\303=\016L\263=\217X\r=\033v\214=\310\370\254\275\354\346-\275j\321\266\276\r|\334\275\276N\310=\365\243\216<\025\221)\2751\313\340<:\336,\275\363\360\267=\200\255/<\2049\300=\217\324\370\274\370\300\036\275C+\263<\214\306\032\275\340J\261=#J\005\275\215`\202>\352\240\000>`\277\332<J\275\214\275\3421\315\273\277\032\312<2\320\261=\022&y\275\322\350h\275s\265\334=\024\371\245\274\323\002\000>9R\\\275\206\277\305=\216\"\275\275\221\016M\275\005\243\214=\036\222=\273W\350\372<[\276<\274bu\245\275\336-\204<\177|\204=\356\222\334;\326\300\006\275\032%0\274\027\274\377=\t/:\275\363\216\247\275\336\334\t=;\360\034\275l\227\314=\037\322\215=\237\370\014\275\243\247r\272\305r\232\2752=\320=i\237\216\275\221 j=\322\332\366=[\016d\275\010Fo\275\323A\364=\305\364\271=\356\306 \275\2247\320\275\266\364\231\275CY\252\272\323\266\255=\370|\334\275\021\330\035=s\n\343=c?\213\275V\001\342=\331qX\274\245H#\274G\230\261<~\"\247<\025\374u\275\316\251\334=S\321\330\274b\221\354\274\320\260g\275?\033$\275=\354y=i\252\303<\241\246\232=\025H@=8\232\336<Y\264\246=]\272-\273\330d\002>t\0370=\346\322\365\274,\005\262=\236Ma<\243\232<\274\360&\037\274\337.\001\274z\350r\275\347\222\341=N%\310<M\014\231=\3306\002=g\275o=~-\200>\221\243=\275\252J\314=\320\\\001>\0270\275\274 )\213\275\325|\333=G\014\001\274\346E\373<2\307\207<s~L=\330_\002=\271\244\250\275B6\223=\300\252`=\002\321\301=\334\033\316=FD\206\275\010i^\275H\314P=\220\014\334=\265\262\261=\311\263\303=\026\277\356=\ty0=\247)\336=;\221\024=\"W\362=\205Y\211=\254\002\005>E\365\250=!\207\377=Hp\325<\323\271\224\2748\335G?\202y\365=\025\304{;\312\370\277=\210\345\377<k]@\275\221V0<\216\230\240\275\210\247\234\275Wz\316\274\013\310\316=\260\305\333=v\356\336=\335\215d\275r\371\230=N\2362=\204S\031\275\262m\020\275\222!l\2759&\374=W\352\333<\377\001\257=|V\237\275K\340\345=X?\241=\224Y\361<\007\014\003\275\260\036\033\275-R\221=\2462\206=\252?\266=\374\300\215>\345\300\263<\237#\354=}\007\353=\346\r\200=?F\250=_\352\254<\314\351\306;;\346\343=\025\277\204\274|a\037\275\271N\356\275\274\327\242\275\301,\345\274\352l\340=\235l\277=\017S\340=o\307\037\275\033\340&\275\310\332\265\274\352W\356=\n\366\221\275\332/\345<)\236\177\275\347HG=\247\342\262\274l\0253\275\361\346\224:I:B=\200\030N\275F!b;\225\020\234\275\274\247\236=\034\365c;\035\332\341\275\217\007\372=\235\267=<\334_\276=\356H\376\274\230\224\376=\267\362\227=\200\025\364<\335\311\375\274{0\224=\035\030L\273bt\277=\366\342\364=\317\351\343=\242_\343\273\034\357\031\275\324P\342<\005\277\013=}\201&>l\032o=Hy;\275\373~\227\274U\274\271=\221g\316=`2_\275U\0367\276\372\340W\275\277nf=\327\241\030=\0327\t\275=\3074\275n\336y\275(\030\375\273\206\213\210=\322\342b\275\363\350\014<\240w\001>Sn\261<\244\234\306=\204\233\302\275\255{\307<\252gS=\251F\377<\377<\342=\264\n\023<R\315+\274q\273,\275XE\344<x:\236=\034\254<<\346\217\037\273\203\347\211=\250\336j=\346\013\263\275\003\244\240=\240\307\333=\312\021\237=\014c\203\274\305\\\253<\362\004\222\273gsz\275\354\203\331=\006\351\263\273M\314;\275\264\345\216\275\026\000K\274e\200\177=\311\374\231=bq\213\274B\203\210\275\315\034s=\275\276\245\274\3708\265=\267\273\201\275\277y&\275\\2#\274\243w\274=f\310\343=\037\300\251=\251at\275\016\331\352=\325\367\007>\330\323\032\275\ntJ\275\202\326\220=\010\241\361\2744\214\365=\206\356\026<d\300\240\272\023\211\200\275M\361z\275S\026(\274\024{}<\357\014\345>#\017\311\274.\"\216\275m!%<\001>\320\275\331\266\270=\255t\027=f\206\324=\342`\336=\333\363o=\270\347\302=\336Y\213\275J\246\273=\271y\224\274\204;x<\221\241\"\275\273\370\034\275\272\017O\275\256\366\301=c\017\315<\001m1=l\343l=\264\352\232=\'\026\256=\314\017d=6U\300\2752E\340=y\377\333\273\272/\223<\270yB=\264\212\366=%\235\220\275Hq\'\275\301S\020>\363\003\316>\367\022\206=\366\234\375\274xY\214=K\334}<a8\272<OK\342=\315\365\034\275}\277E\275p\017-;:_|=\333\001\242=\006C\321\275\005z8\275;\377\274=\372\345\000>U\330\264=\207\332\312\275:\256\262=\220\266\003>\"xq\275\360\372\001>\n:C\275\264]\217\274e\266 =q5\216\275O\233\014=Bvm=\252%9\275\330e\247=\371\274r\275\236J\216\274\335\300a=\314\332\265=\244j\322=\310\034\204\275TZW\275Bb8\275\373\226\327=\177X\177\275~-\232\275\324\266\n\275D\013\235\275\005\366\345=\026\366\273=\306\260\230;t\177N=\355f =N\034\005\276\367s\332\273\177\033V<\177\271,=\205\376\335\275\225\316\230\275\200\344\250=\373\2077\275\036:\234\275\340d\177=\241\256\377\275e\365\224=\220\213<=7\314\r\273$\222u\275\230x\253=\275\334i=7i\271\275\3212\205\275Y7\230\273\013\222\256<\335U\234=J\204\250=lo\232<\260\032\274=\311\005!=v\207\245\275\3704\263\275\325\224\215\275\316\371\223=<\217+\275\343;\376=KB\325\275\032e\016=\313\315H<b\231\213=\257\332*\276NA\026\275\377!\302\274\252\263\267=R(\027\276\361\304\221\275\262x\013=\323/\207=\223!\364=i\315\313=5V)>.F\225=*\277\226=W ^\275Y\000\r=\3110\313=,A\257=\242\263`\275\356R\332=/\266\032\275Hm\027>\2155\n>N\347\344\275h\216\206\2753\372\366=:B\241=]>\231=#%X\275wa\277\275\000/\300\275\236\r\220\275\316\004\"\2756F\265=\374\007\006>\"t\253\275\307\241D\273\033V\305;\036\350\220=]\250\001>\2757u=\363\227\224\275\340~\231=\260u\313=o\346b\275\222\033\200\275RX\236=A\354\371\274\224L\253<\020^\336\275\023Z\332\275zJ\364=\344\216\246\275\270\367$=\333\316\332=\222\030_<\233\341\274=G9\324=\212\212\200;\366\355\247<\235\211\255=\336^\232=v\226\270=D\354&\275\352\022\314\275\240\245\242\275S\347\201<I\272\247\275Y\"d\274\240\246\335=\272 2=\263\337Y=4(r=\016r\225=\323\237`=\300\003\221=ef\224=\232bk=\372P\207<\332D\245<J\r\355=\257Q-=Mu\215=\327Q\257\275\310\324\212\274\312 \020\274\206\022i<\027i\242\274\035\010\222={9\236\275\177\217\331\275\t\006\334\275y.\253=\260\234Y\275\204\363?\274\014\211C=L\024C=\230\323\233\275;\373\204\2755g\216\275\377Ye\275|#\267\275\25521>\213\336G=\322\206\312\273)\371)=\003W\330=A\033\362=U\361\226<V?\306=\037\300\376=\362\023\277<\342\236\215\272\307\333L\275e\234\271\275\221\306J\275&\310U=s\227\223\275U\366\242=M\317k=\031\202\215=@5\324=\326\316\017<-\022\330<Ip\370=\305\316\017=@\273\003<\265\2320\275\362\177\351=\3364\352\273cT\204=\032\235[=\017\257\271=\371\236\307\275\223\027\372\273\010\335\253=AG\243=\272,-=M\t>\275\244\213\026\275;\274\240;\037F\250\275\336\033\205\275R_\023\275j\016\243=\335\365\227=\211\337\370;\3257\204=\365\210v\274{\353v=l\342\246;\234\217\001=\247\355\337\272*\263p\275J\304\206\275?\274\222\275\330\035\367=\301\301H;\005\243\343=\366 \037\274\370\203\332\274*\363\202=\346\243\334=w\235\264>\341\302\214\275X\255\232\275\023\370.=F\310\002;\n\205\243=\252F\256=\200\253\307\275\332\331\343=\244\020\262\274\326\366\306=X\272\222\275\375\327\221<%{P>\355\363\242\274\253\006\226<\006\346\365\2747\303\252\273h\275\2709m\232\r\275/\323\265=\376\273\261\275J\277\020\2750\331\000\275\324\343\265=\337\241\275=c?|\274\365$\305\275\335\021\004>\353\200\230\275\373d\336=)e\212=En\033\275\253\275\317\275\373B\366=i\350\314=\330\003\333\274\215\013$\275z\007\325\274\024\244\033=!\"j>\005i\247=\002\306\027<\251\217\241\275\"\352\243=*?\250\274\001\214\226\275\370\006\253\275\335\223\360=\3726\025=49\222=.?f=b\000\267=\36003\2755<{\274\2101\366\274\022\351\366=\361\205D\274\256\360\220=\302\355\273=@$\024<\356l\303=\252\300\013\275|\233d\275/\302\350\275\212\347i=\010\207n\275\252(\252=\355ez\274\317X\001>\016`\227<!i\213=\353\016\374<D\347\247\275\252\356G>\334da=\361\347q<\036\227\253=c\002\265\275\321\267%\274\321^\254\275\027\321\202<1X\360\275\374\201\222\275\036:\271=\357\332y\274\342\353\223=oB*\274C\"`=\3128\250\275E\245C\275\210\346\257\274\001Q\003>\232T@<_\272\340<?\317\242<h\324\343\274\226\246\022=\355B\354=\207\025\236\275\200\270\346<\214\351\273\275\017C\363=\202\240\327=\367\241\005=\022\237\203\2760\331\324=\202F\220\275\262\324\234=\215w\246=\260\303y=\225\'Q=x\t\013\275KP\332=\300\324\255\275H\3334\275\322\315K=\274\317\363<\356\254\300<\264\216m\275\032U2\275X\001\356=+z\223<\177\227\261\273\203\234\312<C\332\220=\357f\214\275\376\353g=\350\253\203=\372\302\245<\001\t\245=\014&W>\256\235\222;C\200\214=[\365\327=x\267D>\277\271\242\275\2022c=0\311\227\275?r/\275\320G\177=\222\367\267=5%~=\2256=\274\377\364\313=.B\224\275\323\265\263=A\236\356<\300\236\361=\025\021\214=\020\377b=\252X\222\275\t0q\274\032\266\322=S\222\204=\205\205\214\274\223(\331:!\365\201?\354\301 =\217\016e=\224\373\204=\367\3006\275\201Xv=\265I\320<\002\304\347;\353\265\3379\241J\002>\007\352\227=X\232\251=[\226\362\274\300\324\314\274\035\024\177=\0340\334=\312\256\215=@\032?=\014\260\254=\243k\205\275\334\333\220=p\361\376\274\344hS;\013\223\342=\324\177F=\264\223-\272\367\036\201\274vQ\264<\032]\310=\004\275\203<\263n\261=z&u\275R\265\317=\367\255?=\350\252\355=\213\245\247<\241xB\275eD6\275L\237\252\275\231\367r=g\251\253=\3516\252\274I\231S\275\033\237\235\275[\257\027=\244%\225\273\037z\321=\333\244\302=\275?\251\275\324(=\275\254\324\000\274\005\274\237=\350\322\203\275BtC\275\343L\363=\023<\235=\010\274d\275\227\r\212\274QIe\275\225&\213=\254h`=\204&D\275>\002\274\275*;\233<\022\256\320=\016\205\321=j\004\274=\031fY=\306\246\217>\222d\270=\t\360\246<\234\220\363=k-\221\275\021\261\355=;\016O<I\237w?Ic\306<fK\240\274\005c\266=\320_\255\275\334aT=\331\235\204=\230\214$\274\221\0100\275C\305\000>ctB\275\330\277\226\275\304\010\323=\366\r\352<\363\225\235\275k\222c\275\036\3344\274o\221M\275\235\373\215=N\210\235=\372\326\'=$\257\247\274L\242\256=t>o=ib\205=O\337\013\274\344\311\021=\302=\266\275\205\274\244\274\257U;\275\260Q\036=\254\262$\274\265C\246\274\014jl\275\224\303\212>\211@\272=\326E\354\274F\214\344\271\357T\004\274\344\222\335\273/\335\306\274I\236\306=\312\333\000>\272l\033\274\355\325\244=\256\020\231=m\235O=F\004\301\273t\3104\275\247\375^\275>v\377<J\352n\2752Ei>l\361*=\344l\363=\010\255b\275 \363\207=7\260v=|\202\203=\222\324\243\275\251\341\245>\367\331\\;\300\240\235=P\275R=\177;\240=H\222\303\275\360\027\323\274\372^?\275\n4\337<\311@\265<3\204\237=\334\242\306=\312\337\321\274\034\374T\275ym\204=\033\337O\275\n\262J\275\257\214\201<\222\320\263<z:\261={b]\273\306\3539\274\331~\266\275\247\344!=^\025\273>\"\nK=\027r\007=\010\273)\274\327\3452\275L\316\300\274\302\014j<\314\217\367<1n\275=\245}\016\275;~\000;[#\305=\220\023\242\274\222~C=\365\260\337<\264\270$\275\320r\030>>\227\350\274\276\232y=\274\327n\275\320\271\233<\320n\331\273YLw\275\311H\030\275\216:\252\275\222a\255\275\370\275{8\306b\007\275\266\233G\275\014\230\265<\024ka<\235\2760\275\250\030\222\275k\227x=2\004\215=4_\017=\017\251\n<\260u~\275\306D\205=j\007\206=Is\226=\t6\206=A\033N<Y>\353<:\375e>o\000;>L\005\225>\271\323\\\275\315C\306\275\014\265\277=\230^s=\006\211\273<r\347\301=\235\300I\275oS\365=\253K\033?\016\322\243\274\026\316\271=\217\330\r>\005\256\n>\340yf=\252W6\275/\371x\274\241;\235=7\271\304<\000\256\\\275\354\005\212\275;\266\313<\273\016\200\276\247e\313\275\357w\242\2759\330\007\275N\322\251=\266\224\307=\260\014O=\007\022X\275\312\236\372<\246 o\275\371\245\264=\332\362\324\274\315w\205<\027\310\311=\226?=\275\234\250\213\274\334E\365\274}H\204=\313\201\217\275\355\276\276=\272\371q\275\262V\001>\317\331\202\274\236\034\017\274B\370d<\201q`;\ng\214<=\262\256=\207\032\264\272i\202\302\275Mu\245=\325\341\226=\254\250\003>\331\274\226<\277\370@\275\271\rW\272\376H6=t\264\330=\237\360\005>%\262\320\275\302\321\244;\377#\373=\371\364f\275\230\035\212=6#\231\275\341Km\274:\014\312=e\332&=\236\324\255=\271\311\230\275 \263\370=\214\350Y=;\334\302\275b\266\214\274H\310\351=\364\351\342\274\'\n\366<h\333\311\273\373\357\026<\255\210\237;\303\306\257\275w4w=\236\250{\275\276p\356=8\213\373\275\322\237\365\275H\345\232<\265i#=|P0\275\236\354+\275W\253\376=\2763\221=\307\222\254=\243V\231\275\312\301y\275@\007\207\275\332W\223=|\022\225=Y\316e=\331\250\376\274G7\331\274\031\006\205\275\303\024_<\234\004?>\270\277\003\275\213\371\014=!\3123\275\266t\236=wdg\275\031\374U=}i\265=\230\305\212\275\355EX=\034\300\270;^\336F=\351\324\270=\"g\034\276\n\247\223<\367\332\200<\202l\377=6\324\030=]kH\275\037Y#<\200\2248;\344K\243<\335\221\277\275\315\222\n=k\260\304=\343\213\326=E6\215=\237x\250=0\335\000\275{n\274\274r:C;\204f\317=\377X\370=4h\322\275ki\014\275w\003\215\275\223\323\000>\024\3456\275\006\221\020;(\332R=\354\333\226\275\373c4=T*\345<\033\237\346<^\024\037=Sb ?\343\213-\275\304\312\205\275r\275(=\202\313\203=\353\213%\275\306\002z=\026\030\267\274\006\365\245=\225\313\235<>\021\365\274\230\177\377<\350W\315\275\030\343\235>8\304\222=\272\276\246\275<\373\200=\251\327\r>\006\377\302;\221\2032=J\205\327=\313\316\253=j|\366<\345U\343=Ze\t>^\224x=bD\250\274\354G\244\275\326\374\273=\004ss=.z\306\274a\\\304\275u\204\237=F\206B=\342\251\216=\364u\360<\301\005\271\274\241\013A\275n\312\246<V\377\030\273\300\266\252>\236\242\006>\350\305\013=\304\225\211\275\202\026S\2757\207\214\275YT#=w\235\316\275&\333\363;\322\242\260<\357\206\342\275-.+\275\231d\275=\317\215\237\275l\000\256=X|>=Tw\201=\245\037\367=[\014\326<\250r&\275Mw\231\275B\006\274\275X\300\365<G[\306=FJ\032\2773\334\241=\r\200\320<\320\376\354\274\221\335\231;\324\254\211=^\306\231\2759\217\334<\004\3230\275\374\006T;\225|B\274\265\200\026\274\024\207\001\275\rT\355=th\264<\264\273-\2757\"4=\243vD=\033o\214\273*$\241\275\020\233\325=Xm\242=mX%=\237\027\313=\200\262\367=\316G\345\274l\177\340=\177\"\344=\003\265_<\017\003\262\275\331\367\203=\325\016\224=\022\372\264\274\360z\262\274?\211\263\275\302S\205=\323zS\274$\327\333<sn\336=L\250W=\003\237\370\274\023\303.\276\n{\336=\t\257\210\275\021\370\305<\241l\003=S\222\021>\314D*\275\254_\210\275\2134\027>\342[\205<\207m\206\275\370R\343\275.\310\212=\314#\227=\020\026\177=\263\220\315=FON=\004Cy=lg\306=\017\276\377=\300\243\250=\220\327\325=\232\202i\275\346\371\236\275\304\343\356=>\017e=\266\1773>,\234\205\2756\245\356=\017\271\347=\375`\016>N\'\034<\021\354\343; \351\030\275\220N\237\275\233\377!\274\261U\031=\332\013`\276srM=-Sq\275\207@\257\274N\277.=\343:\212=\005\357\266<\347\201>\273\2527\224\275(\314^<?\303)<\207\242\221\275gAL=\376/`\275\2758\271=\353E\216?mw\010\275\365\315\203\275\350&\246>\265\233\003>\300[\260=\222U\026>\323\371\233\275g./>\355j\212=6\322\356<\336\277:\275\216$\255=|2\r<\225T/\275U\341\355\274P\362\t\275\255\rS\275U\366D=H\006)\274\221\251j\275\'\322X=\272Q\210\275Y_\317=\037+\214\275\236\336\340;\317@\315\275&\265\213=4?\206=$p\033=\006y\014\275\223c\257\275\265h{;Y4\335\274\321f5\275,\364\370\275\313\226]=\000\366\001=\332yw\275c\212O=\217o\201\275[I\201=\337\274\230\274&\374\245=8\223P<\375u\217\275\362\234\010=[\271z\275\274.\322=\241\007C=n\301\306<\256\240\307<\017\3078<K\2445\275\251\257\216\275!\030\334=\362\306\"=\315\200\327\274\346\350\212\275\271W\000\275\326\260\275= a\226=\3758\317\275\200e\241\275j\025\026:\013^L\275{\3337\275zn\245\275\235aI\275\232\334r<\337;\002=\210\224\270=7k\231=PU\366=^\033x=EW\307=\024\277\265=\005+\035=\206\250i\275\262\021\027=\313\325\204\275\315\222j\275\246\030\315=m\270\376<+\335\200\275\203\236\233\275\224/\217\275Rl\247\275\324\344,=\006\330\367=\204\032Q\275\001<q<\231$\217\275\372\377\216=Byy<\335w\002<\305(.<\251i\320<\023\204\215\275\273\210T=2\212\233\275\224\313\323\274\023\277C\275\354\344\001>\337k\201=\032\027\213\275N:\373<\3746\025\273\233\366\265=Z\264\315>\271@\243=\240\247i\2741\177\233\2743\355r<8X\023=5\372\313=q\"r<I\254\265\272s1\261=\367\031\210=S\360\364=\235\226\256<r\326\375=\331\274%=\322\037\025\275W}\371=\321F\336=\366{\351>\230\016\265=\250=\251\274K\020\r=\r\210\221=H\006\004\275\236CJ<\350\037\254\272\311\254x>\374~\231\275\265<\256=t\006\016\274\331\333\272:<\001\005\275\341\017\361:\033\032\257\275\016r\307\274\200\313\275=\340\3740\275\005\th\271-\032\257\275-\033\230=\221),<\233c\313\275\215w\024<\206x\275\274!0\275<\327a\365\275\'\337\024\275J\234\021\2744s\376\275\213\215\244<\210\014t\273nf|\275\016\245\027\276\362e\262\275J\276\211=\342\207`\275\246\260\024\274\266\257`<\303\257)>\276\305\236<\340\376\231\275\276\260(=\373\375\221=\010\023\256=\303c\026\275&\252\032=\365\322L\275+U\252=d?\354<]\200x=N\001\201\275\340\335\274\2733\246+=f%J=\215\002\272;\033\325\017=\310\211%=\205b\033=\350L\223=\316\037s\275\357\336\261=Cz\366<A7\333=\004R\370=$\206\t\276\361\250\360=\267G\344\275\220\264\321\275\206\347\201\275\367\272\253=\320{\273=\260\377\206=\233a\343\274}\372\r<!_\316=\222M%\275{y\036=\235g\231<](;={\351\010\275\363\220P=1\357\244=\360\034\342=\206\251`\274\252P\010\275\330\030\265=\004\264\323\275e\264s<\264\234\035=L\020,=\243bk\274\375C:\275]\244\337=A\310\266=\242\351?=U\233/\275\314q\304\275\270\032\212:\352%\n>?\\\214=\'\013\267\275\324\200\272=\253\r\206=\005\232\"\275\210\036\314<\013#\367=t\322<=\275\320\020=\362\006\203;f\311y\275\255\246\252\275\007\373\004>\272\327\300;x\273\301\275\356\360\262=\014\237\263=\246\355\264=\024;\252=\013\240==\262\357\314=\246\371\267=J\020\003=\234\004\'\275\261\235W\275\260\224T=f\265\243\275\000Sf=\016\007\\=\014\337\233\275\372\316\217\275\316\251u; }\334\274\3311\237<\265y\360=\317?\376<\3342\223\275\215\224\303;R@\304\274\237\360\310=\000}\'\275<\270Y\274\215\233\202=\231\274\021\275*pY\274\376C\223\273\243\306\255\274|\354\267\2753\332\347=\333\030\034=\014VK\275\260eC\275VF\333\275\037\205\230=\027>O=\376\275\322\275[\2378\274\330\332\r>UG\013\274I\003>\274s\237!\275\027\346\361=\037M\253=\272\304A=\264\373\013\275\353\035\253\275\353\337\022?{\344<\275C!\326=\336\301\306=H(\232=^|\017=\330`\372\275\"\034\365=A\254\334=\207\310\036\275\013\251\314\274\323+w\274\320-o\275\231`\317=0\305\366=M\212\245\274?\372\016>\215d\233=?1\265<.\245\325\274\370\370D=&\021\361=\260O\344=\346\031|=\370\004\273=\357\312,<$\356\333<dM\323<R?\326<\030\210\227=\306\300\221\274\321\'\024<\2769\312\275M^\371=\027\242k\275\240j#\275\023P\312\273)\215R\273 \021g=\232\204\232=\257VJ\275cr\262\275#\343\241\274\205\353P\275\030a\275\275\376\336F\275;\233\262=\200T\254=\031[}\275G\244\013\275\022\305\256=\301\342:=8\326\340\274\326Q&=\270 \332=\313\034\206\275.x\332<O\245*\273\261\t\207\275\036o\256=\223\2043=\264U\314\276\031\273\232=\234\010\261=\006\253k\275\r\034\255\275g\207\262\275\243\245\325\2745\354\031=\236{\203\275\200\0202<\244\\\025=w\002\341=ffT=\321\314\302\276\246\003\302=\355\262\254\274\227\355\327\274\253~\244\275g%\273\275\251\353\352<\231\005\347<\361*E\275\020\246!;\334>d\275\351\024e\275\245\363C\275\355\277\347\274\321\025\204=\222R\331=F\n\216=\3679&=@9\237=\274r\312=\337\000p\275\356\034\333=I\250\252\275,{\005>\037vX<`\320\274=\264>\316=T\035L\277]\001\020\276\r,@=\201\377A=Ya\263\274\361\255\200\275\n\253\215<\377\244\376=_,f\273\316\036C=\203\306\264\274\316\301\231\275\214\367\272\275\221\200W=\231\257\244\275/`\036\275vb\252=\251\374\211\2756F\345=\364C\207=/M\376=\343\300\324\272_h\345\273[\271\303=\303\2736?\014\261\330=T\271\352=\311\226\250<\223w\330\274k\375\r=\364\264\250\273\266I!<\241\371\201=\206\3408\275\330;\215?G\311K\275TR\026\275\254\236h=\303:\216=\322\031\244=\250\372\251\274\356\375\231=\013\371\275<\201\233\203=\326\010\234=?\336\203\274G\007y<\257;\000>Z\025\234\275j\310\336<\322\035\342=hc\213\274\246ZX=\251\0359=\371\331\030\274\352\240H\274)\303<>\017|\310\274\340\016\322=D\336\326<7\215\027\275\213v\232\275\246\211<=z\370\306\275\210\366\035\2753\251a>\313Ub\275A\247\013=3\320-=\353\202\001\275\223\327\006>\2164\037<\026\341\232=\360\0230=:\370K=\302\361K=\376\007\332\275\n\024p=Gf\252<]\007\265=\033\037\366=\363\346}=\224\014\242=\276\0369=\257\342<<\177\0314\275\177n\205\275\315\035\020=\355\246\223\275\227M\257<\271=\247=\211\270\344=\263\001\227\274\370\376\266\274\351\204\323\273H\273\240\275\364u\251\274y\246\235=\276\241\323=\205?\255\275\021\214\313=i\276\244\275\324\321\304=\016\261A=\216\354\233\275\023(\225\275~\327\356=\334\2148\271\362\030\252\275\272n\273=5\351\203\275Y\005\n\275\021\360\340<}\265\247\274\231\211\007=\350\252\206\274\254\037\247=\205sG\277*T\247=\355}\311=\312\003A\276F@\220;\010\307\313<\345<\027=\030\243\215\275\350\340\'=J\246\256\2752\371\243\275ak\331=N\271\250\275\210\023(=i\213o=0\333\225\273U\017L<3g5\275Q;\r=\301\304\321=\222\307\n\276\235\226\212\275\222J.=\003\374p=\276\022\275\275\020\000E\275\352:\260\273\235\317\301:\005k\210=z\277\215;\035\'\276\2752O\240=3\261-\275+#\331\274>\200\231\274\005\205}\276t\365\250=bAu\275\240tM=\016{$\276\326\025\307=\244\373=\275\361%\333=\006\253\\=\023Q\365\274\'=\303=\3705;\275,\233\226<\244@\356=\251\347\201;\343On=^\177\311;\225Z\036<\336[\322=C\237C\275\311\222\240<=[L\275d\335\256=},\345=a7M\275\350\021\312<\037\023\207=0Mg\274Y\020\204\275X\356\272\274\243_\371;\244\312\357=\2016\214\275\366+\363\275\327\326\226\275\364\215\246=\347\356\\\274\036u,=*s\267=\010\327\213<\351D\223?\360c\314=\'\230\030=\234\202\340<\210U\324\275\t\252r=a\327\016\275X\\\252=Dh\000>9\264J\275\335\240\\\275\230\331\t\275\037\345e\275DX\366=\325\016\212<\335\217\035=b\265\013<\363\253\177<\371\315\373;\010\201\033<\023(\224=q\004\210=\330\376=\274X\242r<\345\340\232\274\010\356\241\274\360\334\264\274LI\242=\222\365=;\303\223v;\261}\241<\362\276\375\273Q&\216<\374]\201\274\361\237\r>\245\365\263=\236{\302<~\225A=\253=\263\275&\t\204=H\357R\275\306\302l=\307\230\347=\377\274\377;,\233{=L\253\213\275\217\224\230<>}\207<\200\312\246=(s\240\275Dp\225\275Ox\271\275\215)\357\275>O\211\275\267\303\r=\333|\021;\354\r\376\2740\007\324=\204\024]\273zj\256=\315\257\243=Yd\255=\033\376\326=^\343\277=x~\006=X6\242\275\236+\352\274\311\3658\274%a\243\275\020>\277=\206\336\247=\216kI\275\335@\310=^I\025\275!\333\327\275\341\212\034\274e}\223=`1E=b~y:\317\246\237=\007<\027=#\360\301\2752\343R\275\376\350\234\275\017{g=d\265\241\275\370YA\2756/\017=\3110\242=\036,\233\275\303W\001=\205A@\275\002\027\217\276\246\275\332<\014\331\326=\t\014\303\275l\247\026\275eq*\275\'\216\266\275\371~>=\235P:\276\206\217}\274\347\317z=\325\255\231\275\262D3=d\027&\275\351\306\230\275\321\267\367\2743%\243=\226R\356\274\313\260\004=!\372\214=d\022\200<v\023\201\275\211\0068>r1\\\275a\204\234=\232\226\211\274\231o\312\275\273\312\237\275d\016\373;\217\225\026=f\235\031\275\277<\222\274tX\213<M\261+\275\256$/\275\325\031\000<@\354J\274v\347]<p\235\031=\232i\273\275[j7=u\362\020\2757\013/=X: \2735\177\206\275\023\240\310=\333\270\034=\373\371\232>bj\321\275\252\241\207=\004\355\n\275\224_\371=\254\241\245\274\345\t\345<\373^\263\275&\3315=q\014A\275;g#=\357\365W\273%\322\310=\327&3>\3511\020\275\325\312J\275\323\373\035=\213Uw\275\'\"\241=\231\231\233=\030\373t=\r\326\261\275\266[\213=\332\260\336\275C\215\330\275\343\265\254\275\256\323\335:\266\243\004=\244z\203<\272-\342\274\263A\340\274\177\021a\275\267\305P\275\013`\201<\000/\326<H\341v\275ok\330=VF==\250\232\242\275\004\251\374;\000a\326=+\\a=c\2527=\305\001+=\034\327I\274\321\027\264<\353\332\315;\335k\206=\347\177 <\226\340`\274\204\372g\275\313y\357<\025\362\007=X\227\365=\226\033\363\275\313\201\022\273\023\200\200=\354\375>\275\336M\366=r\203\257=\355\277\202\274#h\340\275v\237X<jv\353<\2063\225\275\221\026\216\275\n\202\003\275\343\244\016\275\276\333w=j9&<\224,r\275\232\246o=\2359\362\274p\006\275\274\346=\227\275\374\261v\275\262c%=,g\275=^Q\307\275w\276\020\273/m\033?\246\036-=\272\311\027\274\271J\276\274\006@\023>\311p\317\274h\t\035<M\372S\275\237C\322\274\001\006\201\275\244D`\275L\026d=\320\201\201=cL\376=\274\337->\214%\010\276\"\336\033>\342\016\215=\375\306\273\274\270\374\215\272\371S\024:&\034;\275?\004u\275\206\307s< \354\237=\227\017A\275\333\032\332<\275\t\250=\'\203\230\274h\212\363\274\241[\005\275\223=I=\010\353\035>H\025\240\275\330\304\243<\266K\342=h\236\321=X3\231=\376+\240\275\247\213f<\315\237\230=\274\030\274=\034oU=\230J\236=I\232\263\275\357\204\005>\251\'\351=\332\3078=\243]\361=\347\014\243=\250\022\246=\274\215\367=|\3254\275Zp\245\275\322\262\222:\005\354\201\273\230\373\206;(x\303\274\365Iq=\376P\263=$Y\271\274\221M\014?\306\007\257<\024\206\220=#\326\375\274\256\270\324\274\t\\?\273\021\0256=i/\023\274b\354\227<\263\204\240<\327\325\026>?@\364=2I\032\276\004 o>*E\367=\216r\267=/\236\026=\337\377t\273\220\024\265=\262\375\361;\266m\212\275ec5\274\005\304D\275Ae\222\275\373\304\321\274z~\215=B\302\\=w\200{\274\340o\003>q\325z\273d\334\202\275d^\251\275\2713\"=\202\304\322\275\305\361\271=\263\320_<$A<\273!\254\230\275\311\330\231<S\322\231=a_E=\207\271\242=\"\211\257=V\232\272=\' \004=\203D\031=rn\224\272q\301\n\274\024\023\213=\272{\270=0Z\t\276\206O<<\016\\)\275EGb<\007\016\343=1O\030\272\374\275\372\274aJ\265\275\024t~\275Y\2750<\r\236\204=zZ\250\275)\212\351\274]GM\275\310\020u\275lw\014\275.\211j\274\020Y\212\275\0352\370=x\223\275\275\r9\367=\033V\363:w%\242=\276b\273<\363\263\271>B\007\232\274\244\253\203\275\327D\340=\3335g=z\337G\275\307.\264<\262\t\275<j;\021\274\021;\017;\3123R<{\330\263=.\303\201\275*Q\231\275\215\376\364=\006\221\336=\355h\213=\332\212\256<\221\260\344;Su\324<\360\014:\2758\002\310\274\214x\377=aL\242=\305N\233\275F\"\333\275E\271\037=\352\205\303\275\332\'\244=Te\034=\343\036$\275\264O\030\275\200\355\243\274\271\017\014>\341\024\225=\210#z=\323\357O>\356\302\342=`\252\235=\261H\034=\374\335\240\275\314\341\371=\324\217\303=\3020#\275~o\230\274\366Y\n\274H\333\202\274$Z\341\274\245N\222\275aD\031\275\273\022\t>\372\254\373=\327\200\332=\n7f<\275\027\251=\003/\272\275!T\307\273\304\345\t\275\327\021\250=\363Q[;5\203\355\273\315\277\205=\3069\003>\352\356\n=\377^\264=\005\352\210;p*?=\333\311\312=\326\214\266\273jUm\273X\213\034\275\273k\036\275\244z#=B\233-\275\200Tw\275\304P8<C\272\254=8\224F=6\\\267<a\313I\275\243dd=\365y\335\274P\3053\275\251+U?-\321\247=\007Zn\275w\264)>92\274=\"\344\225\275\347\313\313=`\221\361\276\262\206\270:+\267\234=\315\254\237\274\2643\242=\315\256*>\200\231\277\275o\005J=\265*\261\274\314V\264;C\255R=\242\344\231\275Y\364&\275%\2778=%\r\270\275@n{=\206=\201=\260\030\275\275\025N\307=\221\306\347\275\207\374\243\2759\342w\275\'\366\205\275\2175\304\274\0014m\274\277Wh\275C\024\232=\245\370^\273p\377\304\276\257\330\227\275\375\366\231=\324\242\330\2754\274S\274#a\037=$\361\252=\250\013O=\032\217\346<2k\241\275O\241\330\274`\323_=\030\t\221=9\360F\275\024\236\354\275\277+\267=.I\237\274\035\224t\275R\327\367\274\244\362\352=\031\267\200=\t\037\032=[\234F\275u\037^\275\033\217\262\275\016\006\002<\246\345\016<\345b!\275\357\014\340\275\2769\250\275\332!8\275\244\013\014<\r\230\022\276\006,\001\277\255>\016\272\333au\275\346\256_\275\005\313\240=\215y\322<K\'\346=&\022\346>\200\322\312=\224\331\n\2757\007:\274sS\246\275\033\273\332=O\250\024\275\216\010\024\275\254\315\302=\224\021\261<Z\031\316\275_\372\014>j\204\001>\213b\270\275\367\327\315=\322\320E<\022F\346=z\242\007=~\237I=`]\230<\233\240\216\275\236i\244\274%\230\244\275\021\006c:\254\377g=>u\226<\253\316\270<\251Jg9\364+\272\275\\\210\032\274\024\0228=\371\303\201=xZ?>j7\203=\026\001\023?/\232\234\274.c\263=\327O \275\336\270\265\275:R\347\274A\243\227= =\227=\372\340\243:\036\r\330=;\205\013\275\257\2503\275\333\316\250\275z\357\211=m\211\226\275\363\203\304=\304\324\'<g\201%\275+\324\245>\305\221\362\275\034\225\351\275\n.\'=\216h\271<\005X\n=@\020\206\275\363\003\236\275>\027\005\277\242\330\315\275\361=\010\275\033\017\023\276\'\347\305=\373W\220\275\347\301]\275<k\022\276~\361\324<\251u\323=\343\202\257\275\236^\251\275\250\364A\275\311/\265\275\325\241\220=\310\271\207<\274[\340;\037\211F\275\277\356\261\274\367\242\036\275\024b\205\275\210\343\026=\340O\007\276\274\332=;\217\027j\277\221M\225<or\035\276\036\353J=\330\355\255\275\255a\260=\037\363\364\275\312\301~\275\320\203\244\276\214\330D=\223*$=R\010K=\201R\253\275\262\275\007\276\352\003H\274\030W\267\274TE|\276W\340\233=6|\030\275sA\222<\\=\333=\252\264\013>;\'\031\275o\366\367\274&\010\206\275\007\304\241\275i\276\232\275a1q\275J\362G=\371j\267\275u&\236>Kb\223\274j\025\364=\2304\030>k\212+\2764\202\253\274\300B\217\275\341D\200\274T?\250\276P{g\274\0332\022>\311\261E=V\201\271\275\224L\212<\335Dg\275\344\376\020\276\324\226\316\274r\341\256=\366\312A\275\346\204R=\373W\001\275C\030\240<\217\3114\275\037\351\007>\001\n0\276\351?\211\2755\r\257\274b\374m\275=\2340\276\013+\223\273\312\021\333\275\255\361Q=Si\257=\021\262\347<\336~\016>\317\314\030>CLe<\274w\031\276\350)\215>2\271\350\274~\215\306=\264D7\275\335\246a=\207\322\276\275\302nL=w\274\300=u\005\245=\243=\310=\205\377\203<6c\202\274{\262[=nWO\275e7\317\275G\330\334\275`rW<a\\\236=\303 \020\275\312tR=\n\027\212=\030\273\274=\325\275B\2750\233\312=\333t\205\275\206X\310=\351\016f\275\034\375\002>\337k\201\275\337\005\220<\213\324\356\274\217\327v=\000\226\224\275\277H\313=\333\007\201\275O=\267=i\300\326=\205,\233\273}r\311\273\305\264)<R\266\337=\374/\252\275\372\"\270<\0146\215=<\215j\275\023/\363\274sG\276;\027\303\320<1B\257\275i\014\202\275\333\210\265\275;\216\034=\032}\000=w\"\202\274\237\032\335=(\003H\275*\370Z\273\213^\001>\351\244\335=\276X\370\274`+\007<\210YB\274\235\002\231=G\343\241=/\250\243:\206\335\263\275\335\311\243\275\250\352\211=\nb\200\275\212-\\=\331\301\313=\343B&<\260\304\\\275\217]\242=\231\275\206=\350\270a=Q\273\266=\367\004\361\273#lv\275kP\001>8w\311<\243\352\262<\376\271?=>p \275\335\374\365:[\000\246\275\203\345\277\275\273\353\244\275\362\275|\275\373\261\305=\n\346\022\275\205\036(\273\214iL<\266\203\320=\343\304\325\274\004\"\331\273\010}\302=ko0\275\233\007\214\275Y\237\033\275JP\013=\371lh\275\221\246\023=\377\217\305=>\311\203\275Td\036\275\256\325\311<|\374\341<)\0130\275\335\230&\275\013P\215:\273:\321\275=\350\313=e\263\202=\337z\\<\373u\022=\200\307p\275\250\"\245=\316Z\267\275\302\311\331<\314\216x\275\330ML\275\0206~\275p@@\275\301\004L=2H;:JJ\255\275\212\225\236\275\205\232\000\274/\220\340\275\270DI=\004\300_<\360\217\357<W\001\202=\013]\277=\023\312\270=\221\257\205<\005\202\303\273\340\257\344=\024\272\356=t\0107\275F\017\002=\225\207e<T\230\327\275\'2\225=\307\272\354=\233\336%<Xr\240<\177/\353=\010\\\273=\251\321\262=\220Q\263=\332?\316=\241\354\211\274\333d\\\275\336\331\304\275\273\214\273\274F[\323<b\255\330=/\337\214<\267Z\266=^\004\216\273*\300\216=\001\234\221\275\014\267\347=\232J\323=|=\204=\023>\000\274\273Bb\276\216Q\273\275lQ\211\275\320\371\267:\247\246\225=p\326\374=\034\364a=\246\363\006\274a^\205\274\201\241\332=\362E\020\275IZ\243=\265\352*\275\247\"\352\274\237?_\272\224IJ=CNW=\312(\314=\220\214\003>|\260n\275\254j\343=\253,\373=s^\246=\362U\353=\003\236\243>6\354\243\275}\211C=\023\000\342<\324\"\207;\355\312\230\274\361\313\241\275\251&\347=\350\263U<\306\002\237=\202\200\013?\227\005#\275\352\017\202=[\255V\274\316\240\014=\245yv\275\026\3454=\0012\325=\004\017\251\275\251\033&\275E;\314<\3322%\275\035\254\316\274g\330h\27440\303=\246\301\254\275\253\017,\274\235\227\221=\013<\003>\2149\364\273\225\206\236=\310\177\205=\003\341\371=\263[\230=\027I\232\275\006\033\303=N#\207=\203>\227=\022\301\251=\230B\031=\3343\212<\352\337>>\236s\234<I\264\003=wcq<f\230\206\275\277\007A<\252\277\210\275\377\233\272=\256\367\256\273\261\277\316\274\261K\020\275\366\251\302\2757z\264\274\264e\374<\"\037\201\275Cv\264\273\302\365\266=gq\361;\365\204\265=\247\247\246<\224P\315=N\361e\274\240\272\036\275n-@<\266\325\022\275\214\245\220=\r\313,>\0131i\275\364\345\210=\351\210o\2751\025I\273\331\237\234=\350ir=\311\301\270\275<\252\240\275\237\336C\274+\345\236=T\236\202\275\2113i=S\262c;\332f\221\275\323Pi\275\3069<\275*\334C=>6\001=]tq\275\\\016\321\273\342:\201\275>\236\330<\347\027\221\275fe\234\275h\343R=h\255\247>\346\351\353=&z \275\345\330\307=\373\2119=k\2468\275N\000\031;\367\340\\\275\344*L\276\221\367E\275\017\251\027;\307\t8\275\357\202\262<\324f\367=\3714,=\360\262\356=\370r\365=\"\377\210<\270i\264=U\036\262=~U\323=\340&\305\275\320\347T\275U2\226=\235]\230=\306\245\021=L\350B\275a\2278=\033\251\214\275\2023\243<\036f\022;k\320H\275\351N\352=@s\241=&\3247\275\205\275k\275\235\317\214\275\245k2\275lqQ\275\000\'\273=\210dL\275tf+\275u\315\377\273\333g\347=\210?\244\273X\032\250<g\202\227=\321v\263=\027\223e<\037\035\355=q\003\364=\037\365^\275\311i\017=b8\307=\347\003\200=\224i\256=\247X\272=\0361\301=\251\250\341=\343\237t=\207\316n=M\323\312=\2507o=M\270\272=\277@%\275\030\274\245<\267\025d\275\305\3540\276\272U\023>U\273\220\275\030\001S\275+|\021\274\223\031j\274B\024\341<)\343\375=\037\010\021?\312\366\030=\363\247\354=S\246\270=2q\337\275O\\\350\274\034\326.\275{\302\200\275D\215\207\275\273~\000>lWC\275\3215\036=e\257\245<\004\232\004>\201\210\277;\225\300\202\275\017b\202\275*r\376=\201\3517\275\370V\311</\2673\273\246\\\330=Ydv\273\007\267\210=w\257g\274v\377g\271\365\237\032<o\256#\275\224\253\362\272[\325\300\274\021\210\262=\272[q<\001\037\343\275\007\226d\275\365\243\314\276\245\325\212=\215\333?=`f\226=H\345y\275\307\255\302<\026\323\263=\000[);0\255y=/\332B\275\321P\213=\327\260\273\274\255\275\300\275r9\215=\235\303\304;\363\225\315=\2468\346\2754\337\211\274G\3010>\217\031O\275\250q^=\355K\267=\377W\336=\212\350\266=_\023\240=\025\354\036\275\236o\240=,\\U=\'\326E<\3071\265<E\264\027\275\".\301\275o\276\007\272|\327\274=\253\241\236=(W\217=\371\311\340\275\242g\202=\032\221\245\275\316x\242\275\200\251\010=ybg=\332\020\213\275~\275\227\275\372\025\352=\320\260\200<\362p|=\245:\214=\002\332\204=\233@\303\274\254T\241=\013)\220=\320\250,\274\242U\345\274\265?8=d\346z=\2064M\275\264\031\257=\371R-\275\003\377\343=\336\207\242=.\177H\275\245V\207=\251Ri=\273\261\301=\306C\223\2753\211\016<]\036\352<\006\027\302<r\237\005>I6^\274C-\337\2742.\337\271K\210\204=\\\032\256\275\351\313\276==_\255\273;\364\215=Q0\225\275$l\203\274\314\231\372\275\n\242\254\275\311\325\341<\035\253q<\205k\\\274\020Q\226\275\270U\352\273\222\326\330\275\"V\373<\213u\207=RJ\213\275\355i\332=\272x\366=%\224\234\274\275\231\377=\030\213\330\274<-\013>Yh \275\027\365g\275l\t\245\273\207\326\355=\000\241\232\275\031\006\345=\003\033n=\234\237\002>\252`\272>F\024\330\275\035\255\270=\374\314/>\215\316\234\274\327\005\242\275\2471#<\200Yr=\357\027Z\275 N\203=\331S6=bcX=\003|\352<\030\0358\275\210An;V\347\306=c~\200\275\321u\240<.\260\024\274&\014\200\275\034N\300=N+\227<\351 k\275/.\261\275z[\033<B\231J=\020\274T\273\365W\024\272\264\020\257\275\210ut\275\276&\366=\374\216\331=\261\266%=o\r\315=R\361\r\275 \330\205;\327q\221\275\247:\003=tG\355=,\217<=P\221\017\273\360\243\214\275\354+\334<8V\312\275\006}\325=\350\223\177\275\337Y\301=z\312\244\274\277\217,<z\260\252\275\036\002\221\275it\362=\245\376\002\275\0023\205=J\006\321=\323\266\247<\362\277\203\275\336\275\225=1v\234;y\334\262\275u*\207=\347\035\242\273F\246I=\204k\332=\000\352\027=\264\257\235\275\225\211(=\344p\003\275t\310\032\275\310\317\204=\245\'`=\022\3707<\335\323\314\274\250\375\330=\254\3328=<\217\300=\0269k\273@$\224=\245\003\274=\350T\277;\250{o>\305\027C;\2373/=\025\340\357=\222&\257\275\207\250\224=\301\215R\275\335\002*=[\232\232\275\357Ua=\305\241\347\274 ;Z=\370\202o\275W\316\342=\024\356f=d\254\311=\323\020K\2746\266\303=:\304\201\275\330\331\362\274s\356\362=i\311\014=\0371\316=\271/\025=\263\321\321=.\227\307=\355\310\200\275\325\315\363\273\"9\017\275\311Z\246\275\372\035\n\275r\376\226\275\376\320\226<\307K=:\374\026\310=\355\252\241\275a,A\275\006\305\245=\302@1\275^\204\214=\nj\322=\321\355\204=RZ\222=\205\231\250=\301)\222=5\277\233<$>\342\274\3128\230\275\202\300\013=\332\315n\275\234*^\274O7\213\274`9\270=\0149\245<\206)\312=\314\2328=\266\337\320\274\314\235\214\275N\215[;\334s\004>\344\007v=\362\330*\276\023\333\225;\220\2416\274\310\237\265\275 \372\271\275\320Tb\275\342\315&\275\002\352\211=\373h\316=\214\212\275=\225\221\323\2746\266\037\274X!K\2759\024\235:f\365\360<\342\256\255=#7\243\275\343\271\362<\345qJ\275\224\0036< \341\342=C\367I\275\3026\244=ur\276=\002b\321<6jW\275cE\335<=\210\301\275%\313\314<\355\337\317<\223\362\002=\363\303\240=\3433\241<\355\251\033\275\353\305\356\273x=\014=,~\021\274\320\271\272=\312$\200=\003\277,=Dz1>\261I-\275\206!\317;\22748=\200\215F=\014W\033<\237D\212=^n\336;\376\350\214\275\362M4=\266B\037\275\023\366\013=dMS=\246\217j<OF\245\272\')\215=\352\207\226\275\227\030\354=\034\261e\275do\240=\262A}=:\262\343:1\"\271=\271\224\221=\216\374A\276\017\345\316==\316\010\274+\235\026\273\336\030\314\273\341u\352\2705j\343=\203L\314=.\325(=(\013\336<\377F6?)\370b\275\177nj=l\312\002=\224\225\025\275\337\036\316=\350#\257\275\274)\265\275\270m\205\274\263\245\003>\023\344\326=As\316=\3645\245\2741Z\326<\322\356\373=\372@S\274\345\231K<\212\350\375=\022\204,\275\251O\n=\271\237\235<\014aZ;\017\246\311;\220\304\346=\236\320\235:\003,\376=\3728\251;w,\251\275Eyc=\014\002\023\275|jt=\000\360\017>\204@\374=1\203\n\272\252a\026=f\354~\275(:\005>h\301\271<\256#\004>Dk\255\274\332\361\315=\\C!=T\331\361\275\327\334\251\275<\316\006\275\260\336D\274h1x\2756P\247\273\310\005\255<\220\243\240=\360\344\234\274\313\223\244\274\333r\366\273\274\010\214=\306<\274\275\364z\373=\255\257*=%\207\036>G\362\352\273\325\226\355=\306i\253\273\326\020\340<{A\250=\032\213\306=\220#\251=\031\355\\\275\300\242\271<V!x=6\362\210\275+\274\264<\036j\323=\244\270\231=\005c\211\274\252\201~\275\031\240\361=4e=\275\244*\207\275\215i\245=\315:\302<?0\006>\273h5\273\366\365\322\275\232\307\255=\263\361\206>\373\344\376=1UR\273\236-\232=d\377\310=\264\272(\275\341\277g\275\016\221\341\273\275\n\230=E\271$=}H\007\274\031\364=<\t\354r8\224\2207=\361|\300=<}\333=\246\356\022\274\213\225\270=\351\031\251:\264B}=\371GZ\275u\267\257\275\3359\330=?\376\022\274J,2=\256f\333\273%8+=K\001\226=\336\310\367:I\377\314;\234\273\237;\177\226\177<QWm\275z]\310=\300\213\037\275\301\303\004\275\254\211\346=\313\264\373\274\347\365\035<\230\264\016\276\364b\3329\235\240\231=f\305J=\317\302\000=\266\373\215=J)\331<f\330[=\342i\346<\304$\000\275\177`\343=\304\261\216\275\003\310X=xR&\273\310+\343=\010\014\362<\205\244\'=\311G\237\275\023\036\000>\254\n\330=u\314\215=?lM\274\346\301\367=\200O\033\273z\021,==W\256=F\235f\275\331\245\005=\245\300\"\276\013\267i\276\222X\246=v\3777<\342\342\334=\021\n\206<cC\002>\243D\201=[\010\007=|\243\243=F\355\240\275jB\264=\025\300B\274j\264\233\274\271\326\222\275\370\377\262;T)\236;u\027x=\256\030\203\275\2652\000<f\227\236\275\202\346\206=r\226\267=`\030\316\275}\275_<U_\322=\256}\270=\216S\206=tI\211=\n2E<\263\264&=\013\243\332=\035~\214=]>H\274\253\227\226={\025\214\275Y\200\003>\245\220\177=\311@\200\274\\\273\262=\370{\023\276\237\334\270\2754a(\277SF\371\274x\317\357=J\014\212=\004\341\215\275w\272\034=\301oM<\320\007\006>W\374\232\275p\200v\275e?\021\275\324\225.\275\241\260R\274\006\030\201<\002\330\373\273\351-\266<\273\333]\275\315\345\005\275\306\276\247\275Q\217\325=\230r\033<\'\321\371=\355&\265=\202\335\257=hi\327<\3063\264=\210\253\262=,\360\255\275\2719\336<m#\016=\335~\330\273\335\313:=$\262\301=g\202k\275\303\365\242\273C\337[\275\372\n\032<v\353)\275\001\310\031\275\010u\222\2755y\334=\210\263g=,HQ\275+\210Y\275\276]\033\274\350\260\302\275L\203\353<q\222\201\275\001\026\235;>G\032\275\227+\304=\371d`\275\340\243\017\275\342\016\275=\306\254\324\2751\2443=E\251G=\034\034\303\274\010\213<=5\300\265\275L\246\013\274\347)\232=\216\310\206=\324\265\347\274\3559l\275-\227);\345l\000\276\300:\365=\352\375+=\315\350}=$?\314=T\217<=cz\022\275Z\3430=\235\215o=3 \371=p\374\333=\335)\031<\220\351\001\275\267:~=/t\356=\272\024\237\275oo6\275g\377\260=\022\2326\275\265Vn=\234\335\262\275\267\313\331\2755h\225\275\302\366\030=j\316\264=\276u@=\251|\351=cw4<\251&2\275\002b\215;\364\312\330\274\241~u\275\345T\241<\233h\316=\223\316\362=c\302\373<\312\372\236=\302\237L<W\317\024\275-\312\r\2759V+=\273t\201\273\025\227(=\3724\017\275\244\337\221\274\323\017\005=\035l\030=\'\373M<7Wq=\362\360\007=\213\213\243=\265\336\252\275\332S\205<][\207\275k\005\336<2\260\317=\301\321\206\274m{,=bI\016\275h\357\337=\337{\237\275+\023G\274V\206V\275\2332\277\275\'\354u<5z\303=\234\357\006\275\276,\006\275\261YX=z\272\342=r\365X\274 k\004>E\201_=!+\232\275\177I\231\275\025\343\261<Y\374\254<:\2739=\360\242\205=N\370\200\275\303\332\330\275}\350\336\275\306+\347\275\370\301\265\274]\013\370=\t\273w\275\266\025\300<\367\021\224\274"
      }
    }
  }
}
node {
  name: "decoder/de_dense_final/BiasAdd/ReadVariableOp/resource"
  op: "Const"
  attr {
    key: "dtype"
    value {
      type: DT_FLOAT
    }
  }
  attr {
    key: "value"
    value {
      tensor {
        dtype: DT_FLOAT
        tensor_shape {
          dim {
            size: 512
          }
        }
        tensor_content: ";F\355<VB\335<\344\341\272<\246\223\t=i\362\304<\242B\036\271$\211\271<\350Y\340<\315\322\306<\273\372\375<!d\253<z\205\272<&\375\257<\355j\345<\2329\';@\313\317<\0148\006<\245\212\312<\223\342\340<\223\244\n\274SY\257<\206\014\341<\313 \037=\363Y\n;\352A\363<3\362\340<\333\017\312<\207\206\340<\007\005-=r\251\263<@&\314\273L\244\233=\217\270\021\274\376\333\334<\246\236\311<\252\244\336<$\325\304<\010\221K;>\027\302<\"\243\024=\362\255\320<\347\261\362<\2473\324<\202\256\272<A\032\344<t\215Y=\370\312\300\274\364<\345<\345\327\277<\222\304\332<%\345\270<\260)\354<`}\360<\343G\343<\306k\033=\310\273\177<\366y\007=[\034\346<\014{\270<\211\357\333<\n\326c=C| :\335\236#\274\262\310\266<[\241\232<k\277\333<v\312\256<\244z\017=\213\322\245<\025\027\212\273\337\323\243<\031l\313<G&\330<\310\236\340<\212B\301<\352\271\310\273I\344\366<\363d\004=\376\210\206;F\267\330<f\033\262\273\354\360\336<\026\000\337<x\304\352<9\335m<\357t\350<e\367\365<A\207p<(\0019<\033e\374<\007\327\306<\003\340\337<\025\025\276>O\366]<\0324\313<\306k\177<\232;\024\274\326\247\343<\215\025\340<\364\324#<\353Q\331<\320-\322<\342\347\271<\276]\320<\232\362\212<w\306\014>o\246\340<-\263\375;\001\032\354<\221\000\370<\247C!\274g\246\373<M#\335<m\341\251<W\202\222<\364\222\346<\020\321\357<\365\250\363<\030\024\005=@H\264\273\034M\376<\3077\355<\336\234\334<\264\273\350;\027\344\010=\337\375\023\274\302q\353<\250\003i<\346\333\003=k\206\235<\340e\324<s\362\006=\265\202}\276;\302\013\275pI\236<\000\245\334<\335\241\271<\377}\344<\256\037\263<[\245\351<\200\376\350<\244\316\243<zq\247;g\302\274<?k\205<\334\376\337<\343V\246<I\203f<.\237\326<\215\226\322<h\344\367<N\364v<\377N\033=\350\310\361<\330w\305<n2\304<\031\032\271>U\223\277<\223>\214<\310\313I;\256b\336<\337\236\277<\231\225\336<D\221\374<\252\2358<\332\267\005<\226Bl\277\326\263\334<\352\037\255<\034~\325<P\370\316<}\255\366<\376\217\004=\314\211\313<\304\271\306\271\273\032\307<\262@\017<\335\007\326<&\014?<]\323\261<\211\376\316<\322\200\322<\321E\373<;%r<G* =F\267\001==\325\311<@\334\305<\327\376\233=\004\340\244<\202\036\317<\023u\226<2\215\035=.tA\272.\213\340<\032_\314<\013\271\222<\342\302C\276\216\275\276</<\261<\001J\315<\320\271\340<\314t$=O\245\026=\337v\376<\275v5=\274\342\030<1.\317<\013\3762\274\233\361\351<\315=\210<F\227\304<\260y\324<\3660\327<\013\373\345<\276\306\210<F\211\001=\245\261\370<\366\363\307<\300!\320<t\351\014\274\364)\262<\242\365\243<\021\314\023>\311J\357<\326m\302<\3032\026=\366\354\203=\306\"\265<\266\325\277<P\334\323<r\225\002\274\346\002\345<\017\272\261<\335\326F<\301\226\355<\237\311\340<\025w\355<\271g\223<l{\340<H\313\350<\2552\333<[L\227<\276\020\324<c\305\342<5\205\340<@\032\272<\305\336\014\274\033\'\001=<\2563?\003b\321<xF\270<-P\202=U\237\332<\233\301\256<I\310\355<5\3240>\315\236\335<\202\257\342<\010E\005=\335\002\317;\260&\304:O?\314<d\305\275<.O\317<\026T\342<\037\226\244<\343#\345<\005\007\345<`N\275<cb\361\273\322\347\317<8|\247<\237\247\354<}\010\310<\224c\343<\031`\333<<\366\336<\230\227\274<\255\373\205<S[\016=\344\016\355<c.\255<\001B\300<b8\t>\007.\302<g\\\334<f\n\004\274\270\023\215>\306\327\317<)\312\325<z6\323<\337Hr<\3123\237<a\004\247<$\271\262<:\000\262<\223\200\267<=W\250<\207\013\331<Fk\335<\256\355\246<\352\004^<\266\312\307<\345(\356;\024E\300<O\354\227<I\266\313<\333\344\313<B\242\320<\237&\352<\024h\210<\331\r\367<F\265\355<2\262\256<$8\260<P\356\342=0:\273\273\227,\315<\302\234\274<\210\312\341<\356\021w<\3673\326<\024\024\345<\022\'\035\276s\235\221<\332A\276<\323/\272<\027u\315\273\224p\244<\351A\241<\030Z\355<\027\t\340<9\246\333<_\216\014\272\315;\237<\236\362\353\273E\272\315<\3726\321;_Gz<^\335\326<\0016\322<;M\333<\324\307\210<|A\340<\030X\346<\310\362\251<@]\214<|\216\257<\354\030\024\274E\324\315<\362\310\224\273\230\013\364<\366\016\367;\2414\370<\366\344\004=\206\255><\317\001\215<Bb(\276mP\036\274\222\356\331<\353\336\235<~\024Y\274\017\324\343<`=\326<-v\325<)\266\306<\203\t\263<\232`q9\311\025\t=\375%\376\2737%\301<<A\327<\235W\244<\003~$<P\214W;\255V1>\200_\016=\247\027\273<\362>\315<B_\205<\3627m<\326\336\344<b\307><\216\276\250>u\003\326\273\225\312\324<,\232\333;\017|\257<\306\036F\274$\377\320<\027\'\216<\n\rV<Z\214\255<\261\356\200<\245x\336<\257q\375<\271\262\273\273Ur?\274\\B\314<\210\306\004<\023\350\356<\211\027\314<\264\242\236<\202\235\350<\177*\327<\314\301%=\263\202\234<\177=\317>\313f\312<1Du=\031\267\323<RX7\274\211H\326<\367\231\020=Y\"\304<\247&\277>\330\376\261<O\275\311<\265`z=\216\375\217<_I\225<\177\222\233<\331Y\310\273\014I\264=!\330\227<!\273\217<\017\202\352<[\010\336<\303!\346<G\335W;\311\255\276<\275\201Q\274x\230\350<\317\373\233<\207M\270<\364M\310<U\216\315<\3600\201=\014\352z<f;\000=zD\007=\254\322\251<\364\267\332<\366\274\"\274f\307\003\274\241])=8\273\343<\234\236\343<J\240\304<h\234\313<\021f\335<\022\001R\274\324\301\273<\025\007\341\274\230\002%\274n\346\014\274[e\252<\240\255\330<5\274\322<0n\316<\205$\325<i.\226<\357\325\013\274B\027j\274\240\352\313<\025|\346;b\023\343<g\305\177<{I\217<\307Fu<n\226\374;\3310-<\224d\256;\243\016\234<\374\361\316<U\303\200=b\264D\274J*\223<\\z\330<\t\305\312<,\263\033<\023\202\371\272z\271\323<4\022)\273IY\332<)\367\036\274\342\257I\274Te\217\274\344.\273<\017\224.\274\354\3017\2741e\321<\032\"V<g\205\323<\254\334\312<\256\\B<\214y\256<\215\2511;\332\023\201<J8\322<e\353\307<}\007\325<k\276\317<agY\274\261\247q\274\237\332o\274\205\370\316<Q\326\324<N\365[<1\233\222;\002n\257<"
      }
    }
  }
}
node {
  name: "decoder/de_reshape/strided_slice/stack"
  op: "Const"
  attr {
    key: "dtype"
    value {
      type: DT_INT32
    }
  }
  attr {
    key: "value"
    value {
      tensor {
        dtype: DT_INT32
        tensor_shape {
          dim {
            size: 1
          }
        }
      }
    }
  }
}
node {
  name: "decoder/de_reshape/strided_slice/stack_1"
  op: "Const"
  attr {
    key: "dtype"
    value {
      type: DT_INT32
    }
  }
  attr {
    key: "value"
    value {
      tensor {
        dtype: DT_INT32
        tensor_shape {
          dim {
            size: 1
          }
        }
        int_val: 1
      }
    }
  }
}
node {
  name: "decoder/de_reshape/strided_slice/stack_2"
  op: "Const"
  attr {
    key: "dtype"
    value {
      type: DT_INT32
    }
  }
  attr {
    key: "value"
    value {
      tensor {
        dtype: DT_INT32
        tensor_shape {
          dim {
            size: 1
          }
        }
        int_val: 1
      }
    }
  }
}
node {
  name: "decoder/de_reshape/Reshape/shape/1"
  op: "Const"
  attr {
    key: "dtype"
    value {
      type: DT_INT32
    }
  }
  attr {
    key: "value"
    value {
      tensor {
        dtype: DT_INT32
        tensor_shape {
        }
        int_val: 4
      }
    }
  }
}
node {
  name: "decoder/de_reshape/Reshape/shape/2"
  op: "Const"
  attr {
    key: "dtype"
    value {
      type: DT_INT32
    }
  }
  attr {
    key: "value"
    value {
      tensor {
        dtype: DT_INT32
        tensor_shape {
        }
        int_val: 4
      }
    }
  }
}
node {
  name: "decoder/de_reshape/Reshape/shape/3"
  op: "Const"
  attr {
    key: "dtype"
    value {
      type: DT_INT32
    }
  }
  attr {
    key: "value"
    value {
      tensor {
        dtype: DT_INT32
        tensor_shape {
        }
        int_val: 32
      }
    }
  }
}
node {
  name: "decoder/conv2D_t_0/strided_slice/stack"
  op: "Const"
  attr {
    key: "dtype"
    value {
      type: DT_INT32
    }
  }
  attr {
    key: "value"
    value {
      tensor {
        dtype: DT_INT32
        tensor_shape {
          dim {
            size: 1
          }
        }
      }
    }
  }
}
node {
  name: "decoder/conv2D_t_0/strided_slice/stack_1"
  op: "Const"
  attr {
    key: "dtype"
    value {
      type: DT_INT32
    }
  }
  attr {
    key: "value"
    value {
      tensor {
        dtype: DT_INT32
