node {
  name: "x"
  op: "Placeholder"
  attr {
    key: "dtype"
    value {
      type: DT_FLOAT
    }
  }
  attr {
    key: "shape"
    value {
      shape {
        dim {
          size: -1
        }
        dim {
          size: 8
        }
        dim {
          size: 8
        }
        dim {
          size: 1
        }
      }
    }
  }
}
node {
  name: "encoder/encod_qa/mul_3/x"
  op: "Const"
  attr {
    key: "dtype"
    value {
      type: DT_FLOAT
    }
  }
  attr {
    key: "value"
    value {
      tensor {
        dtype: DT_FLOAT
        tensor_shape {
        }
        float_val: 1.0
      }
    }
  }
}
node {
  name: "encoder/accum1_qa/mul_3/x"
  op: "Const"
  attr {
    key: "dtype"
    value {
      type: DT_FLOAT
    }
  }
  attr {
    key: "value"
    value {
      tensor {
        dtype: DT_FLOAT
        tensor_shape {
        }
        float_val: 1.0
      }
    }
  }
}
node {
  name: "encoder/input_qa/mul_3/x"
  op: "Const"
  attr {
    key: "dtype"
    value {
      type: DT_FLOAT
    }
  }
  attr {
    key: "value"
    value {
      tensor {
        dtype: DT_FLOAT
        tensor_shape {
        }
        float_val: 1.0
      }
    }
  }
}
node {
  name: "encoder/input_qa/mul_2/x"
  op: "Const"
  attr {
    key: "dtype"
    value {
      type: DT_FLOAT
    }
  }
  attr {
    key: "value"
    value {
      tensor {
        dtype: DT_FLOAT
        tensor_shape {
        }
        float_val: 1.0
      }
    }
  }
}
node {
  name: "encoder/input_qa/mul/y"
  op: "Const"
  attr {
    key: "dtype"
    value {
      type: DT_FLOAT
    }
  }
  attr {
    key: "value"
    value {
      tensor {
        dtype: DT_FLOAT
        tensor_shape {
        }
        float_val: 512.0
      }
    }
  }
}
node {
  name: "encoder/input_qa/Pow/x"
  op: "Const"
  attr {
    key: "dtype"
    value {
      type: DT_INT32
    }
  }
  attr {
    key: "value"
    value {
      tensor {
        dtype: DT_INT32
        tensor_shape {
        }
        int_val: 2
      }
    }
  }
}
node {
  name: "encoder/input_qa/Pow/y"
  op: "Const"
  attr {
    key: "dtype"
    value {
      type: DT_INT32
    }
  }
  attr {
    key: "value"
    value {
      tensor {
        dtype: DT_INT32
        tensor_shape {
        }
        int_val: 3
      }
    }
  }
}
node {
  name: "encoder/input_qa/clip_by_value/Minimum/y"
  op: "Const"
  attr {
    key: "dtype"
    value {
      type: DT_FLOAT
    }
  }
  attr {
    key: "value"
    value {
      tensor {
        dtype: DT_FLOAT
        tensor_shape {
        }
        float_val: 511.0
      }
    }
  }
}
node {
  name: "encoder/input_qa/clip_by_value/y"
  op: "Const"
  attr {
    key: "dtype"
    value {
      type: DT_FLOAT
    }
  }
  attr {
    key: "value"
    value {
      tensor {
        dtype: DT_FLOAT
        tensor_shape {
        }
        float_val: -512.0
      }
    }
  }
}
node {
  name: "encoder/input_qa/truediv_1/y"
  op: "Const"
  attr {
    key: "dtype"
    value {
      type: DT_FLOAT
    }
  }
  attr {
    key: "value"
    value {
      tensor {
        dtype: DT_FLOAT
        tensor_shape {
        }
        float_val: 512.0
      }
    }
  }
}
node {
  name: "encoder/conv2d_0_m/ReadVariableOp/resource"
  op: "Const"
  attr {
    key: "dtype"
    value {
      type: DT_FLOAT
    }
  }
  attr {
    key: "value"
    value {
      tensor {
        dtype: DT_FLOAT
        tensor_shape {
          dim {
            size: 5
          }
          dim {
            size: 5
          }
          dim {
            size: 1
          }
          dim {
            size: 32
          }
        }
        tensor_content: "\000\000\000\274\000\000\350\275\000\0008=\000\000@\274\000\000\320<\000\000\300;\000\000\000\000\000\000\200\273\000\000\300<\000\000\030\275\000\000\320<\000\000\000\000\000\000\030=\000\000p=\000\000\250=\000\000T>\000\000\260<\000\000`<\000\000\300\273\000\000z\276\000\000\020\276\000\000\350=\000\000\300\273\000\000\270=\000\000`\275\000\000\260<\000\000@<\000\000\324>\000\000\360\274\000\000 \276\000\000\000\274\000\000\314\275\000\000\210=\000\000\"\276\000\000\000\000\000\000\221>\000\000&>\000\000\006\276\000\000\000\273\000\000\200;\000\000\340<\000\000`<\000\000.\276\000\000\360\274\000\000`\275\000\000\030=\000\000\304=\000\000\240\274\000\000\300\274\000\000 <\000\000\210=\000\000\300;\000\000\234=\000\000\030=\000\000x=\000\000p\275\000\000\016>\000\000`\275\000\000\200\273\000\000 <\000\000\333\276\000\000\034\276\000\000\020=\000\000@\276\000\000\340<\000\0002\276\000\000@\274\000\000\260>\000\000\006>\000\000h\275\000\000(=\000\000\000\273\000\000\300<\000\000$>\000\000\244\275\000\000\320\274\000\000\300;\000\000\340\275\000\000\340\274\000\000\300;\000\000\240\274\000\000\254\275\000\000`<\000\000\000=\000\000\210=\000\000\"\276\000\000x=\000\000p\275\000\000\034>\000\000\250\275\000\000`\274\000\000\000\274\000\000\034>\000\000T\276\000\000P=\000\000\244=\000\000\020=\000\000\320<\000\000\010\275\000\0008\275\000\000\300;\000\000\200\274\000\000\000\000\000\000\300;\000\000`\274\000\000 <\000\000\240\275\000\000\000\273\000\000@\274\000\000\300\275\000\000 <\000\000l>\000\000\220<\000\000`<\000\000P\276\000\000\220<\000\0000=\000\000\244\275\000\000 <\000\000`\274\000\000\264=\000\000@\275\000\000\200\274\000\000\200;\000\000\270=\000\000x=\000\000\230=\000\000`=\000\000\340<\000\000\000=\000\000\340\274\000\000\000\000\000\000\220<\000\000\240\274\000\000 \274\000\000\000<\000\0008\275\000\000\320=\000\000\254\275\000\000\030=\000\0008=\000\000\234\275\000\000\360\274\000\000@<\000\000\220\274\000\000\240\275\000\000(\276\000\000\300;\000\000\240=\000\000x\275\000\000\220<\000\000\220\275\000\000\224=\000\000\250=\000\000\254\275\000\000\200\274\000\000\220=\000\000@<\000\000\200;\000\000\300\274\000\000,>\000\000Z\276\000\000\270>\000\000L>\000\000\300\274\000\000\000\275\000\0008=\000\000\200\273\000\000\024>\000\0000\275\000\000\000\273\000\000\340\275\000\000\200<\000\000\030=\000\000\304=\000\000R>\000\000\000\275\000\000@<\000\000`=\000\000h=\000\000 <\000\000\344=\000\000\032\276\000\000\022\276\000\000X\275\000\000\340=\000\000H=\000\000\020=\000\000\000=\000\000\030\276\000\000V>\000\000\364\275\000\000\300\273\000\000\314\275\000\000\247>\000\000\010=\000\000P>\000\000P\275\000\000\241>\000\000\004?\000\000j>\000\000 >\000\000 \276\000\000\"\276\000\000\230=\000\000n\276\000\000\220\275\000\000\240<\000\000`<\000\000\000<\000\000d>\000\000\246\276\000\000H\275\000\0000\276\000\000\330\275\000\000F>\000\000\360<\000\000\000>\000\000 =\000\000\200\273\000\000\360=\000\0006\276\000\000\244>\000\000*\276\000\000\030=\000\000\254=\000\000\300\273\000\000\000<\000\000\234\275\000\000\200\273\000\000(=\000\000\250=\000\000\220=\000\000\221>\000\000\370\275\000\000\020\276\000\000\370=\000\000R\276\000\000\214\275\000\000j>\000\000\301>\000\000\000=\000\000\200>\000\000\346\276\000\000\200<\000\000.\276\000\000\270=\000\000,>\000\000\n>\000\000\000>\000\000\026\276\000\000\000\273\000\000\304=\000\000\260\274\000\000*>\000\000\364\275\000\000P\275\000\000\354=\000\000\200\273\000\000@\274\000\0000\275\000\000\014>\000\000\300\274\000\000\\>\000\000\240<\000\0004>\000\000\000\276\000\0000\276\000\000\244=\000\000\020\276\000\000\330=\000\000p>\000\000\260\274\000\000 <\000\000\030=\000\000\330=\000\000`\276\000\000\"\276\000\000 =\000\000>>\000\000\002>\000\000`\275\000\000\\\276\000\000\200\273\000\000\020>\000\000\214=\000\000p\275\000\000\220=\000\000\260\274\000\000\004>\000\000\000\273\000\000`\274\000\000\320\274\000\000\340=\000\000\200\274\000\000F>\000\000\360=\000\0002>\000\000\300;\000\000,\276\000\000\214=\000\000\004\276\000\000\214\275\000\000T>\000\000\300;\000\000\264\275\000\0000=\000\000\010=\000\000\374\275\000\0002\276\000\000\010\275\000\000$>\000\0000=\000\000\244\275\000\000\324=\000\000 \274\000\000\300=\000\000\000\000\000\000\270=\000\000\250\275\000\000\262>\000\000>\276\000\0008=\000\000\300\273\000\000\260\274\000\000 \274\000\000\246>\000\000\000\274\000\000\000>\000\000`=\000\000$\276\000\000\260\274\000\000\200\273\000\000\254=\000\000\260=\000\000@>\000\000 =\000\000\320<\000\000\240<\000\000\300;\000\000\230=\000\000X\275\000\000\330\275\000\000x\275\000\000\010\275\000\000\000<\000\000`=\000\000\020\275\000\000`\275\000\000\020\276\000\000\200\273\000\000\006\276\000\000 \274\000\000\030>\000\0008=\000\000\200\273\000\000\026\276\000\000\344\275\000\000\312>\000\000\372>\000\000f>\000\000\000>\000\000\006\276\000\000N\276\000\000\010>\000\000\370=\000\000\314=\000\000d>\000\000B>\000\000\260\275\000\0000>\000\000\010\276\000\000 >\000\000\030\276\000\000(=\000\000.>\000\000\320\275\000\000 >\000\000p\276\000\000\">\000\000`<\000\000$\276\000\000\030=\000\000\024\276\000\000\300\273\000\000 >\000\000\000\000\000\000`\274\000\000\354\275\000\000\214\275\000\000 =\000\000\226>\000\000\310\275\000\000`>\000\000\360\275\000\000\036\276\000\000\024\276\000\000\220\276\000\000\300=\000\000\\>\000\000x>\000\000\270\275\000\000<>\000\000\203\276\000\000h=\000\000(\276\000\000\340=\000\0008>\000\000\300<\000\0002>\000\000\022\276\000\000\000\273\000\000\330=\000\000\200\274\000\0008=\000\000\300\275\000\000\300\274\000\000\210=\000\000\000\273\000\000\320\274\000\000@\275\000\000@\275\000\000@\274\000\000\000<\000\0008\275\000\000F>\000\000\010\276\000\000$\276\000\000\016>\000\000\026\276\000\0006>\000\000H>\000\000\374=\000\000\260<\000\000\314=\000\000\240<\000\000\220\276\000\000 \274\000\0000=\000\000<>\000\0004>\000\000\334=\000\000\020\276\000\000\000\000\000\000\354=\000\000\344=\000\000\310=\000\000\250=\000\000\000\000\000\000\234=\000\000\220<\000\000(\275\000\000\360\274\000\000h\275\000\000\320\274\000\000\220>\000\000\n>\000\000\010>\000\000\330\275\000\0000\276\000\000\254=\000\000\330\275\000\000l>\000\000\000<\000\000\360\274\000\000\200<\000\0002>\000\000h=\000\000\016\276\000\000\304=\000\000\220<\000\000H>\000\000:>\000\000h\275\000\000\270\275\000\000\300;\000\000\240<\000\000`<\000\000\210=\000\000\254\275\000\000\364=\000\000\264=\000\000`\274\000\000@\274\000\000\200<\000\000\010=\000\000\200<\000\000 <\000\000\010=\000\000\300\273\000\000x\276\000\000\220=\000\000\000\273\000\000\220=\000\000\360\274\000\000`\274\000\000\320\274\000\000\240<\000\000\300<\000\000\000\000\000\000H\275\000\000P=\000\000\204\275\000\000\250=\000\000(\275\000\000\032>\000\0008\275\000\000.>\000\000\260<\000\000\026\276\000\000 <\000\000\036\276\000\000\254=\000\000\">\000\000\340\274\000\000\360<\000\000`\274\000\000Z>\000\000\000\000\000\000\254>\000\000D\276\000\000P=\000\000\350\275\000\000\214=\000\000\240=\000\000\034>\000\000@\275\000\000j>\000\000\300;\000\000\300\275\000\000\234=\000\000\250\275\000\000\360=\000\0008\276\000\000\230\275\000\0004>\000\000 \276\000\0006>\000\000\304\275\000\0002>\000\000\010=\000\000(\276\000\000\010=\000\000(\276\000\000\264=\000\000\324=\000\000\220\274\000\000\020=\000\000\220\275\000\000\374\275\000\000\000\274\000\000\236>\000\000P\276\000\000\240<\000\000\374\275\000\000\374\275\000\000\030>\000\000\254=\000\000\270=\000\000@>\000\000\000<\000\000\300\275\000\000\360<\000\000\354\275\000\000\260\274\000\000@\276\000\000\030\275\000\000\364=\000\000>\276\000\0008>\000\000\340\275\000\000\030>\000\000\230=\000\000\000\274\000\000\000=\000\000\360\275\000\000 =\000\000\010=\000\000\320\274\000\000\200\274\000\000\320\274\000\000T\276\000\000\010\275\000\000\250=\000\000\360\275\000\000@\274\000\000\330\275\000\000\344\275\000\000\204=\000\000\300\275\000\000V>\000\000 <\000\000\260\274\000\000\220<\000\000h=\000\000\020\276\000\000N\276\000\000\010=\000\000\020\275\000\000B>\000\000\210\275\000\000\020=\000\000\374\275\000\000@<\000\000\000;\000\000\340=\000\000\000\273\000\000\320=\000\000\360<\000\000`<\000\000\000\273\000\000 \274\000\000 \274\000\000\002\276\000\000\200\273\000\000\000<\000\000\260\274\000\000\240=\000\000 =\000\000\270=\000\000\274=\000\000\354\275\000\000T>\000\000`=\000\000\200<\000\000\010=\000\000$>\000\000`<\000\000\354\275\000\000\240=\000\000\204\275\000\000\\>\000\0008\275\000\000@\275\000\000\034\276\000\000\032>\000\000 =\000\000\030=\000\000\200;\000\000\000;\000\000\274=\000\000\264=\000\000 \274\000\000\260\274\000\000\200\273\000\000\230=\000\000\300\273\000\000\200\273\000\000\000;\000\000@\274\000\000\340=\000\0008=\000\000\200\273\000\000@\274\000\000\340\274\000\000>>\000\000 <\000\000\300<\000\000\360<\000\0000\275\000\000\270\275\000\000\270\275\000\000\000\275\000\000@<\000\000\214\275\000\000\014>\000\000\260<\000\000`\274\000\000\360<\000\000\010\275\000\000\030=\000\000\340\275\000\000\220<\000\000&>\000\000`\274\000\000\000\000\000\000\220\274\000\000$>\000\000\200\273\000\000\255>\000\000(\275\000\000\300\273\000\000h\275\000\000\224=\000\000`=\000\000\260\274\000\000\270\275\000\000@<\000\000\300;\000\000\270\275\000\000\">\000\000\324\275\000\000\300\275\000\000F\276\000\000\030\275\000\000\000>\000\000\022\276\000\000\034>\000\000(\275\000\000\n>\000\0008=\000\000\360\274\000\000 <\000\000\000\276\000\000`<\000\000\006>\000\000\010\275\000\000\000\273\000\000H\275\000\000\010>\000\000`\274\000\000P>\000\000\354\275\000\000\374\275\000\000\220<\000\000p\275\000\000\240=\000\000\000;\000\000\204\275\000\000Z>\000\000\000<\000\000\360<\000\000\026>\000\000\324\275\000\000@\274\000\000^\276\000\000x\275\000\000\320=\000\000\014\276\000\000B>\000\000\016\276\000\000$>\000\000\010=\000\000\254=\000\000\200\273\000\000`\274\000\000\360<\000\000 =\000\000\000\000\000\000\000\274\000\000\000\275\000\000\304\275\000\000\340\274\000\000\200<\000\000\224\275\000\000\370\275\000\000\300;\000\000h\275\000\000\340<\000\000\300\273\000\000\030>\000\000\360<\000\000\000<\000\000\264\275\000\000l>\000\000\360\274\000\000\224\275\000\000\240<\000\000\000<\000\000$>\000\000\006\276\000\000X\275\000\000\036\276\000\000\">\000\000:\276\000\000\200<\000\000\000\273\000\000\300;\000\000\220<\000\000h=\000\000\000\000\000\000\200;\000\000\000\274\000\000\360<\000\000\360\274\000\000\300;\000\000\200;\000\000\004\276\000\000\000<\000\000\374=\000\000\224=\000\000\300\273\000\000&>\000\000\300;\000\000\240\274\000\000\240<\000\000d>\000\000\300\273\000\000\340\275\000\000\240\274\000\000p\275\000\000L>\000\000\370\275\000\000\000\275\000\000\340<\000\000\022>\000\000\360<\000\000 \274\000\000\000\000\000\000\030\276"
      }
    }
  }
}
node {
  name: "encoder/conv2d_0_m/mul_3/x"
  op: "Const"
  attr {
    key: "dtype"
    value {
      type: DT_FLOAT
    }
  }
  attr {
    key: "value"
    value {
      tensor {
        dtype: DT_FLOAT
        tensor_shape {
        }
        float_val: 1.0
      }
    }
  }
}
node {
  name: "encoder/conv2d_0_m/mul_2/x"
  op: "Const"
  attr {
    key: "dtype"
    value {
      type: DT_FLOAT
    }
  }
  attr {
    key: "value"
    value {
      tensor {
        dtype: DT_FLOAT
        tensor_shape {
        }
        float_val: 1.0
      }
    }
  }
}
node {
  name: "encoder/conv2d_0_m/mul/y"
  op: "Const"
  attr {
    key: "dtype"
    value {
      type: DT_FLOAT
    }
  }
  attr {
    key: "value"
    value {
      tensor {
        dtype: DT_FLOAT
        tensor_shape {
        }
        float_val: 32768.0
      }
    }
  }
}
node {
  name: "encoder/conv2d_0_m/Pow/x"
  op: "Const"
  attr {
    key: "dtype"
    value {
      type: DT_INT32
    }
  }
  attr {
    key: "value"
    value {
      tensor {
        dtype: DT_INT32
        tensor_shape {
        }
        int_val: 2
      }
    }
  }
}
node {
  name: "encoder/conv2d_0_m/Pow/y"
  op: "Const"
  attr {
    key: "dtype"
    value {
      type: DT_INT32
    }
  }
  attr {
    key: "value"
    value {
      tensor {
        dtype: DT_INT32
        tensor_shape {
        }
        int_val: 6
      }
    }
  }
}
node {
  name: "encoder/conv2d_0_m/clip_by_value/Minimum/y"
  op: "Const"
  attr {
    key: "dtype"
    value {
      type: DT_FLOAT
    }
  }
  attr {
    key: "value"
    value {
      tensor {
        dtype: DT_FLOAT
        tensor_shape {
        }
        float_val: 32767.0
      }
    }
  }
}
node {
  name: "encoder/conv2d_0_m/clip_by_value/y"
  op: "Const"
  attr {
    key: "dtype"
    value {
      type: DT_FLOAT
    }
  }
  attr {
    key: "value"
    value {
      tensor {
        dtype: DT_FLOAT
        tensor_shape {
        }
        float_val: -32768.0
      }
    }
  }
}
node {
  name: "encoder/conv2d_0_m/truediv_1/y"
  op: "Const"
  attr {
    key: "dtype"
    value {
      type: DT_FLOAT
    }
  }
  attr {
    key: "value"
    value {
      tensor {
        dtype: DT_FLOAT
        tensor_shape {
        }
        float_val: 32768.0
      }
    }
  }
}
node {
  name: "encoder/conv2d_0_m/ReadVariableOp_3/resource"
  op: "Const"
  attr {
    key: "dtype"
    value {
      type: DT_FLOAT
    }
  }
  attr {
    key: "value"
    value {
      tensor {
        dtype: DT_FLOAT
        tensor_shape {
          dim {
            size: 32
          }
        }
        tensor_content: "\000\000\200;\000\000\000<\000\000\360\274\000\000\320\274\000\000@\274\000\000@\274\000\000\010\275\000\000\200;\000\000\000\275\000\0000\275\000\0008=\000\000\030=\000\000\300;\000\000\320<\000\000\220\275\000\000>\276\000\000\220<\000\000p=\000\000\300;\000\000\360<\000\000\000;\000\000 =\000\000\000=\000\000\210\275\000\000 \274\000\000H\275\000\000\010=\000\000\010\276\000\000\300\273\000\000@=\000\000\000;\000\000\010="
      }
    }
  }
}
node {
  name: "encoder/conv2d_0_m/mul_7/x"
  op: "Const"
  attr {
    key: "dtype"
    value {
      type: DT_FLOAT
    }
  }
  attr {
    key: "value"
    value {
      tensor {
        dtype: DT_FLOAT
        tensor_shape {
        }
        float_val: 1.0
      }
    }
  }
}
node {
  name: "encoder/conv2d_0_m/mul_6/x"
  op: "Const"
  attr {
    key: "dtype"
    value {
      type: DT_FLOAT
    }
  }
  attr {
    key: "value"
    value {
      tensor {
        dtype: DT_FLOAT
        tensor_shape {
        }
        float_val: 1.0
      }
    }
  }
}
node {
  name: "encoder/conv2d_0_m/mul_4/y"
  op: "Const"
  attr {
    key: "dtype"
    value {
      type: DT_FLOAT
    }
  }
  attr {
    key: "value"
    value {
      tensor {
        dtype: DT_FLOAT
        tensor_shape {
        }
        float_val: 32768.0
      }
    }
  }
}
node {
  name: "encoder/conv2d_0_m/Pow_1/x"
  op: "Const"
  attr {
    key: "dtype"
    value {
      type: DT_INT32
    }
  }
  attr {
    key: "value"
    value {
      tensor {
        dtype: DT_INT32
        tensor_shape {
        }
        int_val: 2
      }
    }
  }
}
node {
  name: "encoder/conv2d_0_m/Pow_1/y"
  op: "Const"
  attr {
    key: "dtype"
    value {
      type: DT_INT32
    }
  }
  attr {
    key: "value"
    value {
      tensor {
        dtype: DT_INT32
        tensor_shape {
        }
        int_val: 6
      }
    }
  }
}
node {
  name: "encoder/conv2d_0_m/clip_by_value_1/Minimum/y"
  op: "Const"
  attr {
    key: "dtype"
    value {
      type: DT_FLOAT
    }
  }
  attr {
    key: "value"
    value {
      tensor {
        dtype: DT_FLOAT
        tensor_shape {
        }
        float_val: 32767.0
      }
    }
  }
}
node {
  name: "encoder/conv2d_0_m/clip_by_value_1/y"
  op: "Const"
  attr {
    key: "dtype"
    value {
      type: DT_FLOAT
    }
  }
  attr {
    key: "value"
    value {
      tensor {
        dtype: DT_FLOAT
        tensor_shape {
        }
        float_val: -32768.0
      }
    }
  }
}
node {
  name: "encoder/conv2d_0_m/truediv_3/y"
  op: "Const"
  attr {
    key: "dtype"
    value {
      type: DT_FLOAT
    }
  }
  attr {
    key: "value"
    value {
      tensor {
        dtype: DT_FLOAT
        tensor_shape {
        }
        float_val: 32768.0
      }
    }
  }
}
node {
  name: "encoder/accum1_qa/Pow_1/x"
  op: "Const"
  attr {
    key: "dtype"
    value {
      type: DT_INT32
    }
  }
  attr {
    key: "value"
    value {
      tensor {
        dtype: DT_INT32
        tensor_shape {
        }
        int_val: 2
      }
    }
  }
}
node {
  name: "encoder/accum1_qa/Pow_1/y"
  op: "Const"
  attr {
    key: "dtype"
    value {
      type: DT_INT32
    }
  }
  attr {
    key: "value"
    value {
      tensor {
        dtype: DT_INT32
        tensor_shape {
        }
        int_val: 6
      }
    }
  }
}
node {
  name: "encoder/accum1_qa/Const"
  op: "Const"
  attr {
    key: "dtype"
    value {
      type: DT_FLOAT
    }
  }
  attr {
    key: "value"
    value {
      tensor {
        dtype: DT_FLOAT
        tensor_shape {
        }
        float_val: 2.0
      }
    }
  }
}
node {
  name: "encoder/accum1_qa/Cast_2/x"
  op: "Const"
  attr {
    key: "dtype"
    value {
      type: DT_INT32
    }
  }
  attr {
    key: "value"
    value {
      tensor {
        dtype: DT_INT32
        tensor_shape {
        }
        int_val: 6
      }
    }
  }
}
node {
  name: "encoder/accum1_qa/sub/y"
  op: "Const"
  attr {
    key: "dtype"
    value {
      type: DT_FLOAT
    }
  }
  attr {
    key: "value"
    value {
      tensor {
        dtype: DT_FLOAT
        tensor_shape {
        }
        float_val: 16.0
      }
    }
  }
}
node {
  name: "encoder/accum1_qa/ones_like/Const"
  op: "Const"
  attr {
    key: "dtype"
    value {
      type: DT_FLOAT
    }
  }
  attr {
    key: "value"
    value {
      tensor {
        dtype: DT_FLOAT
        tensor_shape {
        }
        float_val: 1.0
      }
    }
  }
}
node {
  name: "encoder/accum1_qa/Pow/x"
  op: "Const"
  attr {
    key: "dtype"
    value {
      type: DT_INT32
    }
  }
  attr {
    key: "value"
    value {
      tensor {
        dtype: DT_INT32
        tensor_shape {
        }
        int_val: 2
      }
    }
  }
}
node {
  name: "encoder/accum1_qa/Pow/y"
  op: "Const"
  attr {
    key: "dtype"
    value {
      type: DT_INT32
    }
  }
  attr {
    key: "value"
    value {
      tensor {
        dtype: DT_INT32
        tensor_shape {
        }
        int_val: 16
      }
    }
  }
}
node {
  name: "encoder/accum1_qa/sub_3/x"
  op: "Const"
  attr {
    key: "dtype"
    value {
      type: DT_FLOAT
    }
  }
  attr {
    key: "value"
    value {
      tensor {
        dtype: DT_FLOAT
        tensor_shape {
        }
        float_val: 1.0
      }
    }
  }
}
node {
  name: "encoder/accum1_qa/truediv_2/x"
  op: "Const"
  attr {
    key: "dtype"
    value {
      type: DT_FLOAT
    }
  }
  attr {
    key: "value"
    value {
      tensor {
        dtype: DT_FLOAT
        tensor_shape {
        }
        float_val: 1.0
      }
    }
  }
}
node {
  name: "encoder/accum1_qa/clip_by_value/y"
  op: "Const"
  attr {
    key: "dtype"
    value {
      type: DT_FLOAT
    }
  }
  attr {
    key: "value"
    value {
      tensor {
        dtype: DT_FLOAT
        tensor_shape {
        }
      }
    }
  }
}
node {
  name: "encoder/flatten/Const"
  op: "Const"
  attr {
    key: "dtype"
    value {
      type: DT_INT32
    }
  }
  attr {
    key: "value"
    value {
      tensor {
        dtype: DT_INT32
        tensor_shape {
          dim {
            size: 2
          }
        }
        tensor_content: "\377\377\377\377\000\002\000\000"
      }
    }
  }
}
node {
  name: "encoder/encoded_vector/ReadVariableOp/resource"
  op: "Const"
  attr {
    key: "dtype"
    value {
      type: DT_FLOAT
    }
  }
  attr {
    key: "value"
    value {
      tensor {
        dtype: DT_FLOAT
        tensor_shape {
          dim {
            size: 512
          }
          dim {
            size: 16
          }
        }
        tensor_content: "\000\000\201>\000\000Z\276\000\000\214\275\000\000\354=\000\000\351\276\000\000\237\276\000\0000=\000\000\204\275\000\000\\>\000\000)?\000\200D?\000\000\237>\000\000\016\276\000\000 \275\000\000\250\276\000\000$>\000\000`\275\000\000B\276\000\000.>\000\000\237>\000\000\212>\000\000\310\275\000\000\231>\000\000\250>\000\000\220\274\000\000\301>\000\000 >\000\000\270>\000\000\240<\000\000\030\275\000\000`\275\000\000\377>\000\000N\276\000\000\307>\000\300\210?\000\200[\277\000\000\202>\000\000\251>\000\000U\277\000\000|>\000\000\203\276\000\200w\277\000\000\206>\000\000\016>\000\000\354\276\000\000\325\276\000\200\007?\000\000\267\276\000\000\220>\000\000\025?\000\240~@\000\200\240?\000\000\027?\000@\253?\000\000\263\276\000@\"@\000\2407@\000\000(\277\000\000\032>\000\000(>\000\000\323\277\000\200:?\000@\332?\000@\213\277\000\200\026\277\000\000\247\276\000\0005\277\000\000P\275\000\000h\275\000\000H>\000\000\230=\000\000\214=\000\000$\276\000\000\342>\000\000\000\277\000\000X=\000\000\310\275\000\000\004\276\000\000\022\276\000\000\023?\000\000\234=\000\000\020\276\000\000d\276\000\000\260<\000\000v\276\000\000\370=\000\000\343\276\000\000\330\275\000\000\230>\000\000\210=\000\000\222\276\000\200\005\277\000\000\272>\000\000 >\000\000\000\276\000\000@\276\000\000\356\276\000\000\260<\000\000N\276\000\000\002>\000\000\360\275\000\000\301>\000\000\"\277\000\0008>\000\000\233\276\000\000\222>\000\000&\276\000\000v\276\000\000\000<\000\000 \276\000\000\270\276\000\000\310>\000\000\257>\000\000\340=\000\000v>\000\000\n>\000\000\210=\000\000\000;\000\000\320>\000\000\\?\000\000\252>\000\000\232>\000\000\020\276\000\000\010=\000\000\253>\000\000F>\000\200\026?\000\000\264=\000\000\004\276\000\000\265\276\000\000\230=\000\200\013?\000\000\334\275\000\000\246\276\000\000\016?\000\000 =\000\000@>\000\0007?\000\000@?\000\000\002?\000\000\270\276\000\000\210=\000\000F\276\000\000P>\000\000\033?\000\000@\274\000\000.\277\000\000\363>\000\000\227\276\000\000`<\000\000,\276\000\000\360<\000\000\300=\000\000\330>\000\000\300<\000\000\214=\000\000j\276\000\000\244\275\000\000\245\276\000\000\202>\000\000\325>\000\000\274=\000\000\242\276\000\000\377>\000\0006\276\000\000\002\276\000\000\213>\000\000X=\000\000,>\000\000\231\276\000\000\004\276\000\000G?\000\200\"\277\000\000\324\275\000\000\335\276\000\000`=\000\000 \274\000\0008\275\000\000x\275\000\000^\276\000\000\300;\000\000`>\000\000\n\277\000\000\300=\000\000\000\000\000\000\340\276\000\200\n\277\000\000\233\276\000\200[?\000\000\234\275\000\000\273\276\000\000\244=\000\000\245\276\000\000\224=\000\200,\277\000\000\233>\000\000\240\275\000\000\245>\000\000\"\276\000\000\360=\000\000\004>\000\000`<\000\000\224\276\000\000\302\276\000\000\320>\000\000\242\276\000\000\032?\000\000\264\276\000\000\322\276\000\000\300\273\000\200\023?\000\000\240\274\000\000\234\275\000\000\020>\000\200E\277\000\000@=\000\000\304=\000\000\016\276\000\000h>\000\000|\276\000\000z>\000\000\264=\000\000\371\276\000\000P\276\000\000\200\275\000\000\310\275\000\000\241>\000\000\250\275\000\000 >\000\000\200<\000\000\020\275\000\000D>\000\000\010\276\000\000\002>\000\000\264=\000\000p=\000\000N\276\000\000\200=\000\000\214\275\000\000\225>\000\000\320=\000\000p\275\000\0008>\000\000\335>\000\000\240=\000\000\204=\000\000\254>\000\000\343>\000\000P>\000\000\335>\000\000\036>\000\000\204>\000\000\326>\000\000D\276\000\000\300\273\000\000\202>\000\000\034>\000\000\244=\000\000\234>\000\000\000\274\000\000\304\275\000\0008=\000\000\320=\000\200\024?\000\000V>\000\000\204>\000\000\016>\000\000\000\274\000\000\024>\000\000\002>\000\000\241>\000\000`<\000\000`\275\000\000\\>\000\000\222>\000\000p=\000\000\214=\000\000\204\275\000\000J>\000\000\356>\000\000\214=\000\0000\275\000\000:>\000\000\371>\000\000(=\000\000*\276\000\000n>\000\000(\275\000\000\214=\000\000\210=\000\200$?\000\000\322\276\000\000\253>\000\000\000\273\000\000\360=\000\000??\000\000p>\000\000\232\276\000\000\260>\000\000H>\000\000\\\276\000\000\233>\000\000\032>\000\000\022>\000\000\273\276\000\000\277>\000\000\300\273\000\000)\277\000\000D>\000\000\240<\000\000\020>\000\0000\275\000\000\203\276\000\000\276\276\000\000`\274\000\000*\276\000\000\020\275\000\0006>\000\200S?\000\0008\276\000\000\230\275\000\000\034\276\000\200\203?\000\000\267\276\000\000\252>\000\000\320\274\000\000\254=\000\000\202\276\000\000\240>\000\000\231\276\000\000\311\276\000\000>\276\000\000(=\000\000\030\276\000\000\377>\000\000?\277\000\000*?\000\0006>\000\000\350=\000\000\202>\000\000\263>\000\000J\277\000\300\342?\000\000\016\276\000\000\374\275\000\000\275\276\000\000|>\000\000,?\000\000\234>\000\000\321>\000\000\200;\000\000r>\000\000\204=\000\000\344=\000\000\201\276\000\000\000;\000\000\330\275\000\000\247>\000\000\216\276\000\000\220<\000\000\">\000\000\220\276\000\2006\277\000\000\247\276\000\000R>\000\000\024\276\000\200-?\000\000\221\276\000\000\\>\000\000\227>\000\000$\276\000\000\372>\000\000&\276\000\000\374=\000\000\004\276\000\000\371>\000\000\205>\000\000\000<\000\000\241>\000\000n\276\000\000\214>\000\000d>\000\000~\276\000\000\250\275\000\000(>\000\000\262>\000\000\223\276\000\000\261\276\000\000\235\276\000\000\200=\000\000*\277\000\000\000\275\000\000\200<\000\000\265\276\000\000\204>\000\000\317\276\000\200\r?\000\000\253>\000\000\322\276\000\000\214\275\000\000\344\275\000\000\226>\000\000R>\000\200\022\277\000\000\200=\000\000\006>\000\000\226\276\000\000\244=\000\000\024>\000\200c\277\000\000\200=\000\000@>\000\000P\276\000\000\240\275\000\000\304>\000\000\306\276\000\000\314\275\000\000\274\276\000\000\231>\000\000$\277\000\000\202>\000\000(=\000\0008=\000\000\334=\000\000@\274\000\000D\276\000\000\274\275\000\000\376>\000\000\240\276\000\000<\276\000\000\240=\000\000\225>\000\000`=\000\000*\276\000\000x\275\000\000\320\275\000\000@<\000\000P>\000\000\244\276\000\200\004?\000\000\257>\000\000$>\000\000 =\000\000\340\275\000\000\\>\000\000\240>\000\000\030\275\000\000X=\000\2001?\000\000 \274\000\000$\276\000\000P>\000\000\252\276\000\000\203>\000\000\010\275\000\000\260\274\000\000\320<\000\000\220\274\000\000\364\275\000\000(\275\000\000\350\275\000\000|\276\000\000\000<\000\0008>\000\000\330>\000\000`\274\000\000\320<\000\000t\276\000\000:>\000\000\205\276\000\000j?\000\000.\276\000\000\220=\000\000T>\000\000\206\276\000\000\274\276\000\000\300;\000\000\332>\000\200\007?\000\000\000\000\000\000\246\276\000\000@\275\000\000\260>\000\000R\276\000\000\230>\000\000\257>\000\000\300<\000\000\300>\000\000F>\000\000\320\274\000\000\266\276\000\000\270\275\000\000\010=\000\000\300;\000\000*?\000\000\030=\000\000\016?\000\200\026\277\000\000\220\274\000\000z\276\000\000\240\275\000\000\340\275\000\000\010>\000\000T\276\000\000\314>\000\000\250=\000\000\n\277\000\000\360\276\000\000P>\000\000B>\000\000\231>\000\000l\276\000\000\333\276\000\000\n>\000\0000>\000\000~>\000\000N>\000\000\300=\000\000\210>\000\000\312>\000\000\030>\000\000\010?\000\000\030=\000\000\036\276\000\000v>\000\000\000=\000\000b>\000\000\022\276\000\000\263>\000\0004>\000\000\300\273\000\000\300>\000\000h=\000\000x\275\000\000\002>\000\000\002>\000\000\264\275\000\000\000?\000\200\021?\000\200\005?\000\0006>\000\000\302\276\000\000\376\276\000\000\224>\000\000\257\276\000\000H\276\000\000\270>\000\200\t\277\000\000J>\000\000\320<\000\200\003?\000\000X\275\000\000\020=\000\000*>\000\000\220\275\000\000@\274\000\000\277\276\000\000\213\276\000@\233?\000\000\267\276\000\200\022\277\000\000l\276\000\000\314=\000\000\010=\000\000@\274\000\000n>\000\0008\276\000\000\210\275\000\000`=\000\200)?\000\000T\276\000\000+\277\000\000\360\274\000\000\220\274\000@\230?\000\200\034\277\000\000h>\000\000\006>\000\000\326\276\000\000\223\276\000\000H\275\000\000\320\274\000\000v>\000\000`\274\000\000\252\276\000\000\254=\000\000B>\000\000\030>\000\000\n>\000\000\226\276\000\000\360>\000\000L>\000\000D>\000\000L>\000\000\340\275\000\000\214\276\000\000\000\275\000\000\240\274\000\000\020\275\000\000\200;\000\000\000;\000\000D\276\000\000\000=\000\000\260<\000\000\254\276\000\000\020>\000\0004>\000\000\364\275\000\000\240<\000\000`<\000\000.>\000\000\340\274\000\000\200\273\000\000\254\276\000\200\020?\000\000\320\275\000\000P\275\000\000F>\000\200>?\000\000\034>\000\000\201>\000\000\000\274\000\000\340>\000\000\010\276\000\000\260\274\000\000l>\000\000\310>\000\000\244\275\000\000\240\274\000\000x=\000\000l>\000\200\005?\000\000&>\000\000\200;\000\000j>\000\000\304>\000\000P\275\000\000\220\275\000\000\340=\000\000^>\000\0000>\000\000p=\000\000\315\276\000\000\364=\000\000\244=\000\000n>\000\000\314\276\000\000\214=\000\000\002\276\000\0002\276\000\000\344\275\000\000h\275\000\000\321>\000\000\201\276\000\000`\274\000\000p=\000\000\330=\000\000\032>\000\000L>\000\000\344=\000\000\254>\000\000\340\274\000\000\240<\000\000\300<\000\000\360<\000\000\360\275\000\000F\276\000\000\250\275\000\000@\276\000\000 >\000\000\032>\000\000\204\276\000\000\300\274\000\000\036\276\000\000\274\275\000\000\226>\000\000\214\275\000\0008\275\000\000\006>\000\000\204\275\000\000\022>\000\000\342>\000\000~\276\000\000\274\276\000\000\002>\000\000P>\000\000\200;\000\000 \274\000\000\350\275\000\000\307>\000\000\364=\000\000h=\000\000\223\276\000\000\264\275\000\000(\275\000\000\234\275\000\000\270=\000\000\224\275\000\000\347>\000\000H=\000\000\300\276\000\000\026>\000\000@<\000\000\227\276\000\000@>\000\000\227>\000\000|\276\000\000\231\276\000\000\205\276\000\000@\275\000\000\224=\000\000\222>\000\000V\276\000\000^\276\000\000\334=\000\000p=\000\000\022>\000\000@=\000\000\200<\000\000\214>\000\000\200;\000\000@>\000\000z>\000\000\200\276\000\000$>\000\000\n\276\000\000H=\000\000`\274\000\000P\275\000\200\003\277\000\200\006?\000\000\310>\000\000\366\276\000\000(\275\000\000(>\000\000\241\276\000\000\030=\000\0008\275\000\000\240\274\000\000\000>\000\000\n\276\000\000\320<\000\000\000;\000\000\000=\000\000\360<\000\000@>\000\000J>\000\000\002>\000\000\222>\000\000.\276\000\000(>\000\000\340=\000\000x\275\000\000\024>\000\000p=\000\000\250\275\000\000\360\275\000\000\240\274\000\000H\275\000\000$>\000\000\014>\000\000R>\000\000\360\274\000\000\016\276\000\000\026>\000\000V>\000\000H=\000\000H=\000\000H=\000\000\200>\000\000\304\275\000\000\276\276\000\000\320=\000\0000>\000\000\313\276\000\000\253>\000\000\360=\000\000\000\275\000\000*\276\000\000r\276\000\000\226>\000\000\000;\000\000\003?\000\000l\276\000\000h=\000\000\020\275\000\000\334\275\000\000\226\276\000\000\\\276\000\000\260\274\000\000\327>\000\000\202>\000\000\232>\000\0008=\000\0008>\000\000\214\275\000\000\210>\000\000\240<\000\000X>\000\000x>\000\000\224=\000\000p=\000\000\026>\000\000\306>\000\000\200>\000\000N>\000\000v>\000\000%?\000\000(>\000\000\250\275\000\000\020\275\000\000`=\000\000\264=\000\000\334=\000\000@<\000\000\030>\000\000<\276\000\000\230\275\000\000\360=\000\000J\276\000\000\244=\000\000\250=\000\000\340<\000\000\260<\000\000\354\275\000\0000\275\000\000\364\275\000\000\254=\000\000\220=\000\000*\276\000\000\234>\000\000~>\000\000\260\275\000\000\000=\000\000\224=\000\000\300=\000\000\016\276\000\000 \274\000\000\000\000\000\000\240=\000\000\254=\000\0004>\000\000Z>\000\000\000;\000\000:\276\000\000\210=\000\000\016\276\000\000\360<\000\000\320\275\000\000\200=\000\000p\275\000\000\310>\000\000\314\275\000\000\000<\000\000\274=\000\000@\275\000\000`=\000\000\270=\000\000\204\275\000\000\300\275\000\000(\276\000\000\030=\000\000\253\276\000\000\304\275\000\000\212\276\000\000\374=\000\000@\275\000\000\000=\000\000<>\000\000f\276\000\000\365>\000\000h=\000\000\010\276\000\000\203\276\000\000\210=\000\000x\275\000\000\206\276\000\000\356>\000\000\020\276\000\000\230>\000\000\274\275\000\000|\276\000\000\300\275\000\000\300;\000\000x\275\000\000x\275\000\000:>\000\000\240\274\000\000\234=\000\000h=\000\000\022>\000\0000=\000\000\240\275\000\000\300<\000\000\235>\000\000\360\274\000\000\233>\000\000\200>\000\000\010\275\000\000\200\276\000\000\215>\000\000p\275\000\000\234\275\000\000`\275\000\000\310=\000\000v\276\000\000\000<\000\0006>\000\000j\276\000\000\210\275\000\000\004>\000\000\200\276\000\000B\276\000\000\203\276\000\000\000>\000\000\231>\000\000\360<\000\000\354=\000\000\204\276\000\000\360\274\000\000\334=\000\000\237>\000\000\252\276\000\000\232\276\000\000\234>\000\000\020\275\000\000\370=\000\000\270\275\000\000\014\276\000\000\237>\000\000(>\000\000`\274\000\0000=\000\000\010\275\000\000\300\273\000\000\000<\000\000\200\274\000\000\340\275\000\000\264>\000\000J>\000\000x=\000\000\320\275\000\0004\276\000\000@\276\000\000\200>\000\000\020\276\000\000H>\000\000\010=\000\000\224\275\000\000@\275\000\000 >\000\000\032>\000\000\217>\000\000J>\000\000L>\000\000\214\275\000\000\000>\000\000\240=\000\000\300\274\000\000\214=\000\000\264=\000\000\360\274\000\000\236>\000\000\200<\000\000\340\275\000\000\270\275\000\000\030\275\000\000\300;\000\000\304=\000\000\250=\000\000\000>\000\000\030\275\000\000\000\276\000\000\350=\000\000\217\276\000\000\224\275\000\000X\275\000\000V\276\000\0004>\000\000\203\276\000\000\030>\000\000\360=\000\000\240\275\000\000 <\000\000\300;\000\000\300\273\000\200o\277\000\000,\276\000\000\324\275\000\000J>\000\000\253\276\000\000\264>\000\000\207\276\000\000\254=\000\000J>\000\000\215\276\000\000\351>\000\000\200\275\000\000\230>\000\000\333>\000\000>\276\000\000\244=\000\000\334=\000\200\024?\000\000\032\276\000\000\010=\000\000\320\274\000\000\003?\000\000d\276\000\000\224\275\000\000\314=\000\000\034\276\000\000\264=\000\000\004>\000\0006\276\000\000H>\000\000$\276\000\000\300<\000\000\032\276\000\000B>\000\000\212\276\000\000\204\275\000\000&\277\000\000\303>\000\000\372>\000\000\370\275\000\000\320\275\000\200i\277\000\000F\276\000\000z>\000\000:\276\000\000\330=\000\000\260\274\000\000\321\276\000\000\033\277\000\000\000\274\000\000\320\274\000\000\220\276\000\000L>\000\000\210=\000\000j>\000\000@<\000\000\300\274\000\000\020=\000\000<\276\000\000\200\275\000\000\006>\000\000~\276\000\000\341>\000\000\233>\000\000<\276\000\000,\276\000\000\320=\000\000\000\274\000\0000\275\000\000\233\276\000\000\020\276\000\000\322\276\000\000,\276\000\000\314\275\000\000\312\276\000\000\240<\000\000n>\000\000\026>\000\000\220\276\000\2001?\000\000\274\275\000\000\264\275\000\200Z?\000\000\233\276\000\0006\276\000\200\\?\000\000\204\276\000\000J>\000\000\001\277\000\200T\277\000\000\251>\000\000\224>\000\000\203\276\000\0008\275\000\200\003\277\000\000@\276\000\000\251\276\000\0002\276\000\000\264\275\000\000\304\275\000\200M?\000\200\032?\000\000\300>\000\000-\277\000\000\274>\000\000h\276\000\200m\277\000\000P=\000\000^>\000\000h\275\000\000\340>\000\000\222>\000\000\304\276\000\000\324\275\000\000\340\274\000\000H\275\000\0006>\000\000\224>\000\000x\275\000\000\327\276\000\000\214\275\000\000\224=\000\000\327>\000\000\350\275\000\000\256>\000\000\260<\000\000 <\000\000\002?\000\000`\274\000\000\300=\000\000\217>\000\000\032\276\000\000\020=\000\000(>\000\000\267>\000\200#\277\000\000\264\276\000\000\246\276\000\000\\\276\000\000\200\273\000\000\370\275\000\000\220=\000\000 =\000\000\250>\000\000\220\276\000\000\200<\000\000\377>\000\000\032\276\000\000\254\275\000\200\025?\000\0000\276\000\2003?\000\000\\>\000\000\277>\000\000\270=\000\000L>\000\000\343\276\000\000\206\276\000\200\"?\000\000\304=\000\000X>\000\000\034\276\000\000\334>\000\000P\275\000\000\220=\000\000-?\000\000\237>\000\000F>\000\000\216\276\000\000x\275\000\000\024>\000\000\214\275\000\000\207>\000\000\300\274\000\000~>\000\000\000>\000\000@\275\000\000`=\000\200o\277\000\000\024>\000\000,\276\000\000^\276\000\000\">\000\200*\277\000\000B>\000\000@=\000\000\212>\000\000\224\275\000\000\000\275\000\000\250\275\000\000\340=\000\000\206\276\000\000\004\277\000\000:\276\000\000\010\275\000\000\261>\000\200)?\000\000B>\000\000\210=\000\000\246>\000\000\016>\000\000\314>\000\000\024\276\000\000(>\000\000\265\276\000\000\244=\000\000\260\276\000\200D\277\000\000`\275\000\000\000<\000\000`<\000\0000=\000\000V>\000\000j>\000\000~\276\000\000\265\276\000\000\220>\000\000X\275\000\000f\276\000\0008>\000\200\023\277\000\000\220<\000\000\250\275\000\000\301\276\000\000.>\000\000\200;\000\2000?\000\000\n\276\000\000\036>\000\000\265>\000\000x>\000\0008\275\000\000\r?\000\200\033\277\000\000\337>\000\000\340\274\000\000\\>\000\000\024>\000\000\265>\000\000\213>\000\000\030=\000\000\327>\000\000@\276\000\000\030\276\000\000F\276\000\000\202>\000\000H\276\000\000%\277\000\0004\277\000\000\216>\000\000\304>\000\000D\276\000\000X\275\000\000\234=\000\000p\275\000\000R?\000\200\030?\000\000\026>\000\000\317>\000\000 \274\000\000\234\276\000\000\327>\000\000\362>\000\000\340\275\000\000\202>\000\000\274>\000\000\351\276\000\000\270\275\000\000\020=\000\000\350\275\000\000>>\000\000`<\000\000\320<\000\000\200\275\000\000\320=\000\000\010=\000\000\324=\000\000\360=\000\000 \275\000\000h=\000\000\354=\000\000*\276\000\000\214=\000\000 =\000\000\022>\000\000\330=\000\000\320=\000\000\334\275\000\000\000\273\000\000\000=\000\000\210\275\000\000\300=\000\000\310=\000\000<>\000\000l\276\000\000,>\000\000\273\276\000\000\250=\000\000h>\000\000`<\000\000\230\275\000\000D\276\000\000\346>\000\000\276>\000\000L\276\000\000\321\276\000\000,>\000\000\020=\000\000x>\000\000\252>\000\000\000\276\000\000\346>\000\000\200\275\000\000\020\277\000\000\244\275\000\000 >\000\200\023\277\000\000\274\275\000\000\202>\000\000\032\276\000\000\274=\000\000B\276\000\000\204>\000\000\024\276\000\000\213\276\000\000J>\000\000\207\276\000\000\246>\000\000 >\000\200\007?\000\000|\276\000\000\\>\000\000\n>\000\000&\276\000\200\017?\000\000x>\000\200\000?\000\000\014>\000\000\216>\000\000h=\000\000\334=\000\000\003?\000\000x\275\000\000\000\000\000\000v>\000\000\036\276\000\000\203\276\000\000\320\274\000\000\223>\000\000\000\274\000\000\340<\000\000\020>\000\000\220\275\000\000\320=\000\000h>\000\000n\276\000\000\000\000\000\000@\274\000\000\236\276\000\000\220\276\000\000*>\000\0000=\000\000\216>\000\000f\276\000\000\340>\000\000\000<\000\000\324=\000\000\346>\000\2001?\000\000|>\000\000\300=\000\000\010\275\000\0006\276\000\000\300\274\000\000\224>\000\000\301>\000\000X\276\000\000\264>\000\000\315>\000\000\036>\000\000\274\276\000\000\004>\000\000\253\276\000\000\211\276\000\000\\\276\000\000\250\275\000\000X>\000\000\260\275\000\000\000\000\000\000\026>\000\000\020>\000\000*\276\000\000\234>\000\000t\276\000\000p>\000\000\200\274\000\000\217\276\000\000@<\000\0008=\000\000\014\277\000\000`\275\000\000\000>\000\000\211>\000\000\300\274\000\000\272>\000\000\250=\000\000\260<\000\000\234=\000\000\304\276\000\000\350=\000\000\277>\000\000\224=\000\000\324=\000\000 =\000\000\274=\000\200\021?\000\000\316\276\000\000\\\276\000\000\207>\000\000\000;\000\000\374\275\000\000\215>\000\000\204\275\000\000\220\276\000\000\240\276\000\000@>\000\000`<\000\000\300;\000\000\330=\000\000 \274\000\000\334\275\000\000\277>\000\0004\276\000\000\200;\000\200+?\000\000\206\276\000\000\300<\000\000\241>\000\000\225\276\000\000\314=\000\000\004?\000\000\016>\000\000\254>\000\000\230\275\000\000\224>\000\000\002>\000\000J\276\000\000&\276\000\000\316>\000\000\273>\000\000\374\275\000\000H\275\000\000$\276\000\000j>\000\000\000;\000\000\211\276\000\000\327>\000\200\177?\000\200b\277\000\000\300<\000\000\364=\000\000\300\273\000\000P\276\000\0000\276\000\000\360\274\000\000,\276\000\000\360\274\000\000\217>\000\000\260>\000\000H?\000\000\337>\000\000\">\000\000\030=\000\000\236>\000\000\360=\000\000\240\275\000\000\322>\000\000\230=\000\000\360=\000\000\300\275\000\000p>\000\000\240<\000\000\264\275\000\000P>\000\000h\275\000\000\212>\000\000\344\275\000\000\035\277\000\200\006\277\000\000\221\276\000\000\200\273\000\000\224\275\000\000\321\276\000\000n\276\000\000\243>\000\000\270=\000\200\032\277\000\000z\276\000\000\350\276\000\000\264>\000\200Q?\000\000\270\276\000\000h\276\000\000\376>\000\000\226>\000\000\373>\000\000\000<\000\000\314=\000\000\274=\000\000\264\275\000\000\000\000\000\000\273\276\000\000\214=\000\000\030\275\000\000\240\276\000\000\200<\000\000\014>\000\000\366\276\000\000\224\275\000\000\220\275\000\200\016?\000\000\357>\000\000\240=\000\000>\276\000\000\013?\000\000\200\274\000\000\312>\000\0000>\000\000\233>\000\000\250=\000\000\034?\000\000\000\275\000\000\253>\000\0008\275\000\000\200\275\000\000\">\000\000p\275\000\000x>\000\000\217>\000\000\200;\000\000n\276\000\000H\275\000\000\204=\000\000d\276\000\000r>\000\0008\276\000\000~\276\000\000H>\000\000\244=\000\000\314\276\000\000@\275\000\000\020>\000\000\340\274\000\000\370=\000\000\301>\000\000\000\276\000\000\n>\000\000\214\276\000\000\212>\000\000\000?\000\000\246>\000\000@=\000\000N\276\000\000(>\000\000V\276\000\000\221>\000\000x\275\000\000\252>\000\2002\277\000\200\"\277\000\000\237\276\000\000\216>\000\200O\277\000\000\030=\000\000\000\274\000\000\336\276\000\000\326\276\000\000\007\277\000\0000\275\000\000\243>\000\000 \275\000\000(\276\000\000H=\000\000\245>\000\000\344>\000\000\216\276\000\000,\277\000\0004\276\000\000\000?\000\000\210\275\000\000f>\000\000\223>\000\000\032?\000\000\250>\000\000\253\276\000\000\206\276\000\200\032\277\000\000\014\276\000\000\220\274\000\200M\277\000\000\336>\000\000\323\276\000\000\205\276\000\000\000\276\000\200>?\000\000(\276\000\000\013?\000\200J?\000\000\224>\000\000z>\000\000.\276\000\000\225\276\000\000\330=\000\000R\276\000\000\270\276\000\2004?\000\000\320>\000\000\t\277\000\200f\277\000\000n>\000\000d>\000\000\024\276\000\000N>\000\000\310\276\000\000\332\276\000\000v\276\000\000\216\276\000\000\344\275\000\000t>\000\000\016\277\000\000$\276\000\000\200=\000\0000=\000\000H=\000\000j>\000\000\320=\000\000\200=\000\000\340\274\000\000\214\275\000\000*\276\000\000\005\277\000\000z\276\000\000 \275\000\000\220<\000\000\264>\000\000(\275\000\000`=\000\200r?\000\000\016\276\000\000\327\276\000\000*>\000\000\360\274\000\000\250>\000\000\320<\000\0002>\000\000l>\000\000j>\000\000(>\000\000\036\277\000\000\024\276\000\000\016\277\000\000\002\277\000\000\320\275\000\000\206>\000\000\254=\000\000\330>\000\000\355>\000\000\274\275\000\000\233>\000\000\340=\000\000\374=\000\000\201>\000\000\201>\000\000\204=\000\000\200=\000\000\036>\000\000`=\000\000\007?\000\000`\275\000\000\033?\000\000\254\276\000\000B\276\000\000\016\276\000\000\341>\000\000n\277\000\000\000=\000\000&\276\000\200 \277\000\000\035\277\000\000\303\276\000\000\000?\000\000X\275\000\000P\275\000\000\270\275\000\000\352\276\000\000\354\275\000\000$?\000\000J\276\000\000\232\276\000\000\232>\000\0008=\000\000\364\275\000\000\010>\000\000\005\277\000\000\\\277\000\000\337\276\000\200\000?\000\000x\275\000@\211?\000\000\014\276\000\000P=\000\000G\277\000\000`>\000\000\267\276\000\000\004>\000\000d\276\000\000@\274\000\000\004\276\000\000\305>\000\000\340=\000\000J>\000\000\200=\000\000\220\276\000\000\\>\000\000\204>\000\000t\276\000\000@<\000\000.\276\000\000\201\277\000\200)?\000\000H?\000\000F\276\000\000^>\000\000\030=\000\000 \274\000\000M?\000\000>>\000\000\220\274\000\200o\277\000\000\274>\000\000\260\275\000\000\324\275\000\000\030>\000\000`>\000\200\035?\000\000\260<\000\000\204\276\000\000\340=\000\000\224\275\000\000\220<\000\000\344=\000\000\256\276\000\000@<\000\000\200=\000\000>>\000\000@\275\000\000\200>\000\000\200\273\000\000\260\274\000\200 ?\000\000\353\276\000\000\036?\000\000\200<\000\000\240<\000\000@>\000\000\004>\000\000\242\276\000\000\335>\000\0008>\000\000\300\275\000\000\010\275\000\0000=\000\2008\277\000\000\267>\000\000\002>\000\000&?\000\000\035?\000\000C?\000\000Z?\000\000|\276\000\000\204?\000\000@=\000\000\224>\000\300\226?\000\000\340\274\000\000\340<\000\000\244=\000\000\307>\000\000\344\276\000\000\n?\000\000\030\276\000\000\304=\000\000\002\276\000\000\220<\000\000<>\000\000T>\000\000\000\275\000\000\000;\000\000\321>\000\000 \275\000\0008\276\000\000\374=\000\000\274>\000\000\006\276\000\000\005?\000\000\010=\000\000L\276\000\0000?\000\000|>\000\000`<\000\000D\276\000\000\016>\000\000\020\275\000\000h=\000\000Z>\000\000\204=\000\000T>\000\000\360<\000\000\215>\000\000\245\276\000\000t\276\000\200\022?\000\0000\276\000\200&?\000\000\245>\000\0002?\000\000(>\000\000@<\000\000\302>\000\000\320\274\000\000`=\000\000`=\000\000\262>\000\000H\276\000\000\360<\000\000\304=\000\000\321\276\000\000\317>\000\000\240=\000\200\014?\000\000\332>\000\000\245>\000\000\300\274\000\000\224>\000\000P\275\000\000@=\000\000\334>\000\000\205\276\000\200\025?\000\000\250>\000\000\251>\000\000`\275\000\000\200<\000\000\032?\000\000\200=\000\000\316>\000\000\014?\000\000\230\276\000\000\004\277\000\000\324=\000\000\004>\000\000\204\275\000\000\250=\000\000\277\276\000\000\223\276\000\000`=\000\000\234\275\000\000n\276\000\000`\274\000\000\364\275\000\000\211>\000\000\254\276\000\000\223\276\000\000\004\277\000\000#?\000\000\014\276\000\000\224\275\000\000`\274\000\000~>\000\000\274>\000\000\360\275\000\0008>\000\000\300\276\000\000x\275\000\000P\275\000\000n\276\000\000\310\275\000\000\250\275\000\000,\276\000\000\300\276\000\000\352\276\000\000\304\275\000\000\350\276\000\000\000\275\000\000b>\000\000\354\275\000@\210?\000\000>>\000\000\244\275\000\000&>\000\000\321\276\000\000\030\275\000\000\340>\000\2009?\000\000\351>\000\000\010>\000\000\274>\000\000@\274\000\000\\>\000\000\370=\000\000\340=\000\000\306\276\000\000\300=\000\000\366>\000\000$\277\000\000`\275\000\000\220\275\000\000\340\274\000\000\246>\000\000\324=\000\000\262>\000\000\034\276\000\000\216>\000\000,\276\000\000\244=\000\000\334=\000\000`=\000\000\010\275\000\000\022?\000\000\030?\000\000l\276\000\000\260\275\000\000x\276\000\000h=\000\000\020=\000\000/?\000\000\227\276\000\200\214?\000\000\006\277\000\000\004\276\000\200H?\000\000\304=\000\000\020\277\000\200\005?\000\000\312\276\000\000\034\276\000\000P\276\000\000\334=\000\000\253\276\000\000\007?\000\000,>\000\000(\276\000\200\002?\000\000\212>\000\000\221>\000\000&\276\000\000*>\000\0000\275\000\000.>\000\000\324\275\000\000\246>\000\000\246>\000\0006>\000\0006\276\000\000d>\000\000 \274\000\0008=\000\000\024>\000\000\370=\000\000\341\276\000\000\312\276\000\000<>\000\000\274\276\000\000\210=\000\000 \275\000\000\026\276\000\000\300\275\000\000\000\276\000\200\n?\000\000\022\276\000\000\356\276\000\000\203>\000\000\244>\000\000\361>\000\000(=\000\000\216>\000\200\037?\000\000X=\000\000\004\276\000\000\200\275\000\200\030?\000\000R>\000\000(\275\000\000\247>\000\200#\277\000\000@\275\000\000:>\000\000\204>\000\000\330\275\000\000\370>\000\000\356>\000\000\324\275\000\000\201>\000\000 =\000\000f>\000\000P>\000\000\016\276\000\000\256\276\000\000\360=\000\000^>\000\000\260\275\000\000\214=\000\000(=\000\000\320=\000\000\337\276\000\000H\277\000\000\267>\000\000\353>\000\000t>\000\000<\276\000\000\327>\000\000\300;\000\000\277\276\000\000\016>\000\000b>\000\000\340\274\000\0007?\000\000\204=\000\000\224>\000\000\207>\000\000\200\275\000\000\014?\000\000$>\000\000\271>\000\000\376\276\000\000\344=\000\0004>\000\000\014>\000\000\245>\000\000\000\276\000\000\220>\000\000`\274\000\000\235\276\000\000\030>\000\000R\276\000\000\304>\000\0002>\000\000p\277\000\000\005?\000\000|>\000\000\203\276\000\000\016\276\000\000\231>\000\000 \276\000\000\334=\000\000\014\276\000\000\216>\000\000\246>\000\000\223>\000\000Z\276\000\200\027?\000\000\245>\000\000\364=\000\000\255\276\000\000\274\276\000\000\260\274\000\000\234=\000\000\215>\000\000\275>\000\000\000<\000\000\254>\000\000b\276\000\000D\276\000\200\t?\000\000\244>\000\000$\276\000\000\r?\000\000\330\275\000\000\206>\000\000p>\000\000\244\275\000\000h\275\000\000\330=\000\000\320\274\000\000\314>\000\000\260\274\000\000\200;\000\000:\276\000\0009\277\000\000\340\275\000\000\240\276\000\000\306>\000\000\311>\000\000x\275\000\000l\276\000\000\210\275\000\000\323\276\000\000\013?\000\000\370\275\000\000\203>\000\000T\276\000\000\274=\000\000\000\273\000\000\354>\000\000\010\277\000\000v\276\000\000\364=\000\000\210\276\000\000\306\276\000\000\214=\000\000\303\276\000\000\240\275\000\000\350=\000\000\300>\000\0000\276\000\000(>\000\000\326\276\000\000H=\000\000\220\274\000\200\031?\000\200\032?\000\000n\276\000\000\216>\000\000\230\276\000\000\233\276\000\000\036\276\000\000\032\276\000\0006\276\000\000\274\276\000\000A?\000\000<\276\000\000\340\275\000\000>>\000\000\214=\000\000\034>\000\000\204>\000\000\212>\000\000\352>\000\000\362\276\000\000:\276\000\200\004\277\000\000\320=\000\000l>\000\000*\276\000\000\355>\000\000\010\275\000\000\030>\000\0000\275\000\000\214\275\000\000\200<\000\000\360\274\000\000X\275\000\000\213>\000\000\340=\000\000\313>\000\000\250\275\000\000H\276\000\000\374=\000\000f\276\000\000P\275\000\000\344=\000\000*>\000\000\254=\000\0000\275\000\000\254\275\000\000\374=\000\000p\275\000\000\030\275\000\000\310=\000\000\362>\000\200\021\277\000\000\230=\000\200%\277\000\000t>\000\000`>\000\000\274=\000\000T>\000\000\300<\000\000\300<\000\000\200<\000\000\364=\000\000\351>\000\000\344=\000\000\240=\000\000n>\000\000\266>\000\000\016>\000\000\260=\000\000\032>\000\000\022>\000\000\010>\000\0002>\000\000\340=\000\000n>\000\000\204=\000\000\274\275\000\000\372>\000\000h\275\000\000\010\275\000\000\220\275\000\000\310>\000\000\251>\000\000t\276\000\0008\276\000\000\201>\000\000\314\275\000\000\210=\000\000h=\000\000\314\275\000\000^\276\000\000\006\276\000\000\370=\000\000R\276\000\000\200\275\000\000\010=\000\0008=\000\000\016>\000\000\320<\000\000\234\275\000\000F\276\000\200\013?\000\000>\276\000\000\234\276\000\000\232>\000\000z\276\000\000j\276\000\000\002\276\000\000p>\000\000\261\276\000\000\300=\000\000\221\276\000\000\200\273\000\000\366>\000\000\244=\000\000\036>\000\000V\276\000\000\372>\000\000\254=\000\000\314\275\000\000\244\275\000\000&>\000\000\300\276\000\0002>\000\000\320=\000\000\360\275\000\0008=\000\000\203\276\000\000\204>\000\000\334\275\000\000h=\000\000X=\000\000p=\000\000\264=\000\000\266>\000\000\010>\000\000\240<\000\000\354>\000\000\000;\000\000\252>\000\000\360<\000\000b\276\000\000\020>\000\000\000=\000\000\241\276\000\000\244\275\000\000\304=\000\000\274>\000\000`=\000\000.\276\000\000\204\275\000\000\314\275\000\000h\276\000\000x>\000\000\324\275\000\000\036>\000\000\000\274\000\000\270=\000\000\334=\000\000\310\275\000\000^>\000\000^\276\000\000 >\000\000P\275\000\0000=\000\000x\276\000\000\343>\000\000\020=\000\000P=\000\000\225>\000\000\314=\000\000 =\000\000\022>\000\000\244\275\000\000\006>\000\000\000\000\000\000\204\275\000\000\030\276\000\000(=\000\000D\276\000\000\010=\000\000\210=\000\000\340<\000\000\016>\000\000\320\274\000\000@\274\000\0000>\000\000\274=\000\000\010\275\000\000r>\000\0008>\000\000\010>\000\000\020>\000\000\246>\000\000\231>\000\000 \276\000\000\274=\000\000\004>\000\000\200=\000\000\240=\000\000\210\276\000\000z>\000\000\206>\000\000\000\275\000\000\224\275\000\000F\276\000\000\301>\000\0000>\000\000.>\000\000\331>\000\000\000;\000\000\214>\000\000\354\275\000\200E\277\000\000P>\000\000\030\275\000\000F\276\000\000\220\274\000\000\270\275\000\000 =\000\000X\275\000\000\301>\000\000\214>\000\000P>\000\000B>\000\000\260\276\000\000\020=\000\000\364=\000\000\257>\000\000\330\275\000\000\350=\000\000\320\274\000\000x\275\000\000l>\000\000P>\000\000\206>\000\000\006>\000\000\214=\000\000\200;\000\000\200;\000\000\200;\000\000+\277\000\000d\276\000\000\002\276\000\000\334=\000\000\250=\000\000\254\275\000\000\030>\000\000\026\276\000\000J\276\000\000\226>\000\0002\276\000\000\020>\000\000\260\276\000\000\370\275\000\000\314=\000\000v>\000\000\010\276\000\200\022\277\000\000X=\000\000\000;\000\000\215\276\000\000\024\276\000\000\314=\000\000\000\275\000\000>>\000\000\270=\000\000@\274\000\000\320\275\000\000j\276\000\000\240<\000\000\340<\000\000\320\274\000\000\300<\000\000\210>\000\000<>\000\000p\275\000\000$\276\000\000`\274\000\000\264=\000\000\210=\000\000\314=\000\000\002\276\000\000X=\000\000\370\275\000\000 \274\000\000\224\275\000\000\220\274\000\000\026>\000\000\330=\000\000\204\275\000\000\330=\000\000\210\275\000\000\320=\000\000\034\276\000\000L\276\000\000\004\276\000\000\030=\000\000X>\000\000\000;\000\000\234=\000\000^\276\000\000\006>\000\000\314=\000\000\342>\000\000\225>\000\000^>\000\000.>\000\000\010>\000\000\241\276\000\000\026>\000\000\\\276\000\000\300=\000\000\032\276\000\000\006\276\000\000x\275\000\000$>\000\000\350=\000\000\214=\000\000\314\275\000\000\004\276\000\000`\274\000\000R\276\000\000\265\276\000\000x=\000\000\304=\000\000\374=\000\000v>\000\000<>\000\000\300<\000\000\340\275\000\000 \274\000\000D>\000\000\r\277\000\000\036>\000\000V\276\000\000\000\276\000\000\364\275\000\000\242\276\000\000`<\000\0000=\000\000\204\276\000\000\211>\000\000p=\000\000p>\000\000\335\276\000\000\376>\000\000\n\276\000\000\310=\000\0008=\000\000\010>\000\000l\276\000\200\031?\000\000.>\000\000\267\276\000\000\206>\000\000\032>\000\000\200<\000\000\310>\000\0000=\000\000\304=\000\000\250\275\000\000\374=\000\000\202\276\000\000\000;\000\000,\276\000\000\030\275\000\000\234\275\000\000&>\000\000$>\000\000\032\276\000\000\035\277\000\000P=\000\000 >\000\000P=\000\000\230\276\000\000\314=\000\000\351>\000\000\350\275\000\000\240=\000\000\253>\000\000\226>\000\000p=\000\000 >\000\000\010>\000\000\230\275\000\000\202>\000\000\214=\000\000\376>\000\000\006\276\000\000(=\000\000\036\276\000\000\030\276\000\000\260<\000\000n>\000\000\220<\000\000\240<\000\000\340\274\000\000\210=\000\000 =\000\000`=\000\000\020\275\000\000\234=\000\000\224\275\000\000\334\275\000\000*\276\000\000\000\273\000\000\334=\000\000\200\275\000\000\201>\000\000D\276\000\000`=\000\000J\276\000\000p=\000\000\n\276\000\000\010=\000\000\300\273\000\000R>\000\000\314\275\000\000f>\000\000\264=\000\000.>\000\000\026\276\000\000\260>\000\000\255\276\000\000\036\276\000\000\010?\000\000\220\275\000\000\016\276\000\200\"?\000\000\374=\000\000\346>\000\200:?\000\000\345\276\000\000t\276\000\000F\276\000\000\202>\000\000(>\000\000\030\275\000\000\314\275\000\000h\275\000\000\014>\000\000\220\275\000\000\270\275\000\000H\276\000\000\230\276\000\000\234\275\000\000\000\274\000\000X>\000\000H=\000\000\211\276\000\000\364>\000\000\247>\000\000\314=\000\000p\275\000\000\000\274\000\000&\276\000\000$>\000\000\300\273\000\000\006>\000\000@>\000\000(\275\000\0000>\000\000\236>\000\000\026\276\000\000<\276\000\000\030=\000\000\221>\000\000`=\000\000\364=\000\000j\276\000\000\270\275\000\000\000\276\000\000\242>\000\000\022\276\000\000n>\000\000@<\000\000\260\275\000\000\304=\000\000(\275\000\000\220\274\000\000h=\000\000\354=\000\000\200>\000\000\350\275\000\000@\275\000\000\200=\000\000X=\000\000h=\000\000:\276\000\000\031?\000\000T\276\000\000^\276\000\000\216>\000\000\006\276\000\000`>\000\000L>\000\000H\275\000\000:\276\000\000\000;\000\000d>\000\000@\274\000\000\262\276\000\000\206>\000\000\300<\000\000\330\275\000\000\020=\000\000\300\274\000\000\215\276\000\000\263>\000\000\300\275\000\000h\275\000\000\240<\000\000\322>\000\000\247>\000\000\207>\000\000\300\275\000\000X\275\000\000\000\000\000\0004>\000\000\n>\000\000\017\277\000\000h\275\000\000(\275\000\000\340\274\000\000\216>\000\000\014\276\000\000\240<\000\000\322\276\000\000\215\276\000\000\200\276\000\000\\>\000\000 =\000\000\300>\000\000j\276\000\000\220\275\000\000\210=\000\000T\276\000\000\034>\000\000\034\276\000\000\020>\000\000\204\275\000\000\300<\000\000\200<\000\000X\276\000\000\204>\000\000\200\273\000\000X\275\000\000\200\275\000\000\000\276\000\000@<\000\000\245>\000\000\250=\000\000L\276\000\000\203>\000\000`<\000\000H\276\000\000Z>\000\000\264\275\000\000@=\000\000r\276\000\000\350=\000\000H\275\000\000\370>\000\0004>\000\000\211\276\000\000\374\275\000\000\022\276\000\000\234\275\000\000\305\276\000\000\340\274\000\000@<\000\000f>\000\000\320<\000\000\203>\000\000\032>\000\000H=\000\0008=\000\000\002\276\000\000R>\000\000`<\000\000L>\000\000\274=\000\000\024\276\000\000\200<\000\000\214\275\000\000\032\276\000\000\010\275\000\000\000=\000\000\\\276\000\000P=\000\000\274\275\000\000\370\275\000\000\344\275\000\000 \274\000\000,>\000\000\004>\000\0000=\000\000H>\000\000\344=\000\000\260=\000\000\224=\000\000 <\000\000 \275\000\000\260<\000\000\260\274\000\000\350\275\000\000`=\000\000\223\276\000\000\223\276\000\000\220\274\000\000@<\000\000\220\275\000\000x=\000\000.\276\000\000p\275\000\000\002\276\000\000*>\000\000\310\275\000\000X=\000\000\334\275\000\000\004>\000\000\310\275\000\000\000>\000\000\244=\000\0000\275\000\000`>\000\000\360<\000\000\360\274\000\000\250>\000\000>\276\000\000\330=\000\000.\276\000\000\300\274\000\000@<\000\000\274=\000\000\010>\000\000\240<\000\000\250\275\000\000\360\275\000\000\214>\000\000\220=\000\000\374=\000\000\210>\000\000\364\276\000\000\226\276\000\000\000;\000\000\022>\000\000H\275\000\000\260\275\000\000*\276\000\000N\276\000\000X=\000\000x\275\000\000.>\000\000\004>\000\000\215\276\000\000\260=\000\000\234\275\000\000\214=\000\000\350=\000\000\006>\000\000l>\000\000L\276\000\000X>\000\000\000=\000\000\263>\000\000\260<\000\000\240\275\000\000\223>\000\000`=\000\000z\276\000\000\020=\000\000\254>\000\000V>\000\0006>\000\000\334\275\000\000D\276\000\000\260=\000\000\032>\000\000\004\276\000\000\244=\000\000\324=\000\000\340\274\000\000 \274\000\000\000\000\000\000\320<\000\000\004>\000\000\300<\000\000\240\274\000\000\260\275\000\000,>\000\000\270=\000\000p=\000\000\340=\000\000\300;\000\0008=\000\000\360<\000\000\000\273\000\000\030\275\000\000\010\275\000\000\020\275\000\000@=\000\000\240=\000\000\030=\000\000\264=\000\000\310=\000\000\030\275\000\000\324=\000\000\214\275\000\000\260\274\000\000\245\276\000\000\032>\000\000B\276\000\000`<\000\000\247\276\000\000\200<\000\000\236>\000\000\\>\000\000\320<\000\000\360\274\000\000P\276\000\000\254\276\000\000\030=\000\000V>\000\000\310=\000\000x=\000\000F\276\000\000X>\000\000\205\276\000\000,\276\000\000B>\000\000\350=\000\000\220<\000\000\226>\000\000\250\275\000\000\004>\000\000\032>\000\0000\275\000\000\235>\000\000\201>\000\000\300<\000\000j>\000\000\270=\000\000\274\275\000\000\320<\000\000\000\000\000\000\300\273\000\000 =\000\000\000\000\000\000p=\000\000\360<\000\0008\275\000\000>\276\000\000\340\275\000\0004\276\000\000\304=\000\000\334=\000\000\310\275\000\000\264=\000\000\014>\000\000t\276\000\000\260\274\000\000\350\275\000\000\350\275\000\000\010>\000\000\000\276\000\0008\275\000\000X\275\000\000 \275\000\000\010\275\000\000\360\275\000\000\034>\000\000\244=\000\000`\275\000\000@=\000\000\260<\000\000\026\276\000\000\010=\000\000\264\275\000\000\220<\000\000\260\275\000\000 <\000\000x=\000\000\204\275\000\000@<\000\000`=\000\000`\275\000\000\260\274\000\000\260=\000\000\344\275\000\000\220\275\000\000X=\000\000@<\000\000x=\000\000\310=\000\000\000\275\000\000\210>\000\000\360\274\000\000\000\273\000\000\220=\000\000\314\275\000\000h=\000\000*>\000\000\004\276\000\000\234=\000\000\210\275\000\000\240\275\000\000>>\000\000\216\276\000\000@<\000\000\330\275\000\000\000\274\000\000\264=\000\000\304\275\000\000\000=\000\000H\275\000\200\036?\000\000\032>\000\000~\276\000\000\334\275\000\000\370=\000\000l\276\000\000Z>\000\000\334=\000\000@\275\000\000\370=\000\000\344=\000\000\314\275\000\000p=\000\000\360\274\000\000\000=\000\000\030>\000\000\300;\000\000 =\000\000T>\000\000x\275\000\000\324=\000\000\036\276\000\000\020\276\000\000\032>\000\000&\276\000\000\010>\000\000 \275\000\000`<\000\000\002\276\000\000\244=\000\000\014\276\000\000p\275\000\000\267>\000\000\310=\000\000|>\000\000\200\274\000\000\314\275\000\000\036>\000\000\320<\000\000\370\275\000\000Z>\000\000\320\274\000\000>\276\000\000\204\275\000\000\370\275\000\000x\275\000\000\324=\000\000\010=\000\000\204\275\000\000\354=\000\000\230\275\000\000p\275\000\000R>\000\000\030\275\000\000n>\000\000\300\274\000\000@\276\000\000X=\000\000l>\000\000\200<\000\000\340\275\000\000\340<\000\000\274\275\000\0000\275\000\000\200=\000\000`<\000\000J>\000\000\002\276\000\000\026\276\000\000\000=\000\000\204\275\000\000\360\275\000\000\330=\000\000\220\274\000\000\310=\000\000\260\274\000\000\022>\000\000\260\275\000\000\214=\000\000\304\275\000\000\370=\000\000\260=\000\000\230\275\000\000\314=\000\000\300;\000\000\030\275\000\000\330=\000\000\200=\000\000\270\275\000\000\234=\000\000x\275\000\000\330\275\000\000~>\000\000\260\274\000\000@=\000\000\240\275\000\000\220>\000\0002>\000\0006>\000\000p\275\000\000\314\275\000\000\360\274\000\000\220=\000\000\340\275\000\000\010=\000\0000\276\000\000@=\000\000\006>\000\000\360<\000\000\300\273\000\000p\275\000\000\234=\000\000\000\275\000\000\350=\000\000\004\277\000\000&\276\000\000\244=\000\000\360=\000\0004>\000\000\252>\000\000b\276\000\000v>\000\0006\276\000\000\324=\000\000D\276\000\000~>\000\000\n>\000\000\030\275\000\000\333\276\000\000\240\275\000\000\341\276\000\000\354=\000\000p\275\000\000\000;\000\000\240=\000\000\324=\000\000p\275\000\000\224\275\000\000\374=\000\000 <\000\000(\275\000\000\200<\000\000\220\275\000\000\022\276\000\000\010=\000\0000=\000\000\277\276\000\000\210\275\000\000x=\000\000 <\000\000|>\000\000\243>\000\000\350\276\000\000\">\000\000D>\000\000\230=\000\000\237\276\000\000\274=\000\000l\276\000\000\320\274\000\0000>\000\000(\275\000\200\036\277\000\000\310>\000\000\036>\000\000\006>\000\000\202\276\000\000d>\000\000\265>\000\000J\276\000\000(\275\000\000\340<\000\000\340\275\000\000\320\274\000\000\030>\000\000H\276\000\000\240\274\000\000`\275\000\000\000\275\000\000\360<\000\000h\276\000\0002\276\000\000\264>\000\000\235\276\000\000\266\276\000\000B\276\000\000\200\275\000\000\340\275\000\000\230\275\000\000 \275\000\000.>\000\000\016\276\000\000\260\276\000\000v\276\000\000\255\276\000\000\357>\000\000f>\000\000h=\000\000\360=\000\000\350\275\000\2006\277\000\000\224\276\000\000\000=\000\000\200\274\000\000\214=\000\000\200\273\000\000\360=\000\000\314>\000\000\020\275\000\000\364\275\000\000\020\276\000\000\260\274\000\000\326\276\000\000\234\275\000\000p>\000\000x=\000\0000>\000\000\330\276\000\000\n\276\000\000$>\000\200\020\277\000\000\340\274\000\000h>\000\000\352\276\000\000\361\276\000\000\211\276\000\200\004\277\000\000\207>\000\000\010?\000\000\314\276\000\000\357>\000\000^>\000\000H>\000\000\310>\000\000@=\000\000@=\000\000X\276\000\000\000;\000\000\374\275\000\000\210\276\000\000\230=\000\000\030>\000\000\020\275\000\000\205\276\000\000@\274\000\000F\276\000\000\220\275\000\000p\276\000\000H=\000\000\034\276\000\000\335\276\000\000\300\273\000\000\221\276\000\000\360\274\000\000\034>\000\000,\276\000\000\n\276\000\000\230\276\000\000\016\277\000\200\000?\000\000\204=\000\000@=\000\000\020=\000\000b>\000\000\000;\000\000<>\000\000X\275\000\000\000\274\000\000\310\275\000\000>\276\000\000\324>\000\000,\276\000\000`=\000\000@=\000\000\270\276\000\000\320<\000\000\260>\000\000\221>\000\000\300<\000\000\000>\000\000\002>\000\000 \275\000\000\210\275\000\000\200<\000\000\300;\000\0008=\000\000\000\273\000\000\240=\000\000\360=\000\000\004>\000\000\026>\000\000\320\275\000\000\364\275\000\0000=\000\000\217\276\000\000\233>\000\000\030\276\000\000\365\276\000\000\335\276\000\000\n>\000\200\016\277\000\000\210=\000\000H>\000\000\354=\000\0000=\000\000\253\276\000\0008\275\000\000|>\000\200\006\277\000\000\204\275\000\000\010\275\000\000:>\000\000\234\276\000\000\270=\000\000\310=\000\000\220=\000\000\032\276\000\000\344=\000\000,\276\000\000\310=\000\000\300\273\000\000\\\276\000\0000=\000\000\240=\000\000\201\276\000\000\022>\000\000\020\275\000\000\320>\000\000\242>\000\000 <\000\000\377\276\000\000\000\000\000\200\032?\000\000 \275\000\000\300\273\000\000\034>\000\000\331\276\000\000\220\275\000\000\307\276\000\000&\276\000\000X\275\000\000z\276\000\000\330\275\000\000\024\276\000\000\014\276\000\000\300\273\000\000T>\000\000\250\275\000\000\224\275\000\000\000>\000\000\254=\000\000\201>\000\000\210>\000\000\344=\000\000\210=\000\000@>\000\000\234=\000\000\340>\000\000\354=\000\000\353\276\000\000\371>\000\000$\276\000\000,\277\000\000`\275\000\000\233>\000\000\024\276\000\000\264>\000\000\300;\000\000\270=\000\000\034>\000\000&>\000\000D\276\000\000\255>\000\000\034>\000\000\267>\000\000`\275\000\000\364\275\000\000R>\000\000\364=\000\000\220<\000\000\200=\000\000\354=\000\000H=\000\000\300<\000\000\354=\000\0008>\000\000&\276\000\000*\276\000\000\204=\000\000\224>\000\000\010\276\000\000\334=\000\000\364\275\000\000\300=\000\000\220=\000\000\210=\000\000\360\274\000\000x=\000\000p=\000\000(=\000\000H=\000\000\022\276\000\000@<\000\000\020>\000\000\234\275\000\000\010=\000\000\262>\000\000*\276\000\000\260=\000\000\201>\000\000\030\275\000\000\032\276\000\000`\276\000\000\000\276\000\000\036>\000\000\004\276\000\000b>\000\000\214=\000\000\214\275\000\000\234=\000\000\350=\000\000\203>\000\000n\276\000\000\242>\000\000\273\276\000\000p>\000\000\212\276\000\000p=\000\0000\276\000\000\\\276\000\000\372>\000\000\230=\000\000&>\000\000\330\275\000\000\253\276\000\000\330=\000\000(\275\000\000T>\000\000\314=\000\000\316\276\000\000,?\000\000\300\276\000\000\351>\000\000\216\276\000\000\315>\000\000\214\275\000\000\014>\000\000X=\000\000\014>\000\000j>\000\000@\274\000\000\240<\000\000\244>\000\000\251\276\000\000\034>\000\000\274\276\000\000\264=\000\000\000\276\000\000@\274\000\000\354\275\000\000`\275\000\000\030\275\000\000p=\000\000\274=\000\000\000\275\000\000\000=\000\000\234\275\000\000\010=\000\000\000;\000\000\020\275\000\000\200\273\000\000\244\275\000\000\340\274\000\000\000\000\000\000 <\000\000\254\275\000\000\340\274\000\000\240\274\000\000@<\000\000 \275\000\000\220<\000\000\200;\000\000\237>\000\000\214=\000\000\000\000\000\000\000\000\000\000\350\275\000\000\220<\000\000\320\274\000\000\220\275\000\000 \276\000\000\224=\000\000 \274\000\000\020\275\000\000\234=\000\000\200<\000\000\222\276\000\000\231\276\000\000@<\000\000J>\000\000>>\000\000 \274\000\000\314\275\000\000\234\275\000\000\353\276\000\000\214\275\000\000\036\276\000\000\254=\000\000\304\275\000\000\"\276\000\000\016>\000\000\210>\000\000\314\275\000\000\202\276\000\000\\>\000\000\244=\000\000\004\276\000\0006>\000\000\220\275\000\000`>\000\000\004>\000\000P\275\000\000\340\274\000\000\374=\000\000\216>\000\000\000;\000\000\300<\000\000\300\275\000\200\010\277\000\000D\276\000\000\260\274\000\000\300=\000\000\231>\000\000\330=\000\000&>\000\200\022\277\000\000\327>\000\000\203\276\000\000\032\276\000\000\034\276\000\0002>\000\000\254\275\000\000\216>\000\000f>\000\000x\275\000\000h=\000\000F>\000\000\254\275\000\000\264>\000\000\244=\000\000f>\000\000\000\275\000\000\n\276\000\000`\274\000\000\200>\000\000\224=\000\000\230\275\000\000 <\000\000 <\000\000\240=\000\000\232\276\000\000X\275\000\000\220\274\000\000\200\274\000\0008=\000\000\000>\000\000\350=\000\000\200\275\000\000\000=\000\000\000\275\000\000\225\276\000\0000=\000\000 \275\000\000 \275\000\0000=\000\000\250=\000\000\213\276\000\000\000=\000\000\320=\000\000\030\275\000\000\364=\000\000\034>\000\000\203\276\000\0000>\000\000\004>\000\000\240<\000\000\364=\000\000\n>\000\000\010\276\000\000p\275\000\000@\274\000\000.\276\000\000(\275\000\000\360\274\000\000\300;\000\000\300\274\000\000\022\276\000\000\000<\000\000\030\275\000\000\200<\000\000\204\276\000\000\030\276\000\000\230=\000\000\000\000\000\000X\276\000\000\200<\000\000\030=\000\000^>\000\000\030\275\000\000\016\276\000\000\010>\000\000\000=\000\000\314\275\000\000\030\275\000\000\020\276\000\000\320<\000\000\250=\000\000*>\000\000r>\000\000\240\274\000\000p>\000\000`=\000\000\022\276\000\000f>\000\000\">\000\000l>\000\000`>\000\000\241\276\000\000\310\275\000\000\030=\000\000*>\000\000l>\000\000\260>\000\000\265>\000\000\205>\000\0008=\000\000j\276\000\000\340\275\000\000\220>\000\000\212\276\000\000@\275\000\000\010\276\000\000\020\275\000\000\226>\000\000&>\000\000v\276\000\000\220<\000\000\300=\000\000\354=\000\000\265\276\000\000\204\275\000\000\300\274\000\000\002>\000\000@\274\000\000\260=\000\000x=\000\000\334\275\000\000\274=\000\000\227>\000\000^\276\000\000`\275\000\000`\275\000\000\364=\000\000\303\276\000\000\213>\000\000\020=\000\000@\276\000\000\260\274\000\000\324>\000\000\277\276\000\0000>\000\000\270\275\000\000F>\000\000\257>\000\000\314\276\000\000\217\276\000\000\261>\000\000\000=\000\000\244\275\000\000l\276\000\000:\276\000\000`\274\000\000\326>\000\000\030=\000\000\255\276\000\000(\275\000\000\310\275\000\000\302\276\000\000T\276\000\000\246\276\000\000\374=\000\000\210>\000\000\246>\000\0000\275\000\000B>\000\000\270>\000\000\315\276\000\000\337\276\000\000\\?\000\000\000\273\000\000\270\276\000\000@<\000\000\254=\000\000x\276\000\0008=\000\000\242>\000\000\323\276\000\0000\276\000\000(\275\000\200\032\277\000\000\320\275\000\000>?\000\000X\276\000\000H>\000\000\320<\000\000\002>\000\000(\276\000\000x=\000\000\004\276\000\0006\276\000\000\220=\000\000\214\275\000\0002\276\000\000P\275\000\000\331\276\000\000T\276\000\000\305\276\000\200\017?\000\000\314\276\000\000\364>\000\200\021?\000\000\264=\000\000\006>\000\000\300=\000\000\224\276\000\000h\275\000\000\354\275\000\000\321\276\000\000`<\000\0004>\000\000\242\276\000\000\030\275\000\000\360\275\000\000\220>\000\000`<\000\000\274=\000\000\312>\000\000\214=\000\000\024>\000\000`<\000\0008\276\000\000\256\276\000\000\272\276\000\000\200<\000\0008\275\000\000\300\275\000\000\253>\000\000 =\000\000\204=\000\000\214=\000\000\250\275\000\000\000;\000\000H?\000\000\214\275\000\000\240\276\000\000\224=\000\000\274\275\000\000\n\276\000\000N>\000\000h>\000\000\000\273\000\000`\275\000\000\254\275\000\000L\276\000\000x=\000\0008=\000\000\310=\000\000 \276\000\000\260\274\000\000x=\000\000\034\276\000\000\314=\000\000\004>\000\000\240\275\000\000\026>\000\000H>\000\000\200>\000\000F\276\000\000\320<\000\000\200>\000\000\321\276\000\000\254\275\000\000\314=\000\000X>\000\000\370\275\000\0008\275\000\000\211>\000\000\260<\000\000\360\275\000\000\320<\000\000`>\000\000\333\276\000\000\310>\000\000\365>\000\000P\276\000\000\241>\000\000\324\275\000\000\317>\000\000\222>\000\000\227?\000\000 =\000\000x=\000\200\004?\000\000\000=\000\000\262\276\000\000\343\276\000\000\032\277\000\000\312\276\000\000\316\276\000\000\257>\000\000#?\000\000\210=\000\000\002\276\000\000\334=\000\000\350\276\000\000\337\276\000\000\204=\000\000\010\275\000\000V\276\000\000\240\274\000\000\">\000\000(=\000\000\036>\000\000\204=\000\000j\276\000\000\340<\000\000\240\275\000\000\272\276\000\000\320>\000\000\004\276\000\0006\276\000\000\200\276\000\000\357\276\000\000\340=\000\000\r\277\000\000 \276\000\000\200=\000\000z\276\000\000z\276\000\000\026\276\000\000\360\275\000\000\324\275\000\000r\276\000\000\342\276\000\000\330\275\000\000\260\274\000\000p>\000\200\027?\000\000\242>\000\000p\275\000\000\302>\000\000@<\000\000\240<\000\000\320\274\000\000h>\000\000\330=\000\000\300\274\000\000\220<\000\200\006?\000\000\260=\000\000t>\000\200\032\277\000\000\220<\000\000@\275\000\000\227>\000\000\370\275\000\000*\276\000\000\000<\000\000\200\274\000\000\n>\000\000\014>\000\000\205>\000\000\374=\000\000\244\275\000\000\274=\000\000.>\000\000\033?\000\000+?\000\000@\277\000\000\016>\000\000\004?\000\000\210=\000\200&\277\000\000Z>\000\000\024\276\000\000\020>\000\000\020?\000\0002>\000\000\203\276\000\000\203\276\000\000n\277\000\000\202>\000\000\210\276\000\000\350\275\000\000\341>\000\000\263>\000\000\260=\000\000\220<\000\000\214>\000\000\374\275\000\000\n?\000\000\266>\000\000\000\274\000\0006\276\000\000\360<\000\0008>\000\000&>\000\000\006>\000\000X\275\000\000\240>\000\000\273\276\000\000,>\000\200E?\000\000\364\275\000\000\022\276\000\000\200<\000\000\022>\000\000`\275\000\000 \274\000\000(=\000\000\222\276\000\000\274\275\000\000\320\274\000\000\300\274\000\000\344\275\000\000`>\000\000\262>\000\000x>\000\000\273>\000\000\264=\000\000\304\276\000\000\"\276\000\000\217>\000\000j\276\000\000\300\274\000\000\340<\000\000\354=\000\000r\276\000\000\232>\000\000\340>\000\000\000;\000\000\204\275\000\000\240\274\000\000\350=\000\000\003?\000\000\230>\000\000\214>\000\000\010=\000\000\216>\000\0008=\000\000(=\000\000l>\000\000\354=\000\000p=\000\000\315>\000\000`\275\000\000\354\275\000\000 <\000\0000\276\000\000\234>\000\000V>\000\000\020=\000\000\000=\000\000\030\275\000\000\030\276\000\000\310\275\000\000\221\276\000\000\"\276\000\000\010\275\000\000\260\274\000\000T>\000\000\210\275\000\000\320\276\000\000\240<\000\000`\276\000\000\221\276\000\000\303>\000\000P\275\000\000\016>\000\000@\274\000\000\274=\000\000\245>\000\000\220\275\000\000(\275\000\000\214=\000\000\000\276\000\000`\276\000\000t\276\000\000$\277\000\000:>\000\0004>\000\300\275\277\000\000\357>\000\000\264=\000\0008=\000\000\250=\000\000\004>\000\000H\276\000\000\337>\000\000\256>\000\000\240<\000\000\212\276\000\000\243\276\000\000\315\276\000\000D\276\000\000\270=\000\000\256\276\000\000\325\276\000\000\211\276\000\000\244\275\000\000\317>\000\000\264=\000\000\374=\000\200\006?\000\000\333>\000\000\340\275\000\000\305\276\000\000*>\000\000\356\276\000\000F>\000\000\314=\000\000\200>\000\000\353\276\000\000\010=\000\000\216>\000\000(>\000\000\220\276\000\000\270=\000\000\260\274\000\000\270=\000\000\030=\000\000\030\275\000\000\340>\000\000\304\275\000\000`\276\000\000b>\000\000\360\274\000\000\324>\000\000\332\276\000\000\331>\000\000#?\000\000\030>\000\000\034>\000\000\374=\000\000\301\276\000\000H>\000\200\037\277\000\0000=\000\000*>\000\000\227\276\000\0008\275\000\000T>\000\000\021\277\000\000\025\277\000\000\260\274\000\000\244\276\000\000\r\277\000\000\250\275\000\000\036>\000\000\014\276\000\000\016>\000\000\237>\000\000\220\275\000\000\274\275\000\000\212\276\000\000\350=\000\000\254>\000\000\203\276\000\000X\275\000\000\032\276\000\000B\276\000\000 =\000\000\313>\000\0000\276\000\000\010\275\000\000\324=\000\000\206\276\000\000\250=\000\000\373>\000\000\215>\000\000\271>\000\000h=\000\000\250\275\000\000<>\000\000X=\000\000b\276\000\000\350\275\000\000\204>\000\000\000;\000\000\036\276\000\000`>\000\000\260\274\000\000\211\276\000\000\300;\000\000\360=\000\000\200\274\000\000\214\275\000\000\210=\000\000\204\275\000\000\370\275\000\000\000\275\000\000\217>\000\000\302\276\000\000p>\000\000\334=\000\000\260<\000\000\030\276\000\0008=\000\000:\276\000\000\324=\000\000\240=\000\000\020\276\000\000N>\000\000\360\274\000\000\341\276\000\000\240=\000\000\204>\000\000\334=\000\000\007\277\000\000\303>\000\200\026\277\000\000\314=\000\000B\276\000\000\000<\000\000b\276\000\000d>\000\000F\276\000\000\244\275\000\000\022>\000\000\314\275\000\000~\276\000\000\251>\000\000,\276\000\000\252\276\000\000\320=\000\000h=\000\000T>\000\000X\275\000\000\204=\000\000R\276\000\000\004>\000\000\360<\000\000\217\276\000\000\240\275\000\000p>\000\000\214\275\000\000\271>\000\000.>\000\000\360<\000\000|>\000\000@<\000\000\032\276\000\000\213>\000\000\030=\000\000\327>\000\000P=\000\000H\275\000\000\024>\000\200\021\277\000\000\270=\000\000\026\277\000\000\330\275\000\000b>\000\000\300<\000\000N>\000\000\214=\000\000x>\000\000`<\000\000\234\275\000\000`\276\000\000\340<\000\000\000;\000\000h=\000\000\002\276\000\000\354>\000\000\200>\000\0006>\000\000H=\000\000\256>\000\000\030\276\000\000\370\276\000\000p=\000\000\233\276\000\000<\276\000\000H\275\000\000\325>\000\000\364\275\000\000*\276\000\000\260\275\000\000f>\000\000\">\000\000\223\276\000\000\340>\000\000&>\000\000\366>\000\000\304\275\000\200<\277\000\000\006\276\000\000$>\000\000(\277\000\000\330>\000\000H=\000\000x=\000\000\324=\000\000\250=\000\2006\277\000\2006\277\000\000I?\000\000\256\276\000\000\265\276\000\000\326>\000\000\210\276\000\000\302>\000\000\236\276\000\000\360=\000\0000>\000\000\254=\000\000\254=\000\000\000<\000\000@<\000\000L>\000\000\322\276\000\200\020\277\000\000\202>\000\000n\276\000\000D\276\000\200\037\277\000\000\340<\000\000\006\276\000\000\240\275\000\000\357\276\000\000\234>\000\000\230\275\000\000t\276\000\000\314>\000\000\200\273\000\000&>\000\000\020\276\000\000v\276\000\000*?\000\000 \274\000\000r\276\000\000\000\000\000\000\200\275\000\000h>\000\000 \275\000\000\024?\000\000\260=\000\000V>\000\000h\276\000\000\006?\000\000\200\274\000\000\200=\000\000\350=\000\0008=\000\000\240=\000\000\364\276\000\000\232>\000\000\020\276\000\000\010=\000\000P\276\000\0000>\000\2005\277\000\000\024>\000\000\203\276\000\000H=\000\000\026>\000\000\360<\000\000\300=\000\000<\276\000\000\223\276\000\200\026?\000\000P\277\000\000L\276\000\000V>\000\000\200\275\000\000\000;\000\000\004>\000\000 \274\000\000\230\275\000\000\240\275\000\200V?\000\000P\275\000\000\204\275\000\000V>\000\000h=\000\200\036?\000\000\005?\000\000\240>\000\000\001?\000\000z\276\000\000\020\275\000\000\300=\000\000\036\276\000\200\026\277\000\200\024?\000\000\026\276\000\000\260\274\000\000 \274\000\000\250\275\000\000\274=\000\000\275>\000\000\010\276\000\000\265\276\000\000N?\000\000 <\000\000\350\275\000\000\240<\000\000\303>\000\000\330=\000\000<>\000\000L>\000\000\320<\000\000\250\275\000\000\260\275\000\000\234=\000\000\264\275\000\000v>\000\000\260>\000\000\264>\000\000 >\000\000@\275\000\000\266\276\000\0004>\000\000\254=\000\000x=\000\000\214\276\000\000p=\000\000\020=\000\000X>\000\000H\276\000\000\274=\000\000&\276\000\000\264\275\000\000\\>\000\000,\276\000\000\302>\000\000:\276\000\000\247\276\000\000r>\000\000\024>\000\000\200>\000\000\327>\000\000\276\276\000\000\300\274\000\000\264=\000\000\205\276\000\000(=\000\000\260=\000\000\271\276\000\000\360\274\000\000\211>\000\000:\277\000\000h=\000\000\010>\000\000:\276\000\000l\276\000\000\204=\000\000f>\000\000\310\275\000\000\240\274\000\000p\275\000\0000>\000\000\000\274\000\000b>\000\000\216>\000\200:\277\000\000\300\273\000\000h\276\000\000\'?\000\0002\276\000\000 =\000\000\231>\000\000 =\000\000l>\000\000\300\274\000\000\274=\000\000\200<\000\000j>\000\0000\275\000\000\004>\000\000\006>\000\000\320\276\000\000\274=\000\0005\277\000\000\360\274\000\200\025?\000\000F\276\000\000\204=\000\000\364\275\000\000\230=\000\000\240\275\000\000\320=\000\0000=\000\000\227>\000\000H\275\000\000\030>\000\000\000;\000\000`\276\000\000\273>\000\000@<\000\000\024\276\000\000l>\000\000\304\275\000\000\241>\000\000\310=\000\000\022\276\000\000\370=\000\000\310\275\000\000\022>\000\000\210=\000\000\000\274\000\000x>\000\000\324\275\000\000d\276\000\000\010=\000\000\340\274\000\000\247>\000\000\250\275\000\000\300\275\000\000\204=\000\000|\276\000\000\020\275\000\000`<\000\000\234=\000\000\275>\000\000\r?\000\000\004\276\000\000N>\000\000P=\000\000\030=\000\200!?\000\000\274\275\000\000\034>\000\000\006>\000\000\254\275\000\000\210\275\000\000`\275\000\000~>\000\000p\275\000\000\026\276\000\000\240=\000\000\324\275\000\000\200<\000\000\225>\000\000\240\274\000\000Z\276\000\000\224>\000\000&\276\000\000\305>\000\000v>\000\000Z\276\000\000\372\276\000\000\253\276\000\000\305>\000\0006\276\000\000\200=\000\000J>\000\200\032?\000\000\252\276\000\000\277>\000\000\303>\000\000\200\275\000\000\010\275\000\000\016\276\000\000@>\000\000\361>\000\000\322\276\000\000\321\276\000\000\363\276\000\000\240>\000\000\203\276\000\000~>\000\000H\275\000\000\350>\000\000`\274\000\0000>\000\000\305\276\000\000\364\275\000\000x=\000\000\203>\000\000\207\276\000\000@\274\000\0004\276\000\000\346\276\000\000\002>\000\000 =\000\000x\276\000\000\244=\000\000>\276\000\000\036>\000\000\360\274\000\000\224\275\000\000\314=\000\000\000\000\000\000\232>\000\000,>\000\000\014>\000\000\216>\000\000\230\275\000\000H>\000\000P\275\000\000D\276\000\000\002>\000\000\006\276\000\000\034>\000\000\340<\000\000X=\000\000\000<\000\0008\275\000\000\000\000\000\000\324\276\000\000p\275\000\000\300\275\000\000.\276\000\000\330=\000\000\">\000\000x>\000\000\002?\000\000\026\276\000\000\010\275\000\000\000\275\000\000\271\276\000\000@>\000\000\224=\000\000\234\276\000\000\007?\000\000K?\000\000\200\275\000\0000>\000\000\307\276\000\000\360=\000\000\265>\000\000\000\275\000\200\026?\000\000\250\275\000\000\210>\000\000\036>\000\000\326>\000\000`<\000\000\000=\000\000\244>\000\000\233>\000\000\002>\000\000\010\275\000\000\004>\000\000\200<\000\0008=\000\000\214\276\000\000\200\276\000\000\360>\000\000\240\276\000\000.>\000\000\240=\000\200\021?\000\000\220\275\000\000\010>\000\000\250\275\000\000 \274\000\000x\275\000\000\360\276\000\000\300\273\000\000\240<\000\000 \276\000\000\234>\000\000\205\276\000\000h>\000\000\262\276\000\000*>\000\000\021?\000\000p\275\000\000\200;\000\000^>\000\000\022\277\000\000\271\276\000\000\270\276\000\000\004>\000\000\227\276\000\000^>\000\000\\\276\000\000\340\275\000\000X\275\000\000+\277\000\000\002>\000\000\354\275\000\000\344>\000\0002>\000\000\260\274\000\000\020>\000\000^\276\000\000\272\276\000\000\300<\000\000\010\275\000\000\256\276\000\000\263>\000\000\030\276\000\000\356>\000\000\200\273\000\000\r?\000\000n\276\000\000\354=\000\000\351>\000\000\220\275\000\000\230=\000\000T>\000\000\300\273\000\000\002\276\000\000\000=\000\0000\276\000\000\274=\000\000\347>\000\000\330\275\000\000Z>\000\000\360\274\000\0008=\000\000\250=\000\000\320<\000\000\030\275\000\000\350\275\000\000\240<\000\000\000\274\000\000\014\276\000\000f\276\000\000\026>\000\000\000\275\000\000\200\273\000\000\360\275\000\000\220=\000\000\332>\000\000\334=\000\000\321>\000\000\304=\000\000\260<\000\000\002\276\000\000\344\275\000\000\000<\000\000\006\276\000\000\200=\000\000\326>\000\000\213\276\000\000\n>\000\000n>\000\000\302\276\000\000,>\000\000L>\000\000\026>\000\000\222>\000\000j\276\000\000\224=\000\000\216>\000\000\304\275\000\000\n\276\000\000p=\000\000\360\275\000\000\203>\000\0006?\000\000\341>\000\000\234=\000\000\030>\000\000\016\276\000\000$>\000\000\334\275\000\0001?\000\000j\276\000\000(>\000\000X\275\000\000\360\274\000\000\000\273\000\000 \274\000\000`\276\000\000\022?\000\000\000\274\000\000\354=\000\000 \274\000\000x\276\000\000H\275\000\0002>\000\000\236>\000\000\321\276\000\000V>\000\000p\275\000\000\203>\000\000\"\276\000\000\034\276\000\000`<\000\000\366>\000\000\270\275\000\000v>\000\000\014>\000\000\335>\000\000P\276\000\000\330=\000\000\240\276\000\000j>\000\000\000=\000\000\200\276\000\000\014\276\000\000\270\275\000\000 \276\000\000\310\275\000\000\320<\000\000:>\000\000\255\276\000\000J\276\000\000T\276\000\200\021?\000\000\215>\000\000 \276\000\000\001\277\000\000\214\276\000\000H=\000\000`\276\000\000\224>\000\000b\276\000\000\250=\000\000h=\000\000\002>\000\000\247\276\000\000H\276\000\000\200;\000@\210?\000\000@=\000\000p=\000\000`\276\000\000\244\275\000\000\030=\000\000\350\275\000\000\000=\000\000`<\000\000f\276\000\000\350\275\000\000`\274\000\000\370\275\000\000\204\276\000\000\030>\000\000N>\000\000\273>\000\000\270>\000\000\326\276\000\000T>\000\000\356\276\000\000\217\276\000\000@=\000\000j\276\000\000\026\276\000\000@<\000\000\244\275\000\0000\275\000\000x=\000\000\344\275\000\000\">\000\000\361\276\000\200\r?\000\000\230>\000\000\214\276\000\000\214=\000\000p=\000\0004\276\000\000\000\274\000\0000>\000\000\214=\000\000\220<\000\000\230>\000\000\340\274\000\000@\275\000\000\272>\000\000\223>\000\000\020\276\000\000\320=\000\000\250\275\000\000\"\276\000\000\">\000\000\337\276\000\000\226\276\000\000X>\000\000B\276\000\000d>\000\000\"\276\000\000\275>\000\000@\275\000\0008=\000\000\324=\000\000\236\276\000\200$\277\000\200\007?\000\000\355>\000\000\000=\000\000\210\275\000\000\361>\000\000\034>\000\000\224\275\000\000L>\000\000\230=\000\200 ?\000\000\251>\000\000\032\276\000\000\364=\000\000\002>\000\000\200<\000\000J>\000\000\344=\000\000\370=\000\000z>\000\000\240\274\000\000f\276\000\000\362>\000\000H\276\000\000\276\276\000\000\346\276\000\000\203>\000\000\273\276\000\000\224=\000\000\204\275\000\000\243\276\000\000$>\000\000\245\276\000\200f\277\000\000v>\000\000H\275\000\000\000\000\000\000\300\275\000\000\200\274\000\000\370\275\000\000|>\000\000\200\273\000\000p\275\000\000D>\000\000\200\273\000\000\344\275\000\000\202>\000\000\325>\000\000\200=\000\000\020>\000\000\260\275\000\000\010\275\000\000$>\000\000\362>\000\000X=\000\000\306>\000\000\">\000\000\360<\000\000V\276\000\000\301\276\000\000\220\274\000\000 \274\000\000Z>\000\000H\275\000\000\227>\000\000z>\000\000x=\000\000:\276\000\000\250=\000\000)?\000\000\205\276\000\000\350=\000\000\365>\000\000\220>\000\000\201\276\000\000\334>\000\000\254\275\000\000\000\273\000\000\306>\000\000\304\276\000\000\026>\000\0004>\000\000\213\276\000\000F>\000\000\360<\000\000\270\275\000\000\320\274\000\000*\276\000\000x\275\000\000\234\275\000\000\236>\000\000,>\000\000\224=\000\000\204=\000\000\002\276\000\000\226>\000\000\330\275\000\000`<\000\000*>\000\0004\276\000\000,>\000\000x\275\000\000\000;\000\000\022\276\000\000\320\275\000\000\374=\000\000\024>\000\000>>\000\000 =\000\000\300<\000\000F\276\000\000\314\276\000\000 \276\000\000p\275\000\000P\275\000\000\217>\000\000\304\275\000\000\032\276\000\000\200;\000\000\304>\000\000\372>\000\000\353>\000\000^>\000\000W?\000\000~>\000\000@\274\000\000\220<\000\000\021?\000\000\220\274\000\000\375>\000\000\334=\000\000\204\275\000\000\330=\000\000h>\000\000\320\274\000\000\016>\000\000\\>\000\000f\276\000\000\224=\000\000\304=\000\000\200\274\000\000N>\000\000\000\274\000\000n>\000\000\220=\000\000\300;\000\000\350=\000\000\026\276\000\000H=\000\000$>\000\000\030\276\000\000\216>\000\000~\276\000\0000\275\000\000\227>\000\000\265>\000\000\000;\000\000\204>\000\000X\275\000\0008=\000\000P=\000\000\324=\000\000\210>\000\000\203>\000\000\211\276\000\000\371>\000\000~\276\000\000\261>\000\000~\276\000\000\207>\000\000\272>\000\000\370=\000\000\300\273\000\000\310=\000\000\364\276\000\000\020\275\000\000\330\275\000\000\240\274\000\000\370\275\000\000d>\000\000b\276\000\000\320\275\000\000\030\275\000\000\037\277\000\000\"\276\000\000\300;\000\000\221>\000\000\320\275\000\000x=\000\000\000;\000\000\230=\000\000F\276\000\000H=\000\000\254=\000\000\320\275\000\000 \274\000\000 =\000\000\304\276\000\000\300;\000\000\265\276\000\000\300\273\000\0008\276\000\000\004\276\000\000B\276\000\000\230\275\000\000\204=\000\000\260\275\000\0002\276\000\000@\274\000\000\216>\000\000\374=\000\000\234\275\000\000\314\275\000\000\200=\000\000\010\275\000\000\234\275\000\000\200\273\000\000\370=\000\000\020\276\000\000h>\000\000\000\275\000\000\300\275\000\000\306>\000\000\300\273\000\000\250=\000\000\300=\000\000 \275\000\000f\276\000\000\274=\000\000\334\275\000\000\254=\000\000\034>\000\000Z\276\000\000\204\275\000\000\234\275\000\200\035\277\000\000\320<\000\0000=\000\000H\276\000\000\257\276\000\000\340\274\000\000\355>\000\000n>\000\000\270=\000\000\240\275\000\000\307>\000\000\030=\000\000\256\276\000\000\362>\000\0008\275\000\000\006>\000\000B\276\000\000\274=\000\000\340\275\000\0000=\000\000(=\000\000\265\276\000\200+?\000\000X\276\000\000\265\276\000\000x>\000\000\036>\000\000\260\274\000\000\255\276\000\000l>\000\000\320\275\000\000 =\000\000\034\276\000\000\360<\000\000\350=\000\000\324=\000\0002\276\000\000\250\275\000\000\201>\000\000P=\000\000h\275\000\000\000\275\000\200 \277\000\000\230\275\000\000\217\276\000\000\224\275\000\000~>\000\000\020\276\000\200$?\000\000\364\275\000\000\006\276\000\000\252>\000\000\260\275\000\000\314=\000\000H\275\000\000\230>\000\000\220<\000\000\000<\000\000R\276\000\000\244=\000\0000=\000\000\364=\000\000\260\275\000\000b\276\000\000h\275\000\000\214=\000\000\240\275\000\000\360<\000\000\035?\000\000\376>\000\000\357>\000\0004>\000\000\242\276\000\000P>\000\000\026\276\000\000\250=\000\000d>\000\000\004\277\000\000p\275\000\000<>\000\000\216\276\000\000p\275\000\000d>\000\000\354\275\000\200x\277\000\000\033\277\000\0008\276\000\000\254>\000\000\243>\000\000\214\276\000\000\200\274\000\000\360=\000\0000\275\000\000 =\000\000\000\276\000\000\270\275\000\000*>\000\000\320\274\000\000\030\275\000\000H>\000\000\310\275\000\000p\275\000\000~\276\000\000\244>\000\000\000\000\000\000\250=\000\000\004\276\000\000\250=\000\0008>\000\000X\275\000\000`=\000\000\264\275\000\000\320\275\000\000\000;\000\000\334\275\000\000\016\276\000\000\024>\000\000\360\274\000\000\200=\000\000\202>\000\000\233\276\000\000\250=\000\000x=\000\000`<\000\000\270\275\000\000(\276\000\000\030\275\000\000\364=\000\000\270\275\000\0000\275\000\000\220=\000\000r\276\000\000(=\000\000\002>\000\000\342\276\000\000\306\276\000\000\240>\000\000\200\276\000\000R>\000\000t>\000\000\237\276\000\000H=\000\000\304\275\000\000\353>\000\000l\276\000\000\350\275\000\000\260\274\000\000\214>\000\000h\276\000\000Z>\000\000\337>\000\000\360<\000\000\340<\000\000H\275\000\000\200\275\000\000\240<\000\000\036\276\000\000j>\000\000\260<\000\0008\276\000\000`\274\000\000\300\273\000\0004\276\000\000\266>\000\200\003?\000\000\000=\000\000\304\275\000\000\300<\000\000\203\276\000\000x=\000\000`=\000\000\020=\000\000\257\276\000\000$\276\000\000P\276\000\000r>\000\0002\276\000\000\320=\000\000\260=\000\000\344\276\000\000\010>\000\000H>\000\000\344\275\000\000\034\276\000\000`<\000\000\254=\000\000n\276\000\000\214=\000\000\200<\000\000\274=\000\000\210=\000\000\220\275\000\000\">\000\000\340\274\000\000\344\275\000\000\334\275\000\000\300>\000\000\300\273\000\000\235\276\000\000\374=\000\000<\276\000\000\260\274\000\0005\277\000\000\234\275\000\000X\276\000\000\233\276\000\000n\276\000\000R>\000\000\020\276\000\000\020>\000\000\210=\000\200\n\277\000\000\"?\000\000\343\276\000\000\250>\000\0002>\000\000\305\276\000\000.>\000\000\241\276\000\0000\276\000\000`=\000\000\000=\000\000\334\275\000\000P\275\000\000P=\000\000`\274\000\000 \274\000\000Z\276\000\000\303>\000\000\214=\000\000\260=\000\000\320<\000\000\">\000\000\314\275\000\000H=\000\000\204\275\000\000X=\000\200\017\277\000\000\253\276\000\000\000\275\000\000(\276\000\000\364\275\000\000&>\000\000l\276\000\000\010?\000\000\260=\000\000\373\276\000\000\210=\000\000x=\000\000\260\275\000\000\351>\000\000\000\275\000\000\215>\000\000\251>\000\000\320>\000\000H=\000\000z>\000\000 \274\000\000r\276\000\000\303>\000\000\010\276\000\000p\275\000\000X=\000\000Z\276\000\200\004?\000\000@>\000\0006\276\000\000\000;\000\000\\\276\000\000\230=\000\000\370\275\000\000\250=\000\000\320>\000\000\300;\000\000\324\275\000\000\304\276\000\000\303>\000\000L>\000\000\371\276\000\000\310\275\000\000\">\000\000\260=\000\0008\276\000\0006\276\000\000\330\275\000\000@\276\000\000\324\275\000\000\331\276\000\000(\276\000\000z\276\000\000\241\276\000\000,\276\000\000:\276\000\000$\276\000\000x\275\000\000\270\275\000\000\026\276\000\000\237\276\000\000\305>\000\000p>\000\000P=\000\000\255>\000\000\230=\000\000\030\276\000\000\200;\000\0000=\000\000(=\000\000\313>\000\000\210=\000\000P\276\000\000\320\275\000\000\340<\000\000\200\276\000\0000=\000\000\262\276\000\000\034\276\000\0000=\000\000\245\276\000\000\274\275\000\000`=\000\000P\276\000\000\200\273\000\000\214\275\000\0006\276\000\000\350\275\000\000\320\274\000\000\026?\000\000\240=\000\000\220\274\000\000\300<\000\000\200\274\000\000\334\275\000\000\254=\000\0008\275\000\000(\276\000\000\000\275\000\000l>\000\000\220\274\000\000P=\000\000F>\000\000>\276\000\000\002\276\000\000\320\275\000\000\220\274\000\000\250\275\000\000\214=\000\000\304=\000\000X\275\000\000\234>\000\000\000\000\000\000\262>\000\000\254\275\000\000\220>\000\000\274=\000\000\350\275\000\000\204\275\000\000\002>\000\000\213\276\000\000 \274\000\000\240<\000\000\273>\000\000\020\275\000\000`\275\000\000\000\275\000\000\213>\000\000\272>\000\000\010\277\000\000N\276\000\000\222\276\000\0000=\000\0008\276\000\000~>\000\000\020>\000\000\300<\000\000\307\276\000\000\340>\000\000\214\275\000\000(>\000\000\360\275\000\000B>\000\000\244=\000\000\"\276\000\000B>\000\000\314\275\000\000\022>\000\000\010\275\000\000\224=\000\000x\275\000\000\204>\000\000\235\276\000\000\036>\000\000\264=\000\000d\276\000\000\242\276\000\000\330\275\000\000\300\275\000\000 \275\000\000\020\276\000\000\341>\000\000z>\000\000@<\000\000\354=\000\000\212>\000\000\n\276\000\000\005?\000\000\320=\000\000\210=\000\000J>\000\200\r?\000\000\345>\000\000\220>\000\000\022>\000\000H\275\000\000\307>\000\000\340=\000\000\000>\000\000\010\275\000\000\201>\000\000`<\000\000\360\274\000\000\267>\000\000`\274\000\000h>\000\000D>\000\000\253>\000\000\000>\000\000\306\276\000\000(\276\000\000\360\276\000\000\323\276\000\000\320\274\000\000\224=\000\000@=\000\000\032\276\000\000^\276\000\000N\276\000\000\333>\000\000\"\276\000\000\331>\000\000\277>\000\000n\276\000\000\360<\000\000\244\276\000\000J\276\000\000\330=\000\000\214>\000\000\300=\000\000X\276\000\000`\275\000\000\034\276\000\000v\276\000\000\340\274\000\000\000<\000\000\034\276\000\000h\275\000\000\340\275\000\000@<\000\000\340\274\000\000\324=\000\000J\276\000\000\000;\000\000\n\276\000\000 >\000\000\374\275\000\000\324=\000\000@<\000\000`<\000\000R\276\000\000\034?\000\000\254>\000\000\304\275\000\000\364\275\000\000\200\273\000\000\010\275\000\000\024>\000\0002>\000\000`\275\000\000\000>\000\000 =\000\000\300;\000\000\026\276\000\000\014\276\000\000\215\276\000\000\242\276\000\000`=\000\000:>\000\000H\276\000\000`\274\000\200$\277\000\000\315>\000\000\215\276\000\000\200\274\000\000\270\276\000\000\327>\000\000\304\275\000\000 =\000\0008=\000\000\014>\000\000\010\276\000\000\354=\000\0006>\000\000\200=\000\000p>\000\000\344=\000\000@\274\000\000\236>\000\000X=\000\000$\276\000\000\300;\000\000\244=\000\000\334=\000\000\020=\000\000l>\000\000\200\275\000\0002>\000\000p\275\000\000\340\275\000\000\000<\000\000P\275\000\000\300;\000\000\010>\000\000\270\275\000\000\240\274\000\000$\276\000\000\242>\000\000\260\276\000\000\354=\000\000B\276\000\000\345\276\000\000\006\276\000\000\340\274\000\000R\276\000\000\372\276\000\000h\275\000\000\002\276\000\000\200;\000\000\214>\000\000\225\276\000\000\220\275\000\000\030=\000\000\342\276\000\200]?\000\000\n\277\000\000\005?\000\000\251\276\000\000\306?\000\000\344=\000\000\030>\000\300\270?\000\000B>\000\000\210=\000\000I?\000\000\265\276\000\000s?\000\000>>\000\000\354\275\000\000\324=\000\000\304\275\000\000\000<\000\000x\275\000\000\315\276\000\000@\274\000\000\000;\000\000\242\276\000\000\312>\000\000 \275\000\000\032\276\000\000x=\000\000\245\276\000\000\270\275\000\000\203\276\000\000\006>\000\000\370=\000\000\300\274\000\000\340<\000\000\300=\000\000\370=\000\000\330=\000\000\274\275\000\000\320\274\000\000\300\275\000\000 \276\000\000\263>\000\000t>\000\000^\276\000\000\242>\000\000H\275\000\000D>\000\000\260<\000\000H=\000\000 <\000\000\006>\000\000\226>\000\000\300\273\000\000 <\000\000\260<\000\000b>\000\000\224\275\000\000\313\276\000\000\334=\000\000:\276\000\000x\276\000\000p=\000\000X\275\000\000\330\275\000\000\200;\000\000\220=\000\000\026\276\000\000J>\000\000\233\276\000\0008\275\000\000&>\000\000\300;\000\000\250=\000\000`\274\000\000z\276\000\000\024\276\000\000^\276\000\000\360\274\000\000\"\276\000\000H\275\000\000\360=\000\000\200\273\000\000`<\000\0004\276\000\000\254\275\000\000 =\000\000\223\276\000\000>>\000\000\244=\000\000\240<\000\000\354\275\000\000d>\000\000R\276\000\200\014?\000\000\014>\000\000\030\276\000\0000=\000\000J>\000\000\204\275\000\000\300\275\000\000\000<\000\0008=\000\000@>\000\000X\276\000\000x>\000\000\\\276\000\000~\276\000\000\270\275\000\000\024\276\000\000\203>\000\000\360<\000\000\277>\000\000\334=\000\000\224=\000\0002>\000\000\226\276\000\000J\276\000\000\360\275\000\000~>\000\000\333>\000\000\320=\000\000(>\000\000,>\000\000\273\276\000\000\020>\000\000\202>\000\000:\276\000\000(=\000\000\">\000\000\220\274\000\000\220\274\000\000\254\275\000\000\030=\000\000\000;\000\000\200;\000\000`=\000\000\324\275\000\000\320\275\000\000.>\000\000H\275\000\000\240=\000\000\314\276\000\000@<\000\000j>\000\000\325>\000\000\234>\000\000H\275\000\000\220=\000\000\026\276\000\000\360\275\000\000\343\276\000\000\020=\000\000`<\000\000\250\275\000\000@\276\000\000\225\276\000\000P\276\000\000\010=\000\000\301\276\000\000 \274\000\000\366>\000\0008\275\000\000\274\276\000\000\004\276\000\000\320\275\000\000\240\276\000\000\n\276\000\000\346>\000\000L>\000\000p>\000\000>>\000\000\214=\000\000\232>\000\000`<\000\000\010\275\000\200B?\000\000f>\000\000 \275\000\000\230=\000\000\005\277\000\000 \276\000\200^?\000\000Z>\000\000\026?\000\000\247>\000\000\234>\000\000\037?\000\000&>\000\000\277>\000\000n>\000\000\341\276\000\000\224=\000\200\031?\000\000\360<\000\000\264\275\000\0008\276\000\000 \274\000\000\020\276\000\000\364\275\000\000X=\000\000\364=\000\000\204=\000\000\324=\000\000\200>\000\000\240>\000\000\304=\000\000\030\276\000\000\264=\000\000\315>\000\000\201>\000\000 