node {
  name: "x"
  op: "Placeholder"
  attr {
    key: "dtype"
    value {
      type: DT_FLOAT
    }
  }
  attr {
    key: "shape"
    value {
      shape {
        dim {
          size: -1
        }
        dim {
          size: 16
        }
      }
    }
  }
}
node {
  name: "decoder/de_dense_final/MatMul/ReadVariableOp/resource"
  op: "Const"
  attr {
    key: "dtype"
    value {
      type: DT_FLOAT
    }
  }
  attr {
    key: "value"
    value {
      tensor {
        dtype: DT_FLOAT
        tensor_shape {
          dim {
            size: 16
          }
          dim {
            size: 512
          }
        }
        tensor_content: "0\177a\275\216\322\031\274t%\270=N\257\216=\356\302x>\352\325\312=\205\204\341\275\001\207n<:\214\275\275\3627\217=\211\2528\276\224ZJ\2746\262\272>Nro=\220\326\304<\254\303@>W\306\022\275\217\001(>+\026\n>M1\317=\332\221\003?\245j\344\276\360\372\272\274mg\023\277\0223\026\275\326?\010>\263\254D\276o\353\251\276\232r\225=\273\036\324\275\3428(=\276G\230\276;eY<\t{\217\274jQ\314=M\010\246>\377x\006<\3753x\274\306\265\010=\256\216\246=\372\222\026\274D\233\032>\322/\271\274\341{%\274\313\330_\275\270Ta\275\004\255\205=\001!\306\276\372\341\362\274\226@\r\2761$\036\275{oM= 9\n>\376N#<\342Ch=\346d\321=\334\211\257\273p\251\366\274\2723\337=\3307\023>g\\\326\275\377\033\007\275\221\004\031=Y\352\240\273\277\225H>N\373\205\275\237\020\314\275-\251\365;\220\003\020>W?\233=\233\311\306\275+\035\377=\205[\344=\362\033\322\274(\223\216\275\303\255\330\274\210\332;=\235>\206\273G\314\324\275\246i\322<\376/K<[\003\222>\200\357\224<;\363\312=\326\033\356<\335>0\275(\304\025\275T;\250\275\025\325 \275\031\340\n\275\314;$\276\267\334#>U\352\340\275G\266\277\275$\"\362=x\204Y>^\027j=\"\314\223:\030\2327>h[\313<@T\033>\224\365O\276\213c\227\275\177\021\001>\312\363\243<\031!7\274\177O\024\276\032\216\325\275CI\000\276\371\211\201<w\004\365\275\226\332\016=%\"\261;:J\240\275\021\236A\276\256u\311\273%\250\014\276\377\232\320=\247\334.\272qgx<\374\332\224=c\302\203=`\225\252\274\010,~\274\354\327\"\2768\343\336\275^\206\312\274\355n:\275\271>\244\275*\021\203\274\300\227,=\2018&\275\335\303\236=\225T\034>x\036u\276\375\326\222\275\250\272\214\274\312\007\370=:\263\253\273\233\243\035<\371\023\330=Bx\336=\224\362\365\274\277\243\207\275\025\260?\275b\332)<\325O(\275F\n\343\274\003d\026\274\301O0\275A\274\223>T\003\016\275 \216\375=B\235\355;\221u\270>\327\300\263<\202]\000\276f\346P>\221\266\306\275\242\032z=\376\210\206\2765\2578\275\3751\374<\010\365\026>\235\337\000>/;\024<\373\215\327;\354\357\270>w\373\353\275\355\262\221>\350\375\272;\301\316\027>\231\036\200=j\211\302\275\357\033\217=j\265!\275\212\211\323<\001&\344;o,\241>\347\351!>\370x ;\260d\344=,&\264=g\221&\275\345\377\354\275$\250\222>\365\257\024=!\236\\>\315\323\021\276\307\236\237=\342\202M=\207\347\030>\202\272\";\201\254\344\273\251\210\t=\375\203\255>\216\003\226<\226Qy=rG\346=\344\036\013\271\357#\262=oM\307;\277\250[\274z\037x=\247\322\204>\177\325\032<o2<=\014\212\253\274&-a\276?\351\\\274\002^\302\2759\262\241>\2413x>\365\221d\275\025\023\225\273k\206\016=\363\247\225>jx\025\276W\016\243>\374xL=\013\250K\274\335\317\206\276V\273r>p\021\300\274\335B\'>\226q6\274\300\3371\274\333\245_\275m\301\002\276\323\272\340>\031HY>\320\023L>_\267G=\030~\002\276F\321\325=b\270\200\276\221\366\007\276\022e\263<mGj\274\3056\211\274\026\275Y>jp\367<\325<\303>n\306B\275\330\311\322\274\304\247\342:c \205\276?\274\362=7\025J>\264)\"<o\253\002\276\'l2\274\271\326y\273$Q?\275Y\022,\2764\003\244>\207,\360\277\241\312k\276e/\213\276\375\373\222>\017\247x\277z\030\227\2756\221U=\016\262i? \312\265\275\371\037\014\276,9\206<\212\021\303>o\010\034>\263\247\255>\264\260a\277\351\035\325=qs\014?\307tY\275\336\204\002>2\326\224=^\227\247\275Mi\334\276\316\3371\275v\'B\276\331O\005?\\\r@\276n\037\353>Y0(>\320\376\263\275\3327\262\2769\234\223>\342\330U?\034\2228>\371Z\261=*\252\226\274\312\215\021=\317>\243=\225\023\322=j@\221\2763\317\353\276 \364\020\276\177\264\261<T\214\227=D\367\300<\030\214\026?\220p\364<0J\033<\222.\373=$}I\276h\022r\277\255\2175\277\234\233\364\275\031\337\225>6[\214=\372\016\027\276\347\223&\276Kj\206\275\217h\304>\305\350\360\277[\217\300>k\034\370\276\343vC\276\373j\371\274i\210\317\277\331\315\341=gKR=\351\364\202\275\317l\364;o\037e>\304\021\265\276_\376W\276BmY>ar\020>\360\266t\276\346OL\275>\275-?\302\203/=\201\364R\276\353\232\304\272\365\373\031\275\244L\010>\220\337\n\276-+m\276\022-k\276n/\356>\"ye\277\02638<\n\035\'\2763\304\303\276\'\271\213\275\316\266\202=j\260\307;\021\022\336=Aq\377\274\301\354\'\274\257\242\360<\022l:\275\030w\214\276\256vA=\200\376\230\275\364\374B>\264\347\235< \177Y\276\347\005\232\275\223@\374>FY\004\276\354I\370>\302\330i\275\207\027V=\240D*=\3122\363=\273\336\333=\207\027\246<!\253\227=\325}b\276U\305\226\276\007|\013\275\364;\221\275\017\2763\273\031-0>\266\200\253\275+\311B\277\316\230\003>\232\347\332=\023ld>8\212\211\276\0028\237>\375\376\274\275[t\226?2\210\033\275,\252\2419Rz\204>\326\260`\276rD\034\275</Z>I\323\333>\370\000\035\277\262\304\n\277\037\364D>\276 ->h\371\334>\237\240)>\007\326\265=\351/\253\275\317Vm\275\264\300\253\277&(\250\277|\3725\276\002\205v<sO\366\276\372\363L\277\371?0\275\255\374\261\277\354C\010>\226\300\263\274\300\240\306\277w\no\277L\010R\277\002U\235>\027n>>C\332A;\3100m\276\351\222\342=\215\306P=s\240k\276\"\016\363>\334\343\357\274U\204\310>u\313\310>\366\363h\277\373\350\241\276\323\357T\277Q\'\023\276\207s\217\276\364\342|\277\313\230\225\277F\016\202\300\0311n\275\330\262\020\277L\301\330>.F\373\277\007\005o\277(8\001?x\310\020?\335\213\264>\372\2409>\353\022\314;;\330\326\276\270ml>\205r\265>\240\366\237=\256\262\316\276\227\222\241\277\234\373\034\274\252\234\301\275\216\373\342\274;\341\215>\023|g\277\256\346x\276\226a3\276Z\322\r\300\252\247\361>\355\344??!Z\323\276*\266\262:\327\313\220>\217sE\275E\276\\?\223V\331\276\210\314]\277*\0227>\306\322\222\276\263\317\220\276\345\220&\277C\001\227>L\304\033?o\340\376=\340\204(\275\311\n/\277\335\367\207\277\331\023R>\334\246\361\276s\300\270>l\244\305\277H\003\301>\357H\r?\247\001\177\275\343\230\363\275$uC\275`\030\205\276\223\276\362>_\250+\276\223\334g\275\323\226\252>X\303\031?\341\3573\277\303\002\177>1\351n\276\245\260\226>\336\370\262\275\340\331\243>\244dV>%J!\3007\277\266\276oX\033?B\265T?\210Y\007\276\355\340\006\276\257\224\266>\004^\021\276\301\226\214>\t\213l>`\013\035>\336X\020\275\2110\350>Wo\273\275\243\004\346=H\315\363=czl\276\272\212\005\276\254\034Z\276)\267\257\276u\002\207= \222 =6\213Y>\t\227\221=n\312\177\275\n\362(=\332\262\350\276\323\365\362\2763\204\276\275\257)\270\275\332qP>(an\276R\322\020\276\002>N\2733\202\026\277\350\311g>\207\364h\275\007\223S\277-9`>\262e\371=\014\247\224=\036\2135>M\376!\275\327\361\031>\344\030\260\276u@\323>\332V\314=^\241\200>>\327\370=w\'\245\276\3466!>\233\216\'\276Vq<\276\313c}\276\366\326\303\275~\000\252\276\267V\223\276b\310\002=\272\206\235\274R\244\365\2755&(=\275\312\273>uf\333\275dG\263>\r\320\330\275\n\031[>\332\344\220\274\3124\224=\013 \211\275\213/8\276\340GO=\333g1>u\325\275<(,\271\276\211~v=\227\201\372=\367\347\016\276\200\001)\275[\362\024>\310zf\276\264?u\277\235\275\021=\273\257\377\276\353jm\275|\205\177>\315\016\340\275\242\250\266\276)+\301>\004\267/\276\331\316\212=\302\313\336>\331\207\236\276\r\361\242<q\206\214>\035NU>BY\024\277J\240\034>\3341\223>\310\271(>^\030/>\003F\026>7i>=\273J\r>I\222\036\277\022\230\377<\301\260\005?\363\360\244\275\340O\332=\017\254\252=<\225\214<\267I5\276\232/\317\275#o0\2777\335\017?8\031\343\276\227Yh>\271BF>\264\321\202\277\324\035\251>\233\363g>\271Y}>\262[\226\277|\"2\277\217\010m>\332>\013\276\014%\265\275\220R\034=\266\352\335\277\220\256\377>\022M\312\276\362\263\310\2776W\253>X\027W;\310X\020\276jm\252?/\257\316>\342V\235=m(X=\035d\323\276\244\320{\277ZU\017\276\370\205\260\276\324^\241;\3650\030>\365d\177=w\277\313>\014\"S\276\026$\032\276%\002\206\27523\030=cC+?\333|\200\276\303n\010>l*\253=\234\361D\274\255@\007\276\000i\207\275\026\005\016>yGb>\350\354\244\2750\302\t>NO3\275\2115\346=\302\342\233<A\325,\276u\215,=\014\201x=\202\204\224=^=4=\306\030\232=\253\326Q\275\377l\\\276\202-\037>o\222\003=\376\003\311<\245eG=e\367\336=\363~\300=\353\202\222\276dE\177=\021k\275:\257_\357>\025\325\240>}\241=\276E\373\024\276A\261\030\276\356\010]<-\234\365=\372\202\020\276\250\214Z>\016\222\371;\304N\200\276\224k\364\273\3560\367\275*-\332\275\265E\261=\'\302\221\276\017\350\360=\370\375\237\276\256Yf\276\216V\002<\006i\243\276+\321\037>\3632\217=\367\"\254\276>\037\264\274[)\257\274\336S\362<\236Nm\276A\311\314\275\337\344\341>Q\370\210\276\235\201\342=\327\271\330=\231\3037>2\210\220<1b\334=v\254\346\275\371\203\253\275\005\260W\274\347#\022\276\255|8>\243V\251=s\341H>\306\"\255>\315\307\255\276\250\367\271>S\301\007>C\004\200=\203\254\243=\254A\217\2768\347\243\275\303\224\237\275b\202\221=\223\206[\276\233\325p>\247\242\252>\242\370\035\272\214`\205>}\221\216\274o<\215\276-\370\014\275<\362\000\277:?k?<lf?\217vn\276\320\376O>\330\305\355\275+\324\274\275\354z\n\277\367\327\342\275\224\375B\277\327\222\247\276\223\352\334\276\224\034\272\275\234\247\257\275\277\323\320>\023<v>5~\363=w\350\025\277\026\014\220>\340\"N\275L\027s>\007\373\224=\003\352u\277\374\207>\274\224\275\212>\320\\u\276p\315\342\277}3\317>&\321\211\275\004\022\262=4;W=@\307\366\275\371\341\235\274\206Nm\274\354\217k\274\327\\\033\276\227\365\232<\017;\220=8\226A\276l\311\r\276@\321\253=q\367\372\276m(g<\317\326g=\222\017\303=\336\204\004=\030)u=2\"\013>>G\260\275ou\251;1H\374\275H \221=X\364K\275\006\306\200=\255\177\272\275\356\320|\275\273X\004=\267\264}<\331\253\252\273\216\371\223=/}\034\276\276\274,\275\373\027\272\276\347o\360=\270\215\276\275|\245\236\276\244\323\005\277\2266\004<\257\032U<\263\004\273=H4\213=\\\005b\274\377(`=L\027\003>\026pk=\315c\247=*\033\036=\304\2349>\177/\371>\"\236\342\275&tD=\377\221\213\275\211\226\343=\255.W\275\230]\264\273;\n\234\274h\377\373\274\307\254\266=\236\304\353\275\203\236\212>;/\234=\031\233\355\274\257X,\276\332LH=Qp\004\277\254\315\210>\027\310]\276\303\030P>fE\000\276P\220o\275\376\342\247\2752Sm=\241\3539>\n\007]:a\017z\274\026\n\244>\260\010\350\275\"\327\340\275\262\374\210\275&\333(=\376\340R\276z\335\224<\326\202\215\275\202\355\345>\224\221\005>\035\016\331\275\354\2467>\373<^>=\235\310\275^\246\226=M\343\325=LM?>\270?o>\241\375D\276#\334\002\276\374\202(?\314\214\216\275\000z*>V\217\303>\242\375 \277\324\372\254\276Bd\356\276C\242Q>\373A\004\276\022x\252\275\264\345D>\325>\272;\010\211\r\277\321\tY>\032Jn\276\004R\036\277o\2412\276GJ2?\252\360\276\276\234t\357\274\3466d>\274g\006\275\312\310\200\276w\270!>\000{-\276\370\311\315\275\004\363\305=;\234,\274\202j\341\277\014%j\277=k<=\233\023t\2768\016I\276\252\022f\275\310k\226\275}mf<z\177\243>\366E5=x4\261\276V\302m>\'\204\201=\025\372\232\271\234 \230>\271s\232>\371\016\255=$\242\005>+X]\275\354tP=\336\332g>b\275@\275\t\0163=_G\351\275\257\026R>\274\034\303=\334\375\303\275\357\003\363>d\177\206\276\323\356\246\274\304.\033>FSN\275\243f\307=\361!\330=P\010\313=s\255\235\276A\004\212;\007V\346\275\257<\034\275\216\263\313\275\261\270\005\276\316\264\006>\364\321\241\275\244\226\246\276\261d\364\275\264\217\204\276\357FS\275\\\246\323=\374B9>\204\255\005\276\2115\000=\031\314\362=\035\002*\276\034\023\250=;\312\212\275f\005W>\274\020\221<\226.\341\275\022\005W>\306C\300=\331\316\252\276a\373y\275$\336E=<\323\325\274C\325x>\341\375\'>\324\304\022\275d\371\312\275:\324\232\274\302\205\255\275>\254C\276t\257B\276\202\013+>|\t\276=\244\310\\\276\303\033a\276!\n\336=\024\241U\275&]K\276I$\246\276\315\305`\276\\\356\236\2753cy>C\177\313\276\301|\215\275\025^0>\214\335\263\276\212\344\277=qKK=\303 N=(d\3629\232K<>#\326\305\276\361\202\264<2\231\301\276E\314\225<?7\005\277\177_\344=)\222a=\024<%\274\316\2546=n\370\203\275\250\251A?\337\253\317\274rJT\277\027r\261\2767x\r=\326\210\321\277N\353\221=L\305C>\234\363\\>D|a\276j\004X>A\022\240\274#\326\234=\244\207\222?\211p\303\276\177\324\265:\351\215\207\275\326/\370=q\310\\\276\314\245\355\276\006\317}?\300\r\230\2763\200\031<n\316d>p\036M\274\253\220\371<S\217\236\275\243\264\313\275\211\341\271\275\234\350\212\276\363\233y\276\230\254\251\277\324 \251\277XO\264\275I\301\211=r\000U\276M\333\215\275]\3151\275`\t\202\271\364\344\033>\326\"\246\275\255K{>\214<G=\231\021\033\276bf\347\275\n\375G\276\254\244\260\2756\227\240>\270\177\006>@H\213\275\311\256\364\277\001\001\177\277\216\346\017\300Mp\026<\347-\255=U\241{\275\031\017B\277\367:\312\274\232\306\313\276#\242\177\272Nns\277\265\"\276=\344\270\325=\340\267G\275\255\201\006\276\222o\343\275\202\343N\276s\374\373\274S%\357\277\374\224X\276.\205\014<v\3358>\320\252\007>\237d\267\276\332\324\354\274D>\375=9\274\016\277\002\r\213\276\'\263\032\277\035\376\260\274\217\233\016>\266k\202\276\341\347V<\013s\204>\331\272\254=\221#\253\276\204\030\253:\355\326#=?\251\323=\311\\\233\276\361\326\324\276\210G\346;\t\324\'<)u\201>\\i\323\274.\326\321\275\352\263\204=/\207\214>\324y}\276\300\337j=V\253\230\276p\235!=\265\205s>b\204\005\275\237\367\320=\250\232\317\275\0367\223=}}\022?\313\223)>7\014\360\275s`\027\276A\210\376\276|\302\214\275\200\275\204\276U\177v\276\023\033\311=6\306\317\274\376\343\312=\330\016B\275\310e\317\276++\244\275\313WB<9\010\275\275M 8\276\306`\322=\263\335\375\275\252\353\327=\033l$;\2363\026?\335\030e\276\377J\214=$\253=>\322\360\320?\242;\272=1|\017\275y\336\300\275\342D\252\275y\360\221\275\"\303:\276\325\317\014\2776\003\207\276Go\362=#Be<^\335\031=\340\225D\275H\307\317>`\002\035\274\210\273\024=\324(\007\276H\343>?<\032\227>F\024\247\275)(%=\'\213\025>\316t.>[\363\345\275\360\250\270=\026I\213\275\210\337\314\276\035\357T=\021\263\253\276\375\r\004\276\300B\006>\345\005x\276\2724\362=\370\233\272>\350$7>\276\362 =\316\336s\275a:\333\274C\241\272=t\r\311\275\317\016\206\276\272\233\000\276\207\270\005>\037\256}=Fj\361\275k|0<\301G\177=Z\322\252>\201\346\r\276\274\234\001\275\336\344\367\276\240\252L\275`\301$\275\300\216\312\276\027\370v>\307\270\210\276I\316\275\273\t\346\264<\353\1773>\242\251\027>\236\335\205>g\235s>\201/\333\274\361\331\017\271&?\377\276I\234y\275 Y,\276\250.->4\340\225\275d\372\025>\2022\346\273A\340\021\274:\237\271=\312\014\356=\207\357x\277W\262\262>&\214!=\262\332\n=\3110\366=\210\237\223\276\\r\341=\341Q\207\276\257\276\244>\034\361\221\275Lb\242>U\213Y\277\235_\350=\307\315V\275\022A(>{\251\004=\312\212\340\274&\301\203\275\357\005\013\276\3239\315\275\000\201\223\275\010\306\034\274Z\226\313\275o,\333=\0257B<\363\376\230=  \265=\351i\224>\375\2354>\334\037\211\274:^\020>\034T\222\275\354\203\334<2\321\232\276\347\003I?7\017s\275_\200\334\275[\251\177;\221\250a\2763\026I>Y<n\276z\353\217<\260\247\025>:I\244\276G\035\365\276o\260\002\275n\331\213\275W\351\017\276\266_\r=\004l9\275/\213\033<\321\353I\274\367Y\344\275\363\355P\2755N\233\276\206\351\301\275\216\3228\276\211z)\276b\342$>\273E%\275\270\365\204>\365\241H\276Lcr>c@\336\275+\376G<0\366=>\336\236\343>\233\034\331=!\241\206\275\023dv>s\242\023\275d\t\265\275\312\315\036<\214\315|\276\244\255{\275\332\032\027\277z\\\232=Z\023\030?Q5\361\275\343g\'?\027\355\201\276\335\233\221\276&\034/>q.\270=\014\333\245\274\'q\220>\207\225\231>s\254\343<\326\345$\276\207\305p=\031]\325<2\271L<\245\230w\276#\200X=)\002*>\031\321\035>\345\237W=\336\342L>\257\334M\2772T=\275\007D\272>\350M-\276^\035\314>\023\316\"<|E\255={\350\"\275\273\237|=\037}@\276\374\341h\275\266\215^>\200$\302\276\237s\334>\006\266\364=\347\246\033>\t\344\177\276k\254\202>[\372\017=\342\004\271\275\3367\363>\352\314\316=\351&8={\303\371=\031\342\216\275\274\252\240\276u\017\017\276\245\n>=@\316.>s\353Q\276y\000\215\277\'s\"=\324>\214=\225\352f\275=+?\274\204<\264=\202\237u>\316\035\300>\272&\013?h\321)>\t\236\226>:\253I>\021$\000\277\313#\220\275\323;5?\006\277\032\276\322\367\211=-\223\276>\230\014Q>>(\025>N\037\326\275\212A\025>\223\264\320>\277\017\313\276\316\373\234\272@\001\263\275\221\260)?\337\245z=\301\364\013>\244{\016\276\316\261\266\276l\301\\:\340c\321=\251\213\235<\227\202\234\276\200?\022\276\016\260\265\276\0369\003=up\271\274T\257\332=\271\205U\276r+\220\275\"\200\375=)\202\021>\275\017\374\275\310\032\256=\232\276%\276\257\0201\276?\244\002>\020\261\017\276\310\257M>\346OG\276\306\3716\276\246\3653?\203\304\302>\245R\241\2761B\026\276\350C\277\275\255\265\240=\324\033\335=w\0223\276\226)\355\276\317\363\350\275\324;\216<\312\0341\277I\250\303>\334\031c?h\'\214=\230B.>F\257\260\275\320\336\301\276\001\362\215\275\364\341A\277\372\275\256\276\364\372\274<\317\320\253\276SVj<\\\350|\2761\224\261\275\314\034\034?{R\213>\261\350G\275X\200\"\276Z\231\312\276,{\034\277\re\223\273\342\206H>T\2356\277\021\303\017\277@\306,>\242\232\236\277P\214\207>\\+\374\276\rY0\277\241\264\024\276M\235\317\276\036\345\256\275\353\333?>\004<\250\276l0\030\276LZ\030\277\307\274\233\275\2075\257\275\323\237T\276L\246t\276\231\377\177\275\311\003\003\277\210\217l<\241\357\244;\246\274A\277m\252>\275\006|\226\276\374\223\304\275f\337H<\252\223\370>Cq=\276hN_=0\020\013\277&\304\273\276u9\206\276T\301A?Xe\265=\244\204J>\016\267\005\276\337\202\244\276\275\215\243\276\221\213^>X4\016?\322\334\356\275LQ\017<\006lx>\232\254\036\275\373\357\213\274\203\345\244\2762}W\276\232\227\252\275\260\375T\276\226,\003\274|#9=K3\310>\363`\213\276\204\024p\276\035\330n\276\035\007*\277L{\317;\302A\225\274\342\003%\277\211\252\220=U1o\276\tX\276>\rz\273\275\2005\366>T\221\340=\005Z\314\275\000~\323\276`\317\252=\226\305H>a&\254=\374\204\256\276\004\372U?\211\373\325>w\243\026\277\354\032\016\277M\232e>h*q\276\010\253_>\014\004\230\275\257\336^>>:\333=@\251\004\277P\002\375\275\203\361\241>\215\203\371\276^J\032=\246\003\023?]\342>?\264\010{\276\205\377\330\275=a\361\276\240\t\303\275+\t\340?,S\243\276z\217\373>q\377\360>B\304L>E\267\217\276\231\230\206\276\350\253J\275\375\201U=\270\013\210\276m\n\006=\214C\207\276U\027\r=\334\241(\276%\221\003>\254\037f\276\265d\275\277\235\037R\277\201\331\224>\233l\314\275\347\257\364\275\000\214W\276\330\230\376\275u+\222\276-\215\023\275Drm\275\002\372\342\273`\265\002>\223\345\234\275\036\206\206=\031)\361=JNv>\252\267\027>\022&\033=ePv<\235\021\033=\t\316-<\301`\215=\026^\013>\277\364\242=\206;\357=\202D\014=E \035>\361s\360=\031\217(\275\303\236\303\274nv\376<i\334\355\275\370kC?\007%\312=\0056\014?\362\331\334=vz\271<\275\204y>\254\332\226>\335\266\212\275\274\237\202>\312\341l=I\342L>V\007\306\2755\253\035=\235[\242\276\r\203\014\276\253\255\266\275uI<\274E\224=\275\277-+?L$-=-\341\350\274\304\020\232\275\357\330\025=\277\213?\275\276\177\334=\360\257\014\275G\316\031=\255OC=o\361\270>\2743\207\275\354{\233\275\023\021%\275\036;\214\275\017\"e\275\352\334\336<\315eY>\340O\014<_\332\350=\261\322\360=H\263\027\275H\372\314=#\032_=\211\330\033\275\257<\330=1\336)\275\'h\223\275\366^$=\210\251\003?\370\341\304\274\242\236\342\274\317\245\327=\0169s=\322ur\274\034)\322\274\215\373\001=/r\226<\231\323\344\274\261\317\244>^\301\001\276\312\375\204<\230d\024\276\215\220\017\277\331\025@=\3129\372\275<\2324\276T\007\230=!g\346\275\027\247\210\274Fd!\275\254\213m\275\027\023\216\275\203\351\035=\216\371\260\275\034\243\344\273\245\025\031>\204\034\265\272\202\230D=d\356\267\274\216]\322><\355J>6E_\276S\247\246=s\252\300?k\"@=\317Y\272\274\033P5\276Z\317\200\275\336\203\265\274\305\000\037=\241\216\200>\340qU\275l\256\002<\240\265\322<Q=&=\"\365m\275\272\366\343>\255\275I=+\332\346\275d\304m\275z\210\346>)\225y>\\\321\305<d\200W=-7\306=SB\327=+B3=i\322{=l!\222\275z\005\034>zGn=\321z\033?\207~\232>\206\'\326<v\321&>\325\345\312\276t\243>\276+\\\337=\221\\\247<\257\320\367:ah2<\263\024 \276\347\366\243\275\326;\026\275\253N\225>\003@\003=\262\016O>\244\227\002\276\n+_>\356qS\275\227[\272\276\013\022\236\275\336\364\262\275,\217\376\276\205?l\276\354\263\327<\213\277\031\277\215Ly\272x\352\370<e7\343\275\216g3==\301(>\2335\204\275@p\251\275\340J\266\275 j1\274\354\003}=\236N\267\275\262Q\216>\353\315?\276\007\323\206=B#\307\275\272iX<H\372\215\275\227\231\250=\031\327<=A\216\222=\223\316\213>\036\2745\276p\357\323\275\324$\311\275a\352\021\2753\265\t=\344\201(\274\307\233\n>QT\356<\274v\227\276\264ej\275\177\227\200>\346\303\204\275\214\177\014=\267\236\252\2714\343\262\274\022\r\033\275P\245\207\274\214\3504>\333+\312<\332\370\341\274_!\037\274\261\320\002\275>\266\250\272\300\342\207\275\223\342M<\261K\276=\261t\335\275\310\031>\275-\304`\274\030\342\n\272\360\267\340=Y\202\025;\2079\363\274\255\345m=\206W%>T\217\200>\256<\275\275\323\034-=\260\327\031=\235\014\004>\241\375\037\276\005\002\305<\343\211N>D\017,>\322\025\n>\262\340\237\274d\250\342=\361\327\243\275D\211\215<\2628\225\274\025^\203\275]A:=b\251\037>dc]>D\356I\274\000\025\223\275\217d\304=\206\351\220\275oWA=\322\320\231\275C\314\321\275u\373\'>9\301R=[\300\227=t^\021\276\215sB>1l\016>\250\361\'>\336\277\033:\010\346p\275^J\306<\362\261A\274\220\345\303\275\317\030\n\275\222\203\275>\225\354\020<\"\371\204>@\211K>\243\302X\276\316\340\224\277\223?\315<\306\273\317\276\332\211u\275A\207N>\022*5\277\023\372\231\277.\316\245\275\000l\222=j\204\233\276{=\371\276Sy9\276\325U\274>\271r[>M\361\377=\205\304\302\276_\315\360\275f\342A>\267\305)\277\177\255\\>\334N\005>\324^\214>\245)\204\276\003*u\277-7$>\214\215\307\275\326?\207\275=\016\265=\353\236\310\275\354\345\313\275\301\332:\300Q\337 \300\337V\300\275\263\237\244\276\216&\026\276\376\271!=\357\275l=\374\312\276\275\202;\237>\266\240W\276\225Ku>\336\017\357\274H\344\016<\245\261\220\276\370\366\002\276Tb\';\272\035\202\276\032\375\331=UK\267=\376r\227\276X\032\003>\350\336\221\276Za\307\275\274\325\017>\321\377\275>\026|\r\277;4\236>Q\352\245>I\021\216\275\223\0251\274s\270\301=\rW&\276\323RQ=\373\202\014\275\266\357~=\206+\240>\n0\270\275\2024\333\275\206\211\013\276\306\253\366>\214\376\363\276\2507\032\274\324\2308>\3565\212<\377\035^\275\236-_\275R\007\036\276q\230\017\276@h\027\276h\366<<\032\310\264<\0365\271;\207\024\032\2752\036x\2777\013d\276\347\362\227=\220cy\275M\027I>\004\350f\273U\'\230\274d%?<E\347\036<?Y\357\275\305\317v=\321\037*>\230{\014\275}\222:\276\330\034\233\275_\270\272=\027l\365\275\036^\275<\206\277\224=\035u\036\276\227\344\031>\245[\217\275\030\036\004?\245\330\034\275\273\244\333=\353+\223\276\306\234G>\331\031\274\275 \300U\274\337Q\007\277:\337\335=\367=\316>}^*\275H\332E\275\260\221\213\275\263\273\000\276\033\235\251\275\267p\340=\226H\216\276\203L\346=\"\257\007\277\241\323\013\276\351=\205\275N\202Q\273\217\336\234\276\034\334\227>\211]\027>1\376J\276\r\3006\275\273\t1>\007?\001\277\273\351\224>\360\231\275>\327\'\000\277\205\337\034\275RU\316\277\325\323\200>\314\326\004\277\206\270\354\276Y\215\034\276\213 H\276Q\302k\277\031\362\366\274\355\013W\277\306K\024\275Wy!\275\251\016\'?\363\250w\273\340d\313>\347D\342\276\315{\024;M\002\225\277KI\020? 2\353=\225\223\203\277\212\013{\277$oj>\301]M>Na\014\275r\016\357\276\330\313\r\274\341`\307\275z\224z\277\206x\016\276\273j\'>\340\242\372>qG,\277\325\354\345\277\225\244\247\275\246!\262>\246\336\r\277y9w\277\327:\232\276\240\032\222>\376\005\247=MY)\275\221\224\035\300\277\361\237\276\363m\354\276\255\332R\276[F\267\277\326\374\371=W=\337\275\273\034>=\223]\005\277e\177c\276\261TB>\255%\317=F\317\264=\333\200\343>\370&\221<#c6=\333\003{\275\242\262\210=\234(\235>\274\323\304>+\326D?\303n\247>\274l\266\276\250\022`\276\025\220)\276\207\302&>\371)\312\274y`\260\276\247\207\205>I\375\257>\350H\253<\023\003\024>\202\005\317>\300\334\364>\263\024/\275\244{\311\275\037\300\324<H\276\005?\216%\260=+\203u>?\246S>]+\363\275)\262A\277d)\245>q]\004?1\240\241>\253\222[\275\220n\367\276\343\247\373<\350\251k?\332GR\276\324\325\016?\367\235c>\'\271\213>\220\021c\276D3\r=\204l\355\276\203\226N>\263M\013\275\002\261\372\276\301N\337\275}\313)=\250\274->\224\2521\275\'\306\335\276=:\275\276\276\3341\277\322\'\027>.\3011=\272\357\244\276\350\036#\275+\233[:&1\210>\362V\327\275V+\013=\n\327y\275\211\371\260=\213\224\014>\342\366\260>\356\217\212>3\370\023>\003(\202=D\277h\275\210\033\221:\341@\231\274\201\034\336\2753\310\330\276\265\373\005\275\020~\004?/v\010\277\3653\222<E\310\031\276\275\321*<\204/\201>2j\362=U\206\332=\310\365\022\275\024\236K\276&KZ>\217\215\314=i\334\007=^\304E>c[\224\275\275E\241\276\013\324P>\255n\030\276m\220:\276\270\333\014=0\021\002>\023\334\243\276\025S\316\275\010\023Y>FSs=\241\355\363<\305\204\303=\226\004^?D\212\351\275o\271\355=\260\221U\275/\374\252\275?\227\233\275\362-\224\276\017\211e=\370#\200\276(\350\302;v\260[\275\311\023_>\3412C>\315G\257>2\314\244=\306\364\270=\212O\315=>\034\257\274\263\325\307\274\230\263\355=\346\201[:hD\r=\302\031\010>\016\237\177\276\275\230\206\275!\244x\276\271^\256\275i\243]\276F\235\014\275:p\217\276\377\352\371\274\357l\221\276*\247\003?e\225A<\035\344\237\276\332\264\330\274\227?\273\275Y\262K\276tM\013>\216\257\221\277\330\206\321=8\340\235=\263\233\267>\206\364\345\276\025fw=\345+,>\336\010\274=\311\"\\\276>\343\007\275\232X\323\275\372@\372<Dl\305\274\365i\356\276@d\271\275\263\334\362<\034\263\335=&ml\276\305\275Q;\331O\017\276%\366@>\352@\235\277.#\360=\323g\222\275\034\344H\276+w\266\300\266-\207\276\276C\326=\023\251\257=\322\341)=\000\'\345:\2227\023\276\273\365\243\275\031\325b=\237\027\253\275\367-\322\276C\333\036\277!\363q\274\034&\306\277\365\200\231\276\rv\344\275\371\3150>v\014\350\277_c\253\276\361\n9=\"0\213\276\350\222\336\276|\007\263\276\355!0=\265V\250=\206KU\276b\343\236=\007X`=\316B\307>N\024\307\275\267o\273\274&\357M\276\315\251s\274\036\350\006>0d(=\014s6=\203\025\017\275\360\330t>\033\225\370=:\263\301=A\003\247\275\342\326?>]\315n=\277\n\007>\303=\241\275\230?\t>\250\177\265\274\035L\257>w\226P\275eQ\">z\274\354\276\036\220\264>\276\177I=6\225\320\276\325.\022>\242\r\000\276\253c\026=\r\304\234<w\272\313<\355\337\254=oS\212>2\220@>\322(\315\273\331\202(=\"_\224>\343\365f;Q\347K\275{\340\262\275\260\356\033=\373+,>\tq^\273\007\300\010\276\212\257\260;?|\207=U\226\307=\r\374\323>k\300k>\nP3=\236}t>\316\313;>\211\327\215\274\"\235\234\276\266\261&>:\307O\275L\007\215>\226\347\325\275\223RH>=\211\010>\013x\244=\224{\365\275X\021\212\274\250\352->A\266\305\276\204\232H\276\267\252\330=\376\217\035>\3703\235=LwE> \004\200<\314\376_\276\276\365%<\235\216\271>\342K\366=VE\"=n\346!=R\316\253\276\027\363s\274\362\241\024>\201\364\032>]\263\264\276\366\261\324\276\375\263 \275\324\367\337=vp\315>\324Hu\276\004\314\014>(Qy\270\243\030\240<\350~\270\276\237\022B\276?\214S\275\270t^\276\310*\243\275\3607\351=\262c\352\275\267\323\022=\344\354\210=\326\263(\276}>\317\275\320\274u\273Up\221=\270\304D>\227#\014\276N\374u\275\313\345\346=\\\026N\273\331U\013\276k\345\024\274m\2464<\360\200\r?\307<Q\277\251\304\260\276\210\260?\277v\307\036\276\n\203\336>\201\2071>\370\034\212>i\010\361>\215B\346<\304\346\217\276})\211\275\276\315\206\277(\244\364\276\267\213\377>\322\211!\276/\212\210\276\232\177\321=,\323\241=7\306\270;\340\034\220>\310a8>\376\345\246<\316\362\273\275bJ\005\274Q\007a\275\217(\016\275\3755\307<\365c\006>\0308\200>\251F\242>D\352\313\275\315\227B>\273\2310\277\004\304\355\275\342\212\311>\316tG\276\004*\203>\260\236\034\275{\273\237>_F\\\276\361O&=\276\336Q\276\t\3357>4\316Q>\221\337\243\276Y\351J>\251\007\262;\026\031\322=S\377\017\276b\373Z>\3649\301;\273\322\332\275\371U\013?o\"\304=\235t\211=+\375\002>\233d\302\275\271R}\276\006\373\266\276\213#\253=\353\032\337=\302\035\356\275A]\004\277\210\226c\275\357s\017>\354)\266\273;\025K\275\014 e<\241\336U>\351h\246>!\222\256=\3505A>\201\245\213>\2439V>f7\222\276\267}\364\275\304\217\024?^qF\276\245\0313=5\247\350\275d\037\234><;M>\356\256\252>\247ai>L\303\243>\020\250{>\201\n\366;\007\0045\275\2535\006?r\275P=B\361\200\276cI\010>\331\272\222\275\344\033\351\274\301\251\224=\343%\300\275q\202\244\276\321\005N\276\344\200\224>@ ==\240\024n>\303k?=\025w\333=Q\255\363\274\375L\360=\377\310%=5\327\321\275\316\375\236\275-\003H\275\024\257\302<\2066\251=M\002\363>\377[\207\276)$\244>\266<\264\275]\3517\277G\321\326>W\2012\276\000\351\262\275]\375j\276+\033\375=YR\016>L\036m\275\242\002\262=\313-o>\030\361\257=_\222\244\276t\375\253\276[\260\261\277\333\234\200\275!Q\231\273\037\031\275\275<s\'>\225N\261=\000\340l\277\3439\177\276\205\234\013={A\347\276\2276\264\276\2505\030?\226br\275&`\r=\002S\223>\366\037\215\275\251\277\211\276\256\327\330\276\312\002B<\222*)=\252\306\323=\305\277\240\276\025\371\276\2765\343\026>\210#z\277\346\265\213>\331_\305\276\270\363=\277A\211\024\276r\310\200\276\256\246V\275q\366\211>\326b\263\276\017.\000\276,%\361\276\234\274\302=_~\331\274\362\242\300>\031-\341\275\374\321\235\275\203\223B\276\024\001\235=\221]\025>\367\234\201\277h\321\241=\320\034\034\2772o\n\275o\234\010\276\217:\252>\227\000\254\276\367\035\010=\232\022\304\276\272$\260\276\022\255W>`\357\016?\2241\023\276\010\024i>@\255\223;\333}\333\275Bb4\276rW\301>T\234 ?2\025u\276D]\372=\034\3047<\257\375Y;Z19>\031\300\262\276\341K\005\277\234\3761\276L\007m>\262\273\353\274\034\001,\275O#\200>\3331\225\276Y\232.=\272\367\251\276O\036\031\276\211\272`=\037\036\362\273I\223u\277\325g\274\275\201;\207\276\214\320\242>\231\253c\276^\223\340>\340\215&>$\261l\27527\232\276\001\306\245;\005iB>!z\265\275\004x\206\276\206\256Y?\245\177\254>|\031\270\275\237\0146\277\231\327 \275\267u\236\276\245\365\020>Q\202~=e\234\025>\246z\321\275\362X\215\276\246Y\014\276\201\335\223>\313\236\256\276=\375\030>/w\313>hR(?\273Bi\276\230\235D>5\030\240\276s\313\264\275\035\266_\276\006\356T\276Q\213d>.\255\234?&j\377\275\260V\207\276\237\360\274\276\312\027\244\276\'\373H>!\r\305\274$1%>y\271%?c\337V\276>\020\335\276Alz\276\'\356A\276\315~\020\277\221\r\207\277\340\207,>D%\240\275c\326\007?\335\345\231>i\336\202>\245Q\251\275\363\0313\274\362\346.>A\332\221=\262.\364\275i\374S=\355Z?>\013\204c>\365\251~\276\246\224\256<\231[\020>|\373><t\337\365:\267_8=L\246\211=\257!\205\274\261uE\276\330\213\007\276\007\237\227;G\337\035\277\350\235\213=(\006\227\274\273\026Q\275\220\364\"\276e\303\n\277\212\336\335>[\356M>.\370\231=\253\231\371\275I$\023\276\002\204\014\274h\'\224>\233\341C:\004)\033>\347\3738=U\260\202>\326U\326\274\r\276\251\275\261W\326:\0201z=c\003w<\211r\262=\220^\341\274\021\224\230>\206z\321<y\021I\276\360\023\255>\3015\025<\255\313 >5$\353\273\225\341\342;\264\301\322>~H>=\343\213\340=\213|\204<\023>s\275\221&r\275\300\246\007>\023$7\275j\302/\274\357#\323\273\313\026\316=y\317\305\275J\350\326=\210#V>\2526\273<sF|\275\253\306&=\356\214\006\275\333\331H=u\014\250=:\255\201\274\301\202\340\276\202\007\311=\212\264\212<\006\205-\276\2060\200\275\335l\235\275%\335\262\274\356\253\024=\206\223\n>\327|l\273\276\2318>T\365\321=\314\036\344\274\364d3\274\014\365\272=\014\236D\275]\307|=4;\375=Z\333&\275\206\374\234\275\345\307\017=\225\270\333<\332\242\204>\030th;\177\303a\275\334\342\205=\341av<N&\303\275VB\347\274\346\243_=}4\246\275\227k\211\275\024\246n\276\026\255(>\361\255\247=\234\354\016?\377\235\300=h)\300=9\324X>3\r$\275\315\331\014>\212R@=\334\240\026>\247z\322\274\314\210\243\272\"\021\237=\341\304+>\356\361m=\003\025\273>\315\0365=\206/+<JO\274\275\202Kt=\346\377\347\275\357\234.=\275\214\350\273\000\350?\274<\207\020>Nx\240=\354\222\341\275\036\004\353=\264\362`\276h\315\251\276\362\240\270\276\330\201\356\275\335Ze\275\261\025\031\277Z\177\326>WP\003<\342\355r\276Bv\037<\343\371\024\275\237_\227\276\3516\311\275\340\310\276\275\021i2\275\034\340a\276\266\300\212<\355\365S>\351\240\317\274\231\316G\276*\342/\274\312\255@\276\206j\'=\240\276:\276\032\227\211\276XN\037\277\357i5:\227Q>\277 \340\224\276\237\355\235\275\230\304\003<4\211\t>\211\3572\276\267I\251\275>\367\023\276\311@\327=\227\003\343\274\305\313\343\275L\222M\277z\351\032\276\335\013\242\276z\033p\276\r\256\273\276\247\237\204\276(\375\241=\310\200 \275(\312U\276)4\333\2746\341o=%\376\237\276\222\003\313\276\311\356s<H$\245\276\225\032\032\276\031\303h=g\t\341<\036\321\027\276fs-\276\357\271\201\275y\340>>\325\374\300\275\010\276\215\275\267\332\365\276\257at\275\265?\237=yp\335\275\357\236\275\275\316\014@=\332\003\027\275\027x>\276\272\271\306\274\341\342\260\275\262\r\225=\017\252\310\274g\361\214\275\252\017\227\276\353K\2759W\016\215\274\211\"h\275RH\235=!}\023=\376\022\227>7A\017\277\361\000\003\275c\304\217<p\034\200=\017\235\270=^\217Z\276\370a\366=(\222#\277n\275\2349n`\213\276\371\313\256= \317\341\275\335\233\037\2758\351\274\275`P\031\275H\312&\276!\000\220=\364\304\020=\036\230\037\276\360\352\021\2758@\250\275(\333\244<\304\027\244=\236\206h\275y\250\201=\'\262\376\275\204\253l\276\2739:<\365\363\232\275x\330\345\275V\300\233;A\031\315\276\364)B<\351O\362=\251\251}>)\377\212\275nI\220\275\323\341\331\275t\234\236=\363LD>)_6<\233\343]\275\341\360,=q\252|=\316\333|\274aL\243\277|\225l?A\2001\277\330\251 \276{d\014\300\036\200\221\276\020\343\314>\347\360\301\276\241\272\351<p\'\n>L\334\221?B\350\016>\035|\225\275H6\014\276S\364{\277,?/\277\222\322h\277\302\202%\273\226B^\276\014>\"\277\306\275\201\276\006%\243>+\016u\277MS\253>\273\366\030?\3120K\276\306\373\026\277P\247\245\276oY\330\274r\\\240<\350\354\023\277\2310\026?\307L\230\277M\316\262\275~\026\256>m\203\247=\001\3748\276\302\347\207\276r\374\034\276\336\210\031=\206A\207>\212\320V\275:\264v<4\177F\276\216\004\256\275\310\256\275<L`d\275*J\233>\357\315\334\275\336\212)?=\235#?\221\276*\275\311\370\217\276a8\003\276(\325\213\276?-\254\276CKR>\276\204&\277\001\273\222\276\321\346\212\277\353#\247>\3271\033>s\3673>\031\315j\277\242J\216\276\036\\\034\275/y\\\276\316]\241\275v(\345>ZH\035=3<\301\276\226I\361<\313$\320\275\275\341g>9\243\216>e\230\253>\225d\'\276\371V\314>\020,\003\273\205\374\254\275Fk\212\276\373g\037\276GL.>\256\020$\276\306\210\317\276\220\305\027?V\226\214=\304\017\272=%.\246\276\334\034\210<g\264\001\275\201\315\014\2763\276\215<k\017,>\034\277\343\275\331\225\342\276\022\037\243=\260\317V>c\245\272\275\242\302a=\355\223\205\276-\030\367<\364\211Z\275M*|\275_4\343\275\372\244\222>\215\246#\277\231X\003\276\243\316\203<\266>\202>\304\017n\274\021(1\276\353\361\303\274\306\265\177>)\014\034>\346b\031>\227\302y=\203\202\203>\264q;\273\340\024\355\2744\353\216=\201r%\277\203\310\177\276\204H\037\2764(\315\275\022\013Z>\357\223\204:\335a\320\275\207 \212\277\205\241\201><\025\213\276\203\004\264=(l\307\276\226\035\014\276#\200\234>K\242\030\277#PE\277\020\273\024?a\035\335>\311\014\000\300\010\245\312\276\222\260[>Rt\006\277\334\t\306\274\331\362\314\274\265.\260\300\345W\373>\335Q\220\276\002\020\210\275\215\362\351\275\227\310\201\277\020\250\212<,\224\245\275Z\332\321\2750\205\353\275]\320g?zi\244\276\274l2\277\254\006\215>3+o?\207\354\330\274Kg\036<3}0>\362>\014\300u\223\216=\217\261\370\275\222\370\013?$C\275\275?\0002\275\206\342U\275w\025r\276\313#\304?\307\003\023>\350g8=-#,>Vt\253?6\027\n\277\341\254\372\275`\374\234=A\3420\276\010\\\354\275\341\343J?\301~<\277\263\232C\277-H\\\300\330q\277\275F\265\343\275Bm+>}\367\025?\031\336\210\277\375r\371\275\210,\244\276\0324\207>n\275\230=\204g4\275\364y\234\275\321\352\374>\305\0050?NSD\2767\255\347\275\233R\037\276\347j\032\277\202\034\205=*\030\n?\270?\232=@\n\036><\267\204\275\014\313\t\276\377\037\025\276\272\227p>\013wx=\205\302\330=i\251\013\277\205\2009>\222\320\377\275\201\213\207\272n\310:\277\027\024D\277\361\273\221>m\245\215>\365\232\"\300k\376\205\275\352\017L?\"-h\277\024\324\200>\265\307\243>W^\245=);_\277\3262,\274\277\334!\300\023G\207>,\t\021\277\n]\263>1\223\261\276\344\'\032?\022\021\006>\010\265N\276\320\323\314=\343\204\225\275\235|k>\r\2748?\2605\033>\266\356\031;(=4=\304\230\000>\206\235!\276\236\017T?\020\3160>J2\323=\351\002\230?\010\275\330>\001Y\204\276\364\367\253\273\340\243\246\275\340\251\344\276\316\204\346\274\252rD\276\211\340`\276\346\030\372\276\355\247C\277p\025\240\276b[V>f\031v=\213\033\010\275\325\021O\276\246\237\263=u\367\357>\344]\232<\213\224\214>\010\005\262>\210\007\227\274\201\263o\275\031%b\276a\253\000\277\313\301_\275\300T\207\276\355\366G\276\355\374\372\274\247\237\255\276vd2>\275\226\350\275%+\207\276\224\317\263>h\345\212>\005\3176>\272R\357=Eg\354=\207\304%\275\320\271\362\274kPW\276\277\255\343=\237\350\n\277\267\327Q\276\240\224[>\226l\266=\025HQ\276\204\201\303=\312t\317=\332\007\263>\325F\t\275\2423<>\254+\215>X3\203\275oj\251=i\305\363\274\371\372\214\276~\026\034>\351\210\375\275!U1\277\334\n\217\276Cj\307\275K\242\007\276e\376\277\275\354)W\276vw7>j\266\355>~\327\277\275\022\370\205\276\356\345l>\223T\016<\205\240\005\274\372\235\254=\3035\375<\357*\001\276\352\233\034\277\334\001\330>\211\336K\276\214\020\261\276\313z\370=\323\255\363=0\304^\274\n\230\346\275\n}<>\221BD\276\267\365@\277\314\303,>zl+\277\353|\214\276K8\317>\232\017\347\274\206n\000\276Q\371\314\276\223\3125=\211l\375\274s\221v\276I\355\211\274k\321<>5\312\226>\241!\261\273\343\004\025\2760\014\236>@\006\220>vl\337\275kU\273<n\023\230>#n\316\276\246,Z\276.\300\203\276\201v\351\275\014R.\277\230\237\356;S:;=e\303S\275\2708\346\274W\035\256<M\307\362>pc;>:\243\244>\017\205\013<(\212P\274\tZ\275\276\316\022\374\276\025\353\010\276\213Y:\275\325\212\331\275\357\320\317\275\252K,\277C\310I\276\037\345\t\275 \n\234\275H5\360\275_\031\340\275H\277\225>@\214#\274\351\324\006\276E\273\262\276\034$\334\275Z\013d>C\223\214<i>\366=\024J~=\270\300\203>q\342\n\277\227\303o\276\313\027\312\275\030S\017\276H\337;\276}U\007\276\275\314\266\275\306\247\266=*\376\216=\357\304S=slD\276\325mb\275\3235\326\275\347L\376<F\252\203\276\277f\230\274[\242K\276\234\035U>#;\234\276L\301\326\275\n^\370>\213\263\277\275\370)a<\373\002l<\023\3156\275\243\364\316=j\364\262\275\314~\213\274\323\276\001>\324\355T=\362\206\356<\261e\347\276\3108\211\273}u\242\276H\354O=*\'\r\273\354\226e\276A\370\367\275\032\347I>\326\265\353\274\3458L=\250\"\202\276{h\223\276\207\002x\276\n\223\031\2759\362\n\276\223\365\243\277{\321w\2758\231\225>\242\370\342\275\234\031\037>\022{\177>oO\367=\003\220\027\275v/#>`\313\235<\336\226\331\276\367\0244>\035\331#>\023\005\017?\271\016\237>\\mi\276\"\347b\275\017\n\326\275_\006\202\274\353s\032\276\014\337\014\274\021\226\363\275Q?}\276\026y>\276\377)\036\275Y\254\323\273:\347]>5\342\"=\215\251\244>N\255r\276Iw\022?\270\005e=\r\201N<\322\226z=>\025C=\321\231\230>\254\246\343\276\003\211)>\304\325\343=_\023e>\313\250\344>\022r\373\275\004\347\337>\244\312\270\275\312}\346=\207W\231;\032\353\t\276)\000\333>7\342\347>\214\265F>\330^;>\372 v\274\303xC>w\211\275\276\320\331\002\276<\002\305\276\370?\212>\260\274\004\276F\202T>\323_\257=\371\326Q\2762\317\355\276\255\251\265=\322s\250>\247PY\277\224\335\273\275L\360/>p\004Q\274`\314f>.9\020>\305;{>R9\274\274\353\325\370\276\337[=?\037?\272=\014\203\254\275\343\0239>\247\\>=\305\335\'>=\266\236\275>\177\030\275b\231\262=\351>\214=\233\366\n\274\026\242\001>\350,\n>\023\354\246=A#\021\276o|\022\276\361oi\276\276<\215\276\342\214\357<\310\000(\276\300\374d>6\2229>\232\246\210\276\323\3137\275Y=\230=\026\3718=Iq\356\276\003;h>\377\341\227\274\254\212\334=+\357\226\275\244\261\205\275%\007)\275B\352\261>k\243\007=|\023\037=JS\004\276;2 \276\010C\322\275W\240\211>o\225J\276\301\325\034\274\177\364^\275^\033\361\275\001\204\003>N\221\227\275\311\211\374=\273\255w\275w\327}\275\347\323\212\275\320#\370>N\217\311;s\355\260\275s\023\202\272\312\254\203=N:\002>\273\214\201=?\350\207;\270\237\320\276\371*\272=Z\226\234\275\243\346H=\337\340\232\276\3709\"=nm#=o\323\214\274\367\016\026=\004*_>\026\304\323\275\312`\032\276(?2?\305\020\223=\233\271\302\275\001\334#\276\307\013\004=#h\250<B\r\370\276#\347#\276\211N->9\203\226>\027\347\343>*J\205\275\035>\013=\2356\255<8yT>\021\230l>L\003\354\276\363\374\037\272\207\022e\276h\2115=$X\006\277\227$\377<\207Nb=$\217\347\275\250m\346\274\216{\022>pL\216\275\373\n\215>\317P\314\275\255y\023>\2245\370\276fW\000\277 \311\245>\337\026)\277H\3203\277\335y\222?\277Au\276c\347\300\276\221\363\261\276\357Q\336=\240\233\264>\225n\276=\304\205=\276V%\037\276\013X\014?\t\010.\275x\347^\277\262My\276+\035\302\276\022\022\243=\232~\273>J\213g\276\017w\035\277\235\260m>\321m\220\27680\266>?\001C\276\023\311\206\276\203\'\314\275\274\335\345>\357?\245\276%\207h>\254\345u>)\316\236>\277I\007\277\236.\303\275\\0\002\276\234\304\235\275\013\037\227>\303\030\325\275|\324\222>\267\313\001\277j\320<\275\t+\270>\001\036\242=/\373a\274w\202\204>\357\337\366\2756L\235\274tQZ\275\241\002\177=R\245T\276Vk\265\274\207>\014\277\245\315\223>\372\206\327<+y\001\277gd\177=\207\247\200\276\246F9?~\266\260\276\353\260\032?b\273\257\274\235$0>\244\nD>\327;\223>\210\267\207\273\005\217|\275\350\240\324=Hc4\276\222\262\003>*\375\302\276,\007\244>\273<\036\276\225\241\364\274\347E\026\276\024<\373\276r\023F\276\254d\212>\027\227\233=\352\331\310\275\241B\017?\0006\310\276\225H_>\002K\030?\202\277\261>\036\233I\276|NH\275`\233\'>\244\3262>\223)\n>\202\317\276\276\362\377\205>\307M\002?\363\251q\275\005A\231\275KQ@?\022f\233>\007\301z> V\033;\344\233I>\327!\027>o\256\005\276\377D\340\275\327[\207>\242\354\204>L_F\276}=p\275\0278\316\275\022o.\277U\231\204=%\032\014\276\236eS?\210+\273>\313U\022?F&J\274\271\2515\276\301\200\207\275E\232@>\344\n\361>\332\211\213<\243*\000\277C_e>Hc$\276o\245G>$\023\300\276\251\253a=\2300\225>\361\206\264\27573\250<\257+\376\2770q+?\304\005\336=&$\242\276UQ\026\275a&\030\276J\343F>\022B\201>4o~=M\265\264\27571\327\276\336\371$>y\333q>\205\'\310\276\330I\251\274\274\370\010>k2E\277\252\310\375<\0264\327\276d.\372=\337\2349?$\010\312\276\263\224\001>\320\225\256\276\244\326g=\365\215\036;\341f\241\275\207$\252>\367\236`>\317V-?\342\221\357>\330\004\235\276:\345G\277m\336m>\017\013v\276d$\032\276\264\333\337\271\035\357#=\016\331\206\276\246\013\031\277\377\351\260;\247\330r={\003\207>\'P\353=\003\374\016\276\2728x\275\257\313\254\276\303\336h\2770\001\025>\254*\367>\362=E\2776\375\306\276|\226\365\275,\265O\277\0130\344=\256\305\352=S\025\340>VG\235\275R\305\242>\376W#\276\3777a>\313&\324>\345\n\236\275*K\034>)\3737>\373jA\2769\t\200\276$\301\370=\002M\377=\225\340\256\275r\260\030\276\000\013\336>\251\354[\275>\027{\276\210\311\354>\315\000\362=\332\234\316\272\201\340\030\276\023\267I<\302m\273\274\267\321\273;D\264\301\275(R1\276\302kQ\2742t\323=J\267\031\276\354\240\024\277\250&\376>\312\025\013>wi\177>\347!*>a@\214\275N\246\255=\004\246\\>n\232\200\275\253\3267>Nc\212>t\036\350=\014\371\336\275\236\350e\276b\223\217\276]\310\316<\215\021\262<\2007\013\276\002\316\021\276Y6\215\276\235E\014\277\366Y\373\273E\331\'<V\357\207\275\261d\355\275\207\255#><\241r>\347q\2548\314\037\270<\017\366x\274\\zh=\313X\317>\031\363v=4\364\213<\342!\315\2757t\213>\324\205s\276\202(\273=\373\351\026\276\023v&\276u{\033\275\303\230+\277\225\023\000\274_\367V\276!!\372>j\236M\276\326\032(\276\332y\311<\361wy>\355\244\316=\232\320\325\274\031t\221>\'\322\266>X\244?\275K\231|>-oO\276Lh\227=Uu\250\275b_\036>9X\302\275\361f\375\272\367Z\r>?o\237=\351zX=\340/@=\256\366\300=\360\017\024=\016\027\030\277D\200E>m\266\006>\017\025\300\275W=\371\275\217\265\237\277\201a\375\275\340j\273>\236Of<i\346]\276\003C\367\276|gX>9\351P=\353_\014>\t\265\217=\375\030\370=\276\215\236\274\336F#<\326\240\345\276\010\n;\277\\2)=\332\r\255\275\266\216P\276\023\272\224=\2035j\275\307\325\373>\201\345\253>0\366\215\275\322\367\005?\304q<>\237$\317\276\364\214\233\276)Q\202=\351>\341\275\336|\020<\322U\306\276\245L\237\2739\263\034\276\317\244\373\275w]^<IMT\2761\337\201>\023=\005\277\334-w?\177\033\267\276t\002\326\276\004I\n\2768N*>\',\027<y\301\213\276\201%N\276\267qt=\225\352\250<\030~a>\rH\215\275\242\251\000>v\206O>\204\274\270\2757.\002>s\375\022\277\333\256\205>\254\335h\276\017\274\273>\350B\177\276\361{\354\275U\351y\277\225\026+\276\\B\026>\245\024\217=\346\000\235>-\221\331\275\314\244\240\274\3031\025>\351\311\342<v\303^\274E\2772>\255\232F>\272\244\216\275\027\262\306\275k\220V\275(\036\305=\304\000\267\276\232\025F\276\312\260\223\275j{o\276a\272\253\276\010o:>\245\336\254\276\244\362\205>\226H\202=%\233\200\277X\356\222\276C\225)?\313x\353\275\326\345 \277\030\366\031>2\201\260=>\233P=\230\374\275>\031\306\001\276\223\326\350=\2772\211=~]G=j\231<\275S6\035;\276\265\314\277Nf\261\274:B;>\"\365\177\276q\316#=\2210\322;\2127\253>\241V_>\352\2465\276\201)\365=\332\030\372\275lR\025\277\215l\245=\327\356\327\2751\205\202=X\250F\276\301\004}\276D\214\240=\215pO=\323\002\304\276\206\321\036>\266\257R\276\204I\t\274N\314=>\037\013\'>\n\366&>\0215\340\276w\236\323\275Pf\252>\245\236\206=0\273\333\275\350\031p>\002\212\351>\343\377\244<.Y\227=\207\250$>\355o\245>[/\205\276\032\203\036\277&\236\005\276Z\\S<~\331\223>\246?@\275b\2137\276\000\351!\276\350?R>E\213d\276\373\020\035\277\013\243a\275\014&\201=\324\021\306=\276\355\266\275\231\330\034>L\230\277\274>\324\240\275\033Z\257=j\362\\\275jx\277>\201\360U=\0309!?b*\332<\321\320\333\275\341\344\021\276\002\350\257>\261\344\360\274}\032\203=\n\022Z\275\'\326\216\275\252\362\246=J\3301\275g\211\016=15\305\275P\225\207\276e\335C\276!\273\361\274\350\343\277\277\231\037\317>H\234\330=8\373\370=\242\357\305\276\302\341v>\264C\035>\315b\233\277\006\222\274\275\226\246\014>c\374x>\260\020\343>=Pk\276\373\376\331\275T\003\026>W\347\t=7\177\326\276\344\361\016\276\242\251\351=L\000w\276\302\277\'>:-]>\305&\027\275];\261\275\276E\017\274\034b\300\276\227#\254>\005v\r>\302\323\222\276\3525\306>\314J!>\325\310\254\275}\243e>S\346\004>\375\r\030>\302 \356>s\332\231<\300NL>yH4\276\300h\376=\251fr\275\240~\265\276D\225X\276\003\2736>\200eh\276\035\037\213=\374\007`>@p\267\275\307\323\005=\t\265&\275\236\2615>j\315\212>\235i\277\275\233\346\260\276;{\311>$\201{\276\336z\370>;-\\=\375\214\252\274\314R\230>fX\215>\360\350\353=N\362\031=C\237\007\275B@\305\276\317\220\200\276\274\013\207\274B\321\024\277L\327\204\275fo\271\275\301\205`<O\320\304=.\266\210=\214d\301\276\226kq=V\205\230>\330\265\314=\271$!=|\001\024\276\027\350\364\274\367]\214\276\320J\362\275\223gj=}X\206>\247\302\010=\030\321:>\235[\306\276d\0301\276\230k\203\276\302\261\366\276a\352J\276\313T\347\276.\363\024\275\0300\030>\023\036>\276\352Z\357\271q\332\271<\212\374\000\277\024\323\256<\007\252\273\276b\346\357=\222A\233\275\365\347\320<)u\252>x\361\275\274\211De\277\342\362\224>E@.>\217\334\\\276\331\204\362\276\252\020\313\276\221\275s;\034jS=__\344>\251 \365\273\253\250@>\317\023\005\277\020\273_\276\273F:\277\374\352?>\322\004\031?\004\013k\275\242,\'\275q\336e=\277~\016?8B\003\277\010\231\366\276\2203\243\276i\311\217>\265M\n\277O\360\216\277\314\033\266\276E/n>\273kM\276\216\357\237>R\324\331\276\021D\324\274\222IC\276|\375\300>\311~\213\276VK\003\275\004\006\333=,\374\226\276G: \274\'\216W<g/\246\276\t=\364\275\266\367\n\277\266)V<#\214s\275\225\026s\275\022\253\247=\375\261\023>8\325\377=\323\247\021>\326\277\241>\227:H\275\233\262h\276<y\261>\352^\212\275\275\332k\276z\210\000\277\261\306\034\277\253\031\001\277\355z\037>\033>\314>\200\t\371\275\353=\212>\355&\214\276L\201o>\304\tZ>\371\237\033>\323\362\277\276Yq\222\276_D#\277tu\336=\233E\024>\312\226\"\277\020i\216\275\303\315\002\277}\330\360>\250V\326<[\275\206\276\375\254[\276/E\310\275\300y\226=\371\006\006>\374\351:=\370H\251>m\301s?<\373\271=\233\274\346=\2379p=\017\361W=\0200\251\276\270@l>\213#\255>\363\302F\277\2306\025?\035\214\361\275F\023\231>\230\243\314>\2660i=\322I\304\275\222\211\n:{|\227\275\333\036\311\275\311a\206<\223/\241<\243\273m>\277Y\220\276\234\322\341=\2618\030=z\311\006=+\316F>\352\004\204\275\033\225\014\275\010}k\274\231\334\225\276\276\302\271\276\212/\230:\004&\033\277/\303\270;\350\326;>l_i\276&\375\253=0\036\310\276\241@\027>\230\330z=t\271p>a\242\027>Ym\351\275\311\341\203>\375\037\312=>\000\264\275\016\254\203\276(\\g\275\347\037C>>E\272=J\342\324\275I\366\221\275\031\3525>ex\246=\334\367\016\276\247 \322=-\035F=\247\270\347\273\333\227|\276q\263\220>\303\276l=\234\371X\275cW)\276\204\300\344=\312T\310>{L\203=%m}\275\300\277\335=\347-\352=\2503=>\232\333\215=\333\314K=< \376<\231L\231\276\253\323o=V\203\221\276\311\242\313\275j~\010>,~-\275\263\010\203\276\216ej\274\232\364\252\276\217\350\341=\373\"\273>\343\253\235\274\322\361t\277\237\000X\276l N>\272\352A\275\245\"7\276\371*q>BM\002>\244\345)=\025\317\";\204F\202>4\037\224>\'n3>\032\210&>D\3404=\240\027\233>\346\225\010\276\036c\251=\205\rx>\372\377\243\274K*\362\275\247G->Il`>h/\003>\274 \034\276\25747<y}\276>(2\232\276-\270\211\276m!\023<(O\177=\355\274H\276\252*\247\276^*U=Q\240\032?\266\231\345=6\306\312\2761 \n=\234y\301=f\336\316>\n\214r>\214\247d>\007;\366\2758S@\276\230H\220\276\330\206V=\303\233\306>\001\201$?W\351\255>\265\032\201>\336\320\000\276\205\374K<J2\320\275-x\025\276(B\221\276\3014M<\240\330\260\273G\315\001>\033+w>\274\262\035>\036\334\365\275\025S(>(J\245>c\356\260\275\336\233\035>\301\321\206\276q\366\315\276_\270c<\250\221\311>e\253\303>T\247\013\277\"l:=\234O\361=\\?\004\276\366\375J\275\313P\274\275\006,\">\245l\252=(\276c>\234\332\264=\266\365{>\330\313\204\275r\203\340<Q\302\006\276Xp\036\274\002\\\217\275m\201\"=\343\337\362\273S\302\314;\273y\360=_\027*\276\021\206\323<\247^\017=\205\274h>\345\253\205<`iB\275\225r\250\275|\t5\274\236\262/\275\272\352\257=\322\332\016\275C\205\335=\311Z\360\276n*\256=J\005\363<\245\0261\275%{4=\211\274P\276\013t\201\276\343\377-\275\223\007\355\274\366N\361\276!#\211\276\230\362\213\273C\004c\276\345\360\241>\225\347\305=\003\240\220\276\254x\222\275\n\334\302=\317\360\t\276\242\3728;v\241b\275t\370^\275\030O\252\275\204\312\231>\025\224\200\275\034+\241\275\003J\035\2771*\304\2758K\326=\252~T\276\307\321<=\247\257\266\275\372(W\273\346\020\276\2759\205\354\275Y\304\000\277Zo\005\275\024KC\275!\2239>\337\264\033>\215\336N=\270\360\026>\306\r\t\277\213}\034\277\212uL=\n\254\300\274\305\032\026\276bj@\276R\203\245=\372S\273\276~\237\323\275\264Y\306=1\013\224<1x\t\277\274\235\206\276\216\307<\277|\201\032\275F\226P\275\256G\277=\207n\230>\n ^\277\354\354 \277fj\030>]{\353\272\306c3>\224\320\343\275\021\021\"?m\207\356\275\002\003\264\276\261\016\337;\375Bw\275\354\377\226\276A{\202\275\005\360\305\276\271Rl=\025r|\275HpG<\007\332\\?\344\205\026\2750S\204\276\346\272\332\274}D\r?9\232~\275\254\024\204\276Mw\014>\321i\246>-\010V\277[\001|=\312\213\332\276\221\344\246=+\366\025>5\373B>\013\2426\276\2253&>\337*\244>O\253\202=C\301\367\272SQ4\276w<\371=\251\r\017>\344<C\276\004%\372\276\330\235~\274\236?\355=\376\351\r\275\3235\225\273\360\302F\276\3615\014>\035\230\032\276\n\315\206\276\3616\244>\274\313$=o}6\277\246%\330=KOE\274F[\221=4sR>\314\264\244\2747\002\006\276\256\277\007?\365\032n<\274\306\033<\245\351\301\275q\357\312\275f\302\241\276\013\314\213=\\RV\275J\307\316=\032\014\r=\241N\322\272\215\004\007>\014]m\276:b\321\275\257\2329=\241_\374<\n\224u\276\246\301x>\351\"\346>x\305v\276\351\372\340=:p\246:\202e4>\244m\277>\357\220\212>\356\236$\277\353\023\234\276\222\337x>\310n*\275u?+>\020\3622=/\271\265=\267\021\026\276\t\301\372=\373\260\346\276\250\254Q>\361a\367\275%\370\257=\017\270\020\276\213|R=\245-\344\272\3125*=xY\207=\230\324\317\276\200\237$\276\352\327\246>\272\244\214>\316\332P\275\307\032)\276\364e\027>\266Qw\275p\374\023\276k\216\221>\023\346\300\276!\362\267\274&\252\270\276e_b>\002\232\210=G\274\200\275\332]N>e@d\276m\321\354=O\2418\275\316\213\220\276H7\025>V4\025?\270o\n\276k\374o>\351;\250\276Kp\270\275\215a\031?\261\306\367>\r$\221\277D]\344>\341\317\301\276\266\337\002=\307\323\267;U\001\004\277\211[\263\2767&{\275\353\270\345=\273\216\023>\206\3365>\271\035\322>\200\351\026>\303\265\311>\013\t\261<e\201`\276\000\321D>|\3201>\322L\343;!\3573\2751\213\221=NN5?.\026\r\276\005t\007\276\273\007D?J\271\024\277\235\312\360<\t\262\t>\225Js>0eH>\330.\256\275\200U\253\276b\036\020\277\301wq\276\233a\275\275\207Xn\276@G\222\2760\014\333\276\371(`>\224Ej=\023Rp\276\263\017c>kX\255\276\340\241\276\276w\211^<TZ\241\276\257\024\257\276S\260\211<\322y\273>>>\276\274+vQ\275\205\362\303\277\305j\305\275\362\204\004=\247\2202?3\213\342\276\nC\230=&S9\276\261\307A=\325q\036?\322.\232=/\r\335\275\234\243\004\277\370\022\250\275\334\234\250\276X\244\243>\355\310\207=\020\366\243\274\230\375Z\276m\204U>\261\225\002\277%\034\206\2774\222E\277\267\361*=\226\372\237>Z\026\260\275e\014\320\273A\036h\277\031\273\257=\351\273s?7\267>?\t\200\330\274\347B\320\274\310\334\202>\0147\023?\374\252X>L=\351=<\004\207\276:\"N\277\261\227\302<X!X\275~\033\215>%\371V>]\034\344\275\357\214#>p\224\250\275\233\276p\276f\244\347=\343\037\343=\267\227\200\276\314N\215=\2712\303\276`\010\227\275\235=\277=K$\027\277@\374d\275Q2\002>\\i\340\275\352\016\025?AQ\237>i}\201>YC\r\276\313\360\213>\341\375\303\276\253\267\001?\323\003\202\277\326Jc\277-\336P\276\273\010\032\276}\034\302>\251\016\264>\267U\002\276\200a\222\276\030RW?\014\346\340<7x\005?\013j\016>D\350\212>\2118\306>\254\270\221>Uxv\276\305\204\317\2765\177B?\256?\r>KM\226\276G5\304>p09\276\263\211\350\275{\370\036\277\230M\210>\226\021\216=R\377i\277=\370\005\300\354\351\023?\265^@\277\346F\\?Xy\375\276O\334s\276\340\214\024\276\n\370j\275\300\202\356>\3014%=V\214\212\275\235\236!>\366\346\005?\232\232$?~G\300>\262\315\260:\233\203u=c!\205>\311\247\225>\215\352s;\250\006\273\276\351\256J=\376\277\320\277\"\276\237\275G\364U=\014\026e<\377\3224>\300\214R>\314t7\275\317\251\231=\275\\\315>\345#<?\nK\340>\316\263\342=*\202\221\276\034\"\226<\213/y\2761n[>\177\034\034\277\006\237k\274\251\276\017>\271$V\276\335E@<;\026\360\275\235e\343\276O\374\224\276>(O>8\344w>\324$\014=\346\315@\277\006)\013\273\271\340>\274\003s\001\277@\026z\275\331\370T\276u:\337\275!\023\253=Q\240\353=r4\021=\214)\204=\210\360\247<$\374y\2769\306\265>\005`\r>e\365\337\275\310r\370=\274\370\315=W2H\276\266\240B\277\365\210*\276\246\262\322\276\350\n\316>4\343\241\276\370\345\016\276\356L\330\276\016U#=\354\376i=\323.\237<\346\004q\276`\037\273>jX\352\275\010]\004?\000\001\223<I<\311\274\365\t\221=\217\303\2559^\314\035?\247\3326=\260J\217>\365\274\376\275\362c}>\217\236j\274\201\246\207=\376`\020=\205\205,>\334\370\315=\273\334\262\274\005G\001\276\017\025]\276,\r\374\272Nak\276\252\276\205\276=\217\022\2743\003\316=\275b\350<\334\230\324\275\2126\367<\336O7=\262\333K\276\327?\243\276PX\315=\276\234\242\276h\366\221>\355\0324?\036\023\326>\255\267[>\237\272\020\276\017\315o>\316\366\343>z\212\222>\034r4>k\323q\276\303\340c\275wQ\214>\266g&>\306\2004\275$\002\334?\376\267G\276\231R\001\276J\262\">\254\t\223\277\331\321\006\2777\3524=\347\224\030=\321?\261\276\024\022/?\355kZ<\014\000\340\276\300\230\n\275Nu\203>\033\022d\275\245\272\335\277\353+)>]\244\002\277a^\200=9\033N\276\320\337\224>\235\025\036>\213!s\275@G\257<\261{\350\276\217\230t\275\225\266\202\275\365\267l=\221e3\277q\2063=\345\202\210\275\356\022\242>/\243G\276t\177\031<\\D\237\276\247M\376\276\352\230\231\276\303Aw>\253\002\014\277J\031\332\273\313\361&=\313\356\236\275\215\375O=\216\264\014\276g0\353\275j\177\222=\324\033\233\274\003\347\003\277\234\336\224\275\252\217\207=|\003\025;S\331\235\277\304\245\243\2761\017k>m\265&=\027\276\272=\233\202\020\274\323Sg\275\234B_\276\365\231\024\275?H\230\276\022.\257>\310Rk\276\323\363W\276!\347\001\276M\271\345\276\202\326\t\275\245 \205\274orn>h\241x=\365\316E\276)\233^\277J\304\213>\250\037x=\201\241s\276a\267x\276\242[\023>\313\354!>\333\026\006>\226\\\251\275@\203\236=\250\257|<\366t\024\276\331(\177\274\014\332\230\276\0133 >\307|y\276\306\024\360=\257g\017\276gO~\27451z\275\324\327\325=q\372\231>M\362-\275\205\235\234\275q\\\226\276\214;\\\275\341 \232>\314!V\276eR\325\2744$Z\275\031\361\312=\273\332\024>\273\333A\276\361\333\312\275H\307\026\276\275Y8\276`\3633\276\246]\252\276\345\326`\275\364G\353\276\360\221]\275\370\220\237\274y\206\220>\354\0323\275\251\336\306\276\310}e>f&)>\376\036\307=J%\204\2762S\300\275\244\207\201\276\023.\022>\r~\257=\311\355\024\276\027/\242=\2757&>\034\345\364\276A\204\t?w\005\232?\t\220\021\275\341\204q=)\000\000\276\234\245\312\276\030$\212?\004\334p\275\2565\016>\022\177\223\274\246\215\006\277\221 .>\366a \276?B\202>&\250W>H\377T\276,\036\242\275\206\273\374=\0316\212\276\243\272\277\276\240\357\356<h\375\335\275lD5\276C\345>\276n\352J\275\230\331\322>\'\253\202=\207\026\242\275\010\305\017\277\345\250\345\275\230*\210=W\005\241>\232\305\003\276\211\306\364\274\'S\257>\214\202\324\275\271\303\306\275\220\021\035\276\251F:\276\307\250\025\274\215@\343=J\3311=\334\241R\276%\322\n=\3630h\276\254,#>c\td>\233N\033\276:\034y=\200|C=\022\264\264\275`\375\274\275\207\343\253\275\006\027\217\274\274V\307<\303|<\275q\336\361\275PEC=\303\256\271=S\231P\272\030\260\367=\364\274\n\300\231mf\276\231?\217\276\004\341.\276\376\3134=\000\277\340\275\177\007G\2764\007\307\276EW\201>>\272\034>\3733\026\276\364\203\355\275\256?a\276p\032D<\244\230 ;\357!{=s\265>>a\024\342\275D\227\311\276\244HP\276|[\276\276\272\n\206=\303o\033\276\264a\233=\000(,=\037\237\276=\317A\014>\265\232Y>2^\312\275\265\263w\275\013\236\t>\024#N<t=\216=oiC\275\210e\002>\213\367\232\275\027\022\216\274X\211W\276\014\010\330\275ygs\275i2u=J*\305\275P\257^>\245\253S\276\346`\361\274\243|\204<Zh0>\313M\364\275y#O>\331\214\010=\343\242\030\276e\221\211<hO\234>M\257\211\2771\276\277\2752\377F?\302\302\370\274CN\217>\007\347\244\276WQS>\021o\306\276\332\031\322\275\254_\354=7\000\377=\255\346R\2764\207M\275MJ\305\2754\325\030>\337-\211\276\360\260\304\274\356\300=\276\277\021\033=\203W\212?#\272\203>\355\263\223\276\373\r \276:\342\240=\n\036\373\275?\370^=\205_\320\276\213x\310=y\342z\276\306\252y\274\004y~\275\202\013\273\273\340\001\267=\246\'\311\275\354S\010?\036^\270>\n\355\265\274e\025\245>\256\306\271\276\277f\305>\330[t>`\026\351<\314\364p>\202\026D>\313\373&>T\335\251>S0T\275\272\320\321>*\023m>r\377\237\275\301\001\350>\027##=\030\214\226\27348;?\021\017\372\275\010\177\241=Y\343\211\275\255\'\253>yq\300\275!>\001<&=\022\275\265tU\276\277d\241<\303N{\276S\021\340>P\315\275>;,\217<NA\020\276\232E\004?7\'z>P<\231=]\006\342\274\375\001\240\276_f\233>\266\220!?\'\243N<\001F\017\276*\237\255<\005\226|?\'\036\262>\312\264\275=\377\001\207\276r\352\354\275\254\251\254=\257\254-\274Ua\241\274\354\334\372\276\354\314.>B\213\244>\331\246\006\277?O>=\370^`><S\362\274-\346\031<I\nb>X$->\304:\227\275YW\245=\332\274\206>\316\277\370\274\013\334K\276\0253\327>Z\273\022>\324\"w\276\320i\237\275s\202\234=\032)S\276\255\014\377\274\357g\256>\260\340,\275\260\021m\274\003\242\203\275\241oA\276\340\342\245\276\231\2225\276\344\263\213\276\017>\'>\243\t$>O\214\320\276\266m\331>\315\307\233>\320?\205=\354\020\025\276\242S\250>\220\237\253>M\343%?\313ht\275\202p\271\277\205\014e>\276\"\343\276\020\320\221>\010^!\276\'\215$\275\335c\354>\342\262\r\277\n\230 \277e>\377>W\354\254\277\313\212k\277\217\3758\276VL\226>\3413\237\2754\271\020>\\\250:?\255\3408\277t\254\222?\332\016Q\277\3609\365\276\364.\222\274x\240\304=\354\034\260\274\324\246\030\275\310\370\324>\261\363\246\275u\225H=p[\'\275\317\323\377\276\242\343\324\276f\301;\277u\005\224\276fV%<z\324\270=\374\024\204\275\014\256\032\276\270`\206=\325\021\202\276\232M\310>\222\300I<\003\303l\275CR\313\276\322\022\017\276\221K\204>\211\220\223\275\030\032e\275.\274:\277\324p\211\277\027\\\314\276\241\201\215>W1H>\007\262\266;>\036\032\275\032U\313\276\352\226\r>\225\014\036\277\377\260\276\276\352\027\362\275LM\035>A\342\037\276\026t;\276\231\350b>\255\002f>>\010\314=\010o\n\276\263\301x\276\202\363\300=ta\364=\230\3542>l&\376=\226W\">\251l\201\276\303\327\t>a\215\022?+2\261\275\037\377\244\276\303j\013>A\3247>\302\337\220\274\251\033\326\275\243\320+>\373ho<\025\014\002\277\020f\245\274e8\225\274\240S\235\276\027`\240>\220\r\232\276.s \275\361\022->\334\007{\276\313pI>\2047.?\312\'\252\275=\353\'\277&\323G>\356\241\005>\304\370\231=\201u\241\276z\354\223>R\\o=^Ii\274\264\243>=s\353q=\270\332\210\276\315\275}\275|\256.\274ff\242>\354-<>\336\3174\276l\362G>\212\205A=\254H\243\274\356t\307\275\373\354$>kp\251>\213\302,>B\344\370<L\037\007=>i\020>\343\371\010>\272\321\325\276z\252H\274\251:\314\2755dq\275\370\236\036\277j\000u\277I5\220>\256y\374\275\370\363c=\274\361\265\275\210O\312\275u\201\324>\306z\020?\0212,>!rO>\250#\r\277\021\0043\275v\n\031\272~xZ?\253\250\220>\224\223\365>|\010\035=\217\272h>\n\247\351:/S\265>zK|\276\023\251j\276.\r\312\275+\374\317\274\273\207\223\275\251q\265=n]e\276\026\3726<f\210\006>XF\217\276\210\207M>\2065\177>O\005b\276\272\025\254\275ZS\266=%\324Y\276\231\231$?`\367K\275I\347I><\247\312=\033\310>>tvM\276jIL<\022\341\206\276v\327\025>OsI\276\t\024\013>\253\253\244\276\340\272>>\200\201\t\275\223\212\212\276\257\222\177>M&\371\275\251~\240>\030\221+\276\233p\007; \356s>:\316\372\274\340\212\261\275w\370\025\275`V)\2764\r\233\276\337\256\363\274%\n\302=\"\334\026=j\022\275\275\267\254\323</\276,\277\312\374e>\254&\231\276\032\010c\276\325\2404\274\3610\343\274\205\035\206=P\342\035\276B\256\244\276\261n?=[\034 \277\226\260\320\274\003\332\214=\374f)\275\252Vk=C\336#\276\344\033\t<l6b\277\313\305!\276\227\360\t>V`f>\324x(\2771\241\317=Nc\206>)\r8\276\255\274\202\275j\374\226=\344\004\006>&D\317>\275;\374\275\211_\216=+L\207\275\344\204\016:S\245\"<\335<\\\275\235\3540=f\312\022\276\r\031\300=\227\336\262=|M\361<K\345\005<\355|[=\010\304\212<\320\246\013=\314\372`\275\030,\212\2757\026\361<\026\367[<\222\247c\276\233\261&\277\024\322\305\275\316H)\276\350\353 \276:\017\217\276\367\346->(A6\276\234o\201;\227\224\266\276\231|\373\275\027\033\317=\032\030\344=\233X\027>\335\200\245\276\304\272\256\276\n\311\332\277I\252e=P\333Z>\345\255\303\276I\347\306>\021}\250<\303\020\331\274\366~\032>\002\247\241\276\225\342\212>\034A\366\275\340`\274>\177\316\371\275\360m\343\275\201\222#> >\007=\363.\230<\272*q>\244\312\003>\342\236\017?\262Qt=]\255\326\276\357\316X<!\353\001?\314\231\302\275V3\007\277\030\374\321>\246\345\361=p\022\226\276\017pV\276\023v\">g`\247\276\230=\022\277\270\257\271\275\026\036\240=\235T\206\276\235\354\264\276\252\326\010\274\013D\202\277\342\341v>\267\250\203\275\365X\253\275\343\035\210\275\344\241+\276\221L)?\250\350\020\276\3263g=\003\242\253>\240\270\241\276\230S\007\276\253\2502>\014\\z\276\365T\272\275d\204\354=\335i\333\276\2352\030\276Z\020\204>\242~A\277\263Hz:\014/\304\276\031\375?\275\370(\315<U\315|\276\344\331\232>S z\276\210\020e\2752\200\303=\365\315\363=UJ>\275\313\352l>\004\003.\275@r\032<V\332\345<1\341\034>*\236\224\276D\010\301>\303\246\321\275\205q\222\275\234h\242\2751g\210=\362\021\350\276\257\237\316\276\316>K\276\214\354=\275\'\334?\276\237\002\214\276-Q\345>\275\330\'>\237\212\301\276C\271\221=\363\232\340<\003[\255\276\215O\230=y\273<\275\332\000\205=\352\376\344\275.\017\336\2767c\241\276\022\207&;\334\211a\275\224C\001\277_\374\023\276(\254\371\275\275\034\234=\200\0023>\233e\311\275\366\3220\275VE\031>:\355\017>\\\231\366\275N\203\330\275]\007\'=\332\215I>Y\321\244\275\272\216!>\037\336\232\275\021H\337=\246C;>\301\025\343\275pk\r\277\217\225\315\276\350\240X>;\347\004\275VT\262\275D}\325\275\237{\272=K\264\204>\235\023\037>\377\317\231>9dD\276\363\017\213>I\370G\276\274\266(>U\205\034=\321,\345>o\3636\277\"\005j=\017Ad>(<\254\276y\tC\276\017&Z\276>\353y\275\247a\203\277/\334\365\27582\002\277\027S\223>\355\367(\276\372\306\232\275P\336,\277\217\331\020>\3612I?;\3659=\326\220\366\275\356,s\277Ka\322\274\267\277!=\276\315\333\274%\022\270\275[\364\360>\377$\\=\2171\324\274\365\364A?\272l\213>\360\254\255<\261\370\211?D\323\214\275\246s,?q\302\373>\231S\030:\234\007\256>\243\327\216>\263\'\351\274o\253\230>8\316\215\275\r\273>?9p\333>\311\203\255\275\366\004\n=t\270\367\276\rG\230\274\267\352\234?\020\003\002\276\321\304j\275\215\022\212<\345\250\311>GS\236\276\270[\033>W{\267\275\317\030\034\277\231\233\260\275\203\027\022\276\t2A?n\265/>\357(]\276\\\226/\277_\0078\276\213\307\"\277C&c>}O\306>\355\273\350>\002\267\310>\355\256{>kyJ\276\024B%\276\362\205\270<\3228\026=\254\341\350>\213\204\262\273\003-\034\276;p\225\276y\tU\276\030\005\232\275;\260\220\275\324\250\023\277i\337\216>m\355\277\275\316\n\373=\356\302\202>(\037*\275\224\325u\275\304\215]=\177+!\276\347\275\244;<\256Y\276\272|\030\276\201O\232\276\247\n\304\274F\232\364<RS\317\276\310Xk\276Z\037;\276\214\037l\275\240\336\350>e\303\016\300\30789\276\030\220\337\276\264\010\374\275}PZ\276\273\235e\276\342\017\377\275\016\361\333\275O\270\200\2740\267\026\277\237\252\221>L\376\014>\362\217\\\276\034\354\327>6\017w>\315\257\265\276Vg\\\276\374T\326>k\217J>\264\267\340\275d0\002\276\301q\031>\277\232\243\276-\340\006\277\231\356\n\276J\342\243>P\247\220>\231\225\307=\376\006\360>\273\261\017>\035o\t<\t\311\201\275\201C\217\277_XR\274\372\315h?\204p\206>sOV>\254\305\262>D\243~?\367\316\016\277z\203\201=\034\223\007\300\036g\036\276\311\362\211;\004\024c>\265\037u\274\315k\353;t\202M\274\301)\n?\331\366\343\275\361\330&\276\351\177\216\275\200\2201>\276\013\212>J\220\n\276\'*\204\275$\264\021=7\260,\275\245nR>\326\026C=#$\323\276\005\247\244>\235\366x\275\006\326\307>EcK\276\303\210\240>\031\017h\275&\343\207=\206Q;\275\020 \355=\271\333\024\276\0319_?\366~)>?\314\203\275\004.b>\350l@;\271\246\010\277\225\336+\277\336[\245<\347i\222=\303\247C\276\363_\201=\2247\222>i&\003>6\"U\275y\177\326\276T\362\250=\3459\203\276\320d%>S`F>jj\271\274\177Z\260<\035C\206\2761\3556>+\320\213=\034\014k\276\262\033\214=\344\272\021\276Y\210!<b\375\023\277b>r=\243\310\242\273Rf\344<0\n@=\270\350\364\275\200\335\210\275\023e \276,\314\206\275*\356\340\276\270Zt\276%\376\366=\r\216\242\274\007\207\025;\264o\331\274\375\320\254=\233v\241\275\260\225\022\276\215\260\373\276\023\331c>\365>K\276\356u\307\274n\314\304=Br\031>\376\214\343\275\322?\000\277-Y)\276)<\367\276\007\272\224\275o}(=\346\001,>\244F\220<Y\251.=k\\\025\276\3436\265<\274\3251>\213:A\275\222\377\027>\362+5>N\342\221\276\353\237\177>w2\221\275\025\246B=\3736k\276\324R5\276\337\350\220=\030\324\360\2750\362I>n\027,>+\313 ?\0377\256>\305\016\250\276>\237\270\277(\344\320\276\376*\024\276\003\\_\276\t0\315=\211s4\277\240A8=\007\037\006\277\013\235\002\275[\245\244\275x\205\007\276o\251S=\021,\216>H\004\r\300\021P\001>\274\034\214\275&nM=\003\364n?\362\241\342>\353\375G\276:s/=\230\365\341>\250\020o\277\273e\347=\317\301\236<\224Li>\005e\306\276\312\372\327<$?\033?j\026\021>\255\177\376\275\363&\377=\243\001\313<\255\243\256\276\337\007\315=\310\272\037\274\0139\244\274c\023\240>\367V\014>\242\335\031\274\365r\227=b\215\307>\213\n2\275\251\024\006\276\036\266\223=S`\247\274\337\244\026>\351\205\016\276\220\261_\276\220\241\006?=tp=_\005V\276\316\376L>\375\210\306=\257\303\207>\330)\361>OO\004\273\004>m\276k\227\250\274\317\026\240\275^\260\367\276\350\340Y\276\261L\225={`U;\236c\242\276j\260\242>a\313\302=\364\260\232>\206\264\032\276\341~\270;YR\241\274\000\004\000<j\366\272<\331k\252\275\275QE>\253v\262\276\317-\206>\236\225\274\2751\340\324=\272\342\222>P\177\'\276I\345\311>\306A\r>8\206\311\275a\273\361\276Kp\223\276\356\360\003\276_q\247\2763\004]\276g!\300=\004j\001\276.\221\250=(\372\223>\236\004\243=\220,\361=\237\034{>\272`\323\275\035a\323\276\016y\224\272\240\360\035>B\304\246=\010\3578\276\026\267\272\275\265\222d=\005\324\333:_\2769\276\323\002\373\2752\036\214\276b\276\252\277b0\231=V3I>\024\\\276=4\204y\276\213~5\276\204\216F>h\204\313\275\321c\353;\300\371\306>}l\363=q\216\002>\363\203\307=|u\365=.\343\036\275 \336%?\324\200\216\274\253\230\344=\3640\357\276\325hQ\276\325\366\331\274\233\207\276\274\301\223\024\276\351\260\006\275M\335\260>\027x\377\275}Qu\276;W3\276\255A\237\275S;\310>\316\210!\275\357\010\325\275\023\220\247>B44\277\213\252\233\2774\264\256=\014k\310=G\216\346>r\246D\277\256\235Q\277\316\316\223=\013\215.\277\352\366\264\276\342B\317=\266`\304\276.{\r\276\020\031\240=\265\244\235<ev\302=\346\313w\274Ak\271<\346\273\352=\230#\003=\346\321`\274\253>B>6\364\271>\031\330B>86\344<\213\201\261>H/\033<\276\346\270\275\340\246\216>k\001\252\275\205^z\276\373,\035>\360Tx=H8\230\273H\177P\276}\234\210\276\r\250\254=\344p\255\273\272;!=\002o\212<\020\3239=\007B\261\274\2530\266\275\277\036\n>;\245R\275f\'\033<E\231J\276XU\343;k\273\240\275\236+}\275m\277&=\330\244\325\275\217\216\307=\020\251\303\275\010\354\021\276y\245\033\275A\373\267;\260\350\025\276C\231\246\2757\031\025\2766V\233>\236|\332>\201>%\277\240vH>\226\233\035>Jo\263<8\346\010\276\022\362\377\274]\\\261=\3212\270>$\253\025<HJ\241\276\302\2405>J/\016>\033G\377\275\030Q\253\276\206\316@>e\270n\275\025\025\340>\251\372\333\276\244\270\346=\365\000[\276\344b\n\276~\261\263\275\370\222\221<\375\253\375=\n\3670\276D\206\324<s\265$\275;\024\263\276\355d\351\2762\370\257\276\345\201\374=\317\250\027\276\030\200\266=\033\023`<\344%\344=\243\251V\277D\225l\276\252\026M>\020\025\243\276\032\200\034=0\352\022\275\'\305\302\275\301D\202\276\n\305\236\275\024\314b=\177?\213>\264\234\275\276\224{\231>\024\200]=&m\217>_\336+=\226\374\002\276\250\314\230>\243\312\376\276=fY\2777\252}>tuq\275\255\336\262>\022\266\203=\275\223\311\275\'\325\303\276*R~>\203=\266\275p$%\276\306\034\305\276\t(\317\276*\230\026=>\336\372<.\252\373\275\016\330r>\027\364\026<g\276d?@\243g>\266V\036?k\311^>\226\365\010>y\254\031<\023\336\024=\370;\271\275t1\343\275j\341\313;Px\343=\017\213\t>z\263\334=P\342\202\275\331\333\224>\336\365\303>\370\277\344=\336\362\016\276u\263\322=\367NP\277\355\371S=^\264\332=\326\021\337=\215W\224=\306mp\276\0335\361<B\234\207\275d\357\253\275.}\303\274\323\037.=0\342\357\275X#\375\2764\257Q>.|\322\274\302?h<E\222G>k\341\303\275\203\200r>/l5\274\364\361\240>\366{\375\275E\177\353\274]\246\231\276w\310\347=\005\356\001>\265\372o<\227d\217>!\235\252\275\025\202\305\275Bq\371=\367@\242\276F\3409\275\323%D>\214\350s>3\215m\275Dx\272\276\010:7>iq\017>`\246\236\276wO\275\277\322\005\246;q\256\035>\341\000E\276\273\014\'\276\323U\226>U\214\030=N\232\313;\001\"\277=\030\275\220\276\327\256{\276\300\336E\275h9\013>=\350\325=\330\202\004\275\007\210\246>\361G\023>\035\0348>\210\374\306\276\271\031`>v\241p=\\Up\276CqY=\200\t4?\320GI=\3345\214>\355\351><yV\020\275\313\370\227\275\361\002\027\276\244\362q\276\277\330{>\330.\343\275\"\233\230>\250\n\220\276/f\247\274\366v\302\276>}\223>\005L\202>L\366\322>5E.\275O\253\203=w\356\271\276\025J\326\276\242\234\360\276\310\331\233=/AC\276i\014\263\276\346Ta\275&\333\001\277\236g\271\276\221A\250<\177\021X\276q\030\327\2769\212\302\275\245e\374>\'@n>\270\211\235\276\246\253Q>\357D{?\266\307~\277@\212L>\331C\005?\220\332;>1\025\232\275\2371\020?9t4?.\211\263\277\371\234\342=\247 \363\276\027c]>u\237\305=\217\006\362>2\\H\275\225\350>\275\021\022\266\275Hx,\277\360\276\222;\233\341\002?\207%\006?\334\201\263\275\324\232>=\222\220\367=\263\023_=\277\221\224\275T\231D>\"\201\233=R\027\234\275d\002,>\000\251\312>\361\020\t>\246\321w\276\222s\354\275!l\366;\271\003\241\272\322=Q\275~\2433?8\271-=u\341\271>\360\241\260\277\362\317\366\2766\262]\276\257fr\276\343\233\211=\231I<>\306\357\355>\301\363f>-\013\007\277\334\210\311<V\326\235\276ql\305\276\202N\351>\370\373\202\275\226-m\276\223\367B=\207k.>\207\333\201\275\331o\r\276\246\242\353>\266\001\365<\217\3451>s->>\344]Z\275\271\014\017\276\023r\t>,\035\014\276\301i\207\275\355\253\023>D\322==@j\342<t\367n\275e\346\254=\205?C=3\341\017>\224.\250=3\202\350\275\354\004\203>O\'<\276\371\036B>\373x\336=\277U\257>\276\222\232\275\260:,\276\261@\324;u>\225\276\'w\261\276\360\3731=\014\217\340\276\026\243\017=\257f\246\276\254\247\331\275V\016\367\274\010\334\032\277\215B\334\274\222\257=\276\2456M<\252S\353\275\347.x>=x\372\275=\330\221\273\321\265\264\276!l\007=I\215\031\274i\3032\275\332f:>\242j\366\272Z\354\351=\\{S>\337\273X\275\301\310\035>\330\210F\276$\222U\275\240\233\003\275g\247\315;j\200V>\353\013\201>5\024\314=\026,\036>Yc\027\276\372\354\237\277!\354\313\276\350\2334\276b\257\'\276J\265\215\276#\033\362\276\246s\337\275\263\356/>\217\212*>\305\252?=q \256\276\201\022|=y\353\263=\243h\332\277oX\017=b&\344\275\234\321\023\275\306\313d?\304K\001?]\223\014=\337$\277\275\360\226\252>9n\'\277\007\305^>\247\014\031>\262\357k=\352r\034>r\277\037\276T \323\277\0226%>:\251\213>\265\2755\276\367\000\332\275\3137>\277\346\024\272=\342\257\037\276pY8\275(\375%\277J\232\025\276\376M\252\275f\003O\275^\036d\277<\341\n>\343[\304\275\347,?>:\277R\276\251\271\372\2754\027D\275\361\360Z>(:W\277\372\215W>\242\346T\276|M\240\276\3533\037>B\3560\276?\217\014\277\257\236\205\275\306\035I>o:\355\275\367\335?=\233?\221>kL\204>\341\230\264\275\355\321\304\274?v\210\277\312\3368\277\n\264\205>\036\261<\276\346\241\236>\002. \276\223\216\344;\242Rg>\275Fe\276\202R\341\275\302L\240=\336\340Q>\366$\320\276E6\267\275zZ\335\276\276~\235>\225`T=\027\215\016>w,\277=;\332\034;l\001\307>M\003\227>\276\374\255\275*\n\350\275&\243\030>\006\342\266<m\200\345\275\337[\221\275l\235\253\275\3039\257\275\017\232\001>b\017\227\272\342\021+=\222\232G>\276\3316\275]\236J>\305\364\303<;E\014\2755\004\004=\245\224\267=\200\216X\274\253X\274\276\252\337\210\274\323\005\355<\201L\233\276\342\365\t\273O\007\206\276\276\230\005\275\026\332\325=n\224\247=\352\276\r=\370Y\264;\031s\364=&\274\274\276!\"\303=\335\271\366=\261\220E\276\272O\362\273\354\341\\<\260_\365>\340\031\027=k\3573\275\017\211\316\275\232\331\037\275v\216==\307\207\002\276z\303\367\275Y\241\371<\356\206)>\3040\264<\344l)\276\003\340G\276\217\037\217=\255D\221=\3255#\275\0064h>\'\335\274>s\271\000\277}\016\222\277\322\022\215>u\3072>\350\026.>\244/g<\234O(\277b\237\016<\304,\004\275\242\024\342\274\346\230d>H\243\253\276\333\376\233\275+G\330=\223\026\325=\320\322=\276\365\010=\276\215f\035=\013\252\260\276\350!D\276\274Nq;\270\005\203\276\236}m\275\016\246\360\275\252\241\010\276V\303\326=xB\247\275\250\346\"\276@?L\277\334\010\211\275\312\030\035>c\330\010>\377\220:;\261\375*\276\211\004\001?@\362\371=\342t(\275\r\277\203\276\210\252G=m\006G\274@\333\273==^4\275\302\255\t\276\367\273\t\274\211d\272\275\353\016\310=\270b\325>6\265\206\275\231\315\247=a\310\262>\004\233\026\277\252\263\022\276A\030@\276\0326\325<b\300\345;\323R\213=8\265\267=\005\203A\275)\023e=\330\266\260=\251\366@\276d\026.\277$\213\\>Uw\237\276\212R|\276\355@]=L[\010=\002b\277\275\177\332\244\276\264!,\277\216\307^=*\313\253<\335\357t\276\250]\314\275S\364M>\267\306\336=\255\277\350\275E\336\242=\371\335\344;\212\274\252>3\034\025\276\226\2652\277\231\376\304\275\315\376\236\275\336\327w=gy\221\275\014\004\303=s\272m\276V\226\022\276\276\352\310\276\010)\326=\004m >R\312\026\275\350\3516>\365\246\023=\212\276m\275\017\371G\275\357\035U\276\0171\020>\213[\253\276\"\244\255\275\005\206\006\275U\351r\275,\005\354=}\004c=t\2629=\360\202&<\257U\374\275\346\234\224=5\371V\275\0202\210=\370y|>\025`Q\276&\315\233\276\320\217D?\002L\272>\347\026a\277\013\311\033=\261\263\273\276\3027\272=\002\014\234<\252\234\274=ke3>.\210\326\275\375\021\006\276Y\201\225>|\376\341=B\375\206<}\362\317\275\037&\245=[E\231\275\020\206\215=[7y=\245\005\234\277N\235\024\276\215\240\220>\372\t[>Og\213\276?.\223>-\3240\275\204\3002>\220u\023>\006P\216\274|\222\327=\005N\240=\264M\215\276\306\207A=\300\342\211\275KP\202\276\300\300\201>\3553\310=w\346\020>R\272\305=Ab\254>\245\024p>8\342b\274\254=\005>qH)\275:\373\227\275\375\314\300>\333~\005\275\203\002\216>\356\203\025\276\003\344\201\2745\227\027\275\001b?=\206\200\314\275\020\275\306>4\206\222\276z\240\247\274\206\375\312=\374\345\313=\304\375\225>h2S>zy_>Zz\257;\\_&>\365I\353\275\354\243q>\007M\244\275\332\025\272>J\004\346\275\240\246\224\277\313\353W>\345\t\360\274\363Z\210\276\261\r\215\274\307\357\020>\305e\307>\301\035\n>\222\032\202\276\3676\272>\005\000\253?)e!>p\367t=\035K\311=\000\334?\275\003a\330\275%\010\217\275\346\006T\275\363\200\312\276\374\240\245>\236\021\322<i\312o>r\016\'>d\345\177\275d\210\001\275\217\350i>\210F1>T\252\003\276\002\325\353=\272\366\033>U\377\026;@s-<(I\034\276^o\'\276\016\022\030>\3659\237\276D\264\016\275\275\232\001\274\344\303\255\27626\271=`\0302>\237\217\245>\374Mw=\260\020\211\275zw\255=\334\336\353\275\357\345\215=g\347y=\302\343\306\275\355\214E\273\027nc\276\246.\346\275\010%\307>\253\267\222>\272\347x=%\326\342\275q^\203\276\006\341\243\276l\235\n\276Y\3652\275\035U\007?\323\324\213\276\212\322\027>\211\025\262>\221\000\242>\027q\200\276\026\024\226\275\374\177\013=\335+\231\276<\263\213\277b\270o?#\3737>N\020\305=f\251\267\275\224\306#>\222+\200\277\236\t\272=\324<\331\276\262j\325>\324%\266=\013i\210\276yi\273\276\270\353\331\276\232\r\"=\240\024\376=\260\026\251=\t\017\004>SL\035\276\010]4\276\"#L\276\200\206\224\275\031\311\006<\r\265\030=/g\022\276\201\307V\276\377\024\327\275\221\336\217>ENT\275X\234\210>\026\002\016?\270\343\301<D\327\032>\211@\245\275\307\254Z<3\376q=*T\214\275F\023\252=M\302&\275{N5\276=XY>\376\273\216\273\204\323\361\275\222\304\215\274\3200\205=\237\324E=\275\335\217\274\n\202N>\370\356\253\274n\222E\276\220\336\310>7\177\024>\024\361\234>#\372\237\275\357\373\t\275\003\010\240\275\034o\225\274\352\203:>|\007\307\275\360\345\351=Mi\271=\331\275\215=\337\215\366=xH\215\274t=\001>\323~\000;g\325\371\274Sv\331\275@Z\034\276\351\302G\276\361\3117\276\327X(\275\220\226\271\275\2647\217\275\241\245 \275C\0174=\n\0221\274Lm\240=P\275\t\276y\220\245>O\264\376=#u\305>Z\267\255\275\223\333\215\277.+^>m*x?hQ_\276\260?\036>\236@7\277\255H\025>\000\321B\276\263\016\"\275J%\242=\240$3\276c\245\022?$\251\271?\225\336T\276\217\032\342=\226\030_=\216\3626\275\307\304P\276J\270\004\277\240\331\307\275\034\031\022<\312V^\275\273\370\235\276\307@-\277f\3217>_0U\277\317\275\211\275\247\353\267=Y\256\204\276\350\020:>\227Z\217=w$\003>\374Q*\276)s\207?Pj:>\006\n\240\276\367\270\017?\365\236[\277\0164^>\310\214\020\276r\376\023\277\364\325\002\277\027Q\364<\216\342\342\276\267E\357=.LG\275\3529\345<\357[\333\277\316\324\317\275\031\364\t\277\270\'|?\322\366\234\277Pp\255\275\003D\376\275\016\341\215\277\020\261\267\276\324Bl\275\323\006\303=\231-\005?b\272\033?\362\324\244=\253=\260=\007\030\367=\264@\361\276\355\224Y=\256\206\232>\225\234\356=\305}:>\247%\007\274\272\331\020\276\222_\223\276M\374->DZ\037<\3339\202\274\316E->H\372\276\274\0240\276\275\030Q\005\27615\035>K!\n\2768\"\205\275\240|z\276\013Q\335<6\367\251<O?\n\276\004\026\024>w\365\326=\200L\232=!H\227;UZ6=U\226\n>\320V\217\274\n\031\304=\241\267%<So;\276f\212\367\275\226\036#\276\256%\005\276\366VG=-0\022\276PA\214\274C\203\213\276\245 3<\r\306\031>\203\254z=\371\210(\276\301\035\323=\330\213\206\275\207W\020>\300\021\246\276\324\255\210<\371\010\311\275\002\226\332\274\246\224\352=\371\007\016\276M\361.\275\242<\240\277Q\355\266\275\251\301\017=\317\251\375\274\361\272\023>\244\206$>\355\302\335\275\273\347\306\275\257\363\252=\016\354\242\275S\350\264=\236\241s\275q\260\214\276\335\272@\300\007\n\005\276\036~(\274\3520\214\276p\014@\276\325+\272\275\312\330\n\276\271\355\250>\2724\014>\340\370\263\274dj\220<\334\034<\275E/\214\276\236\375\366\276\370m\220\275g\232\231\276(\020\340\275\366=b\277\007\360=\276\247x`>7\300*\276\204\211\010\276\362\336M>G\227\362\275\032\355E\275P$@\276\3132\027>0\370c\277\255\323H=>1\325>\226-\336\275\330l\267\276~\335\3469\013\217~=\200\352\243<\270|\206\276\216>\217\275\355f\355\276\005\265\232>$)\261\276\207c\216\276\273\211\036\274\241\310\214?\204\236\033\275(\302\364>)\364\357\277M\030*=+z\351\276\016\251\364=\324\323\357>\335$\260<,\337\227>\321\274>\276\366\210\332\277\204_\202>G\034W\276\273hQ\276L ]\275-\204\251>m\235\004\277\013<F\277\214\202V\276\005\337\343={\003\346\273\227\311R=\377\277\307\275\202#8=\332v\006<\306\251.\271\350\264a\275\235\t{=\024C4>D\242\220=\365\036I\275\331U\210\275\\24=\237i\243\275\254\251*=\316\216\265\274\20591\276\320B\222>1\305\344<\221K\243\275\221Uj=#\324\212\276\3421\201=K+/>\200B#>\203\273\354<\260\346l<\023\243q\276\024\034>\275\3316o>tP\027\276A<\345\274\244E\013>\\\036\357=P\361\344<\030Mf=\370\022A?\374\237U\2766#V\275\037\342\253\275*k\200\273\020g[\272\306\202\026=<\2646\276\226\336;\276\005\320\321\2753\020\340\275\365\320\247>\353\035\336\276K|\n>.\2151<\246\022,=\222\300\340\275\016\254@\276\334`\350\275Bn\341\275\214\311T\275}(\347\275\365S\027<%\205\005>\205\227a\275-\023\231\276%|n>\374\357\365\275\007\335l>\314\272\306\276\270g\247\274{\230_\277\251c5>e\352\305\275z\232\334\275\036`\035\276\263\221\221\275\320!\260\276d[h>\244N\231\276\367A\313\275\326\233\201\276\030@-=\255\000\013\2767?\374=\321\377\272\2738\362\237\275\277\234\210\277p\262\024\276&\t(>\233\263\232\276\303\2510\276\217\217M\275\370,\245\276&|)=>\001\002\272\342\245\203>\305\371\311;\357%\255=\206\027\202>P\246\227>\363\203w>h\234~\276\004&?\276\250\t&\277M\370\253>\325\234\351=31\274>)\rM\276\371U\227\275\t:V=\031\342\323< \212\322\276KM\352\276i\036\216\274r\023\026\276\300\216\262>\2777\265?\221j\010>\277\322\256>\365\201`<\273\004\231;\010|W\275\023\374#\277;\322\326=O\311\222\275\030\327\250=\326Fj\277\340\250\212\276\035\243\250\275}\315+\276A\020\374=\252@\241=xE\254=\350=h:\036\316B=G\\J=\017\354\246>$\307\025>\241\3660>(\t\360\274\346\035\313>f\365\026\273D\254h>\370<\343=\261\013\037<\366 \013>\300\220\227<\360\335\010\275\274\365\243=\017\364\224\275\007\313 >\327(/=\210\266q\275-b\000\277q\347\201\275\330\367<=\332\261\301>\351\351\261<\341\276\255\275\306v\025;\232\326V=\264\031\240>\253\365\213=\327\027\223=\007\363c\276\367\325\035>\023\312%>\354*R>Zi\001>\224\223d\275\326\277|\276T\210;?A\371A\276EP =<\336T=\301\026\177>\232,\273=\001\362y\276}\374\023>^y!\276\200n\t\273v\242E\277bp\017>\212\352&>\244\230\"\276\340\025!\276kj\031\275n\022%\275Yz\366\275\177s\035\276Dc\021\275\013\3022\276\217Px>\342\372\023>\031\246\234\275\010\333\355<j\340\257>\034\352\034\275\255\350\r\276\370\265\203\276\275\217c>\240T\005\276*\344\235\275q\001\214=\320Y\377\275\304b`<\037\325S>`\353\276\274\313}\254=^^\371\276>e \276\2361\236\276[$\244>\202\257\273\276[ e=,\375\201\275\315S\327=\372\000\212\276s\252\203>\244\002\215\275d&\267>\314|\034>\030n\273\276\300\014\353\275\177\374\322\276L\364\014\277\001\246\224>\262\254\037?\331&\247=\253h\320\275\3176\227\273|\210|\276\372\275\266\275\356\205\242\276\204\356\002=\212\t\205>\231\037\016?\254\357\247\276X&\037\27525\375\274\263\017e>\331\031\t\300\204\324\205>b\374\222>\2211O>p\273\351\275\r\245~?}\306\212?\356\344\307\276yt\366>\321\010\230\277x\2769>\024N\302>\325\331S>)\316\265\275k\263A>Q#\323\275\035\211\223>A\022\356<\033\347\255\276\365a\362\276\374\361}=\241\312s\276\217\357\003>x\273\232=i\271\022>\177\201\016=\326T4<\226\365k>\350C \277\005W\231\275\312\204\205\275\270P\270>#+\204>\222\335O\277a\312\370=\316\3571\276\330\r\263\276t\326]?Pv\214\275\205\325\253\2773W\017>F\371\277=O\330\250=\261\263\t?\251\372\315\273\302YZ?er\360<K\306%?un\017=\224\\\244\275\223\273_\276\022\272\354\277O\315\022\276\021|E\275\200\255\033\276\340\004\324\276\314\'\034\2766e\222\276\340}\370\276\235\247\315\27524\033\2760\034\375=\240\366\363\276H>\256\275m\303\226\275\004\020\275>\306G\277=\222\323\234>:\023\334\276\204\360<\275\023\2732\276\246G\371\275\010\335s>S\204X=jZ\266\275\221V\322;9\333y\274\332\237\224>\371\226\202\276L\341e\276\310\355\005\277\2207/=`\215\366>\215\221<\274E\001\250\276\326\257\255\276m\364\032\276\201j\303<\005\336\202\275\251*\223>\321\375\215>\232r\207=~\322\014\277\206G\221\276\034\030\306\276\231\347\027\276;\257*\276\037E\225\277\314\343\322\275\014\241\013\276u\312\200=\275\323>\276[\240\034>\026\343)\275>\220\004>\033\252\243>\234*\367\275\307\314\353\276\274b\251\275\305\325\241\275\314\335\320\276\033E$\276t\302\204\276\025\363\370=\243a/\276Y\376\265\276r\321H<x\365G>\207\\\034\276\330\367\325\275n\016\233\276UR\225\275\315xn<\225#\001?\254\224\352>UzS\276\233O&?t\353\271=\215\233W<Z\022_?\341Z\225\276*\201\211\275\235R\201>;\232\306\276B\226~\2754\270L>\234nz\276\204\230H>\334\351N>\260Y\325<H\363i>\006\237\334>\2179\272\274P\330\360>n+\334\276\204k\312\276A\342\352=\303\224;?|\231\223=\365\031\342\275\270\023K\2768\314\314\275\260S\326\275`7\'>1\352\275=\326\326>\275\370\363\334=\300\"\211\275\274\353\307\274Q\267\014>\360\227\312>\016u\226\276\311\360\300={\367w\276\214I!>qG\034=\245\242\316\276d}\313\275\245e\221>\005w\317\274c\023\345\274\004\000\333=\324\366\370\275\n\374u\276{i\234>yN/=\217\204\354;\366\246`>\023b4>\201\302\360<\221\260`\276z\335\010=\250\3214\274\220\201\025?\r\264}>?F\n\276\362\226\312\276\355\233n\276g\305\205=\005u\321=\230\210;\276\232\202\237>\206z\242=Ra\324\275\343b\257>\t\271a=\363x\\\275~\001r>q\020\367\276d\3600=8fE\276\252\210\266\276\"\037\005<\262[\270\276\000\251\005?L\2755=[ZK\276n\372\032\276\240\267\020\277\305!\251\274M\370+>{F#>\353Z\231\276\'\243\276\276\355V\026\276CD\216=\266Q=>\256\212\313\273%\257\\\276\273K\255=1/\221>G\232\022>\256\177w\274\003\326+\275\002\350\353\276\352\321\267\275\306\331C;\272\370\351>Wq\301\276\221+D=A\331o\276\277jp>\234\306\267<\273\021X=\372\216\204<\233y\321\273\032u\337<\301\202Z\276\347ee\276\014\215\361\274d\207\350\276\336\356\344\2748\354]>\351Z\210\275/9\256>\204H?\277\r9\037\277\023\\I=\266p\337\275\300\363 <6\354\010=\000\034\027?\023\204b\275,\351\201>\343\261L=+\342\311>z?v>$of\274?\372\"\275)2\214=\327\244\227\276+wQ\276`\006\251>\2735\177=\326\277\177>\203\343\270=|\270\213<\366\306\017>\226\013&>w\343@>\325\363^?\016\021F\277\272|\310\276\030\270%>\370\302\242\275\217\310\034\275 sU\276\335z5=\212\022G<\261\341\370\274y~%\275\215\t\326=nA)=\201n\315\274\327\357b\275h\213I\276\037\272e=\232\256\235=\307\215\255><\203\274\275SAg<9s\032>L\212\301\275ab\014<\366\005\277\274\264Z$\276\221;\037=\343\026\254>\220\321\004>r\210\273;\224~\253\275a\005-\276\007\017\274=\371\226m>\273~\251\276\335[\037\275\332(\367\276\305o\032>\316\300n=\3614\305\2750\232\267\276\211\310\273\275\272m\t\274\265\345\343<\177?X=a}\350\274\267\210*>i\245v\275~\013\215\275\261\343\351\274\252U-\274\267hP\275\226\264\366\275w\340\240<n7\217=\017\207\220\274Y\314\250\275A\240\024\276p\036\034\275\347T\243>{(9\276-\311\033=\320\272\320\275\374\371^\2761$$=\0040\230\276v8\010>R\004\246<\206t\347=\3679\213>\254\2249\275\210\315e>\236\246\244\276\311z\\\275\013&\356\276n\370$\275\031^\001\275\273\276\364>\371\377\273=i@>\276I\234\010>^\207\002>\322\254\211=:\255\267\275\006\257\373\275\327[\'\276\217\335\270\275\214\021\205>p\304\330=\372\002n>^\242\026\276\362\317\215\2759\001\365<k\260J=\'\032/>\026\345|=\303\267`\276\002\360\212\273[\010^><\302o>r\353\207=\361Le\275\362\237\240\276\337\226\244\275hc/?\334\n\215>\306\265{\277j\263\233\277\256\226\214>\217\321+>\300\312\006;f\227n>I\267!?\370W\264=F5 >\345\331\362=v\032]>j\365\245>6+\343<\255\342\313\274\364^\375\275\361}\251\276\364\270\356=oI\204\277im\\\275\332\236\345=\177\303\276\276\302\245\201?\362\310E\277\021\033k\275\003\314\210\276CC\n>\002<\253\275\2444\374\274\005}\205\275\325\023\352\275\316\255\251=\004+`>\254\222\357=\207c/>R7<=\3753\214>\357\376\347>Of\210>&\344\032<Z\215\201\275\364\374\301=%\230\"\276\373\274@\275=(\211=#\021\026\275\217\355\361=I\232M<\tJI\275\251\262\021\277FiC\276\334\302\351\275\360E\316>\004\264\236\275[NC\276\206\007\033\276\361rh>\023\016\335\275ny\023=\310]\264\275\357\004m\276\372\310\272\275\014\036Z>m\241y>\314z\017\274\254R>\276w\355\242\276\177\371\">\273\351\036\277r\201\026>%}\203<\324\344\202\276\004sN>\300\346W\276-\343\231;\3755B\2759 \335=\332\364>\277:\371G>\260\343\316\274?\2362\276\025\316=\276)F\330\276\322\0043=Sz\366\275\233\230\024\276\177\347\023=|\330\357\275\212\037\r\276!Z/\276\006\033\242\274\302\316\202\275\340!\014\275\253\301?\276\024%4\276\001\361\234\275\377<\252\272\215\322\273\276\005P\210=<\276\342=\'V\243\276\301\257\243\276\345\353&>\265^\270;\202\343n>\305\316\333>\201\210\002\276\212\240\022\275\246\226\342\275\364\243\316\276\3425\022\275\251\\\215\275z^\200>\263\036\225\274\264\3729\276\306\034\367\275\251Z\034=\2678\351>\3423\253\275\325\036\373=V\310\273\276/\000\024=H\364\002=5\312\031\276N\307,\277\360(j=\223\213\365?\356D\002\276\263\250\362\275\306\225k\277\202\224\005>\374/i>h\3073\277\200\3444?\252\312\n\274\210\303\226>0]G\276\236VQ?\363\370O\2760\314\016>\324\302b\275\016\002\253=dB\206?#\327\207=xa\215>\030|\030\276!\324~\276\274\025\266\275\302\272S>\010w\020>\216p\257\275`\330\210\276\343\273\241\275\316\\\037\277\2670\376=\247\225\275\275;&\242\276\212T\264>~\312\023\275]\357?\276xb\251\276\024\210@\276I\237\031\275\346\362\326\274\232\273H=<E2?$\304/\277\252\007u\275\231S\271=\303\357\221=z\2717\276\324$\276\275+\013.=\207\233l>\376\222\202\277\352\3711\275\364\225\020\277\275\2141\2743b\272>_.h\276\357\006\003\277-\373\231>iC\237\272r\260\235\275\003\202\027\277/\323Z\276\320\\\321\273\313m,>wCx9(\252d\275\272\240\320=bN\007>\234_\335\275\272\246\227\276\rr/\275\021\347d\276\031|(\276\244\306\027\276\214\273\013\276\3705\013\276\361\350e\277\363S|\275\364\214\206\2764M\354<\371\205\313=\243\302\237=\325\352b>\255\201,>E\276\235\275%{\213>\313\272=>\230\220\236>\363hS>\337)\010\276\236\321\206>\230\214\345=W\2769\275\241\360\234\275\266eC<\323KN<Al\025=\377M\331=\240@\t\275p\376\014<#\261Q>\1772\260\273\337\332\231\276\377bH\274/\310\227<\356\225\276<\010\016e\275\250\341M\276\234\334\272\274\022R\321=\275:\223\2757\355\315>\237G\264=\241\366\211>\342\007\207=E\255\301\275i\270N\275 \254\210\271-1T<\255\262\211\276\376_O=k\335\307\275k\256\034\2774\024\201=N\267\371=\027\311\220=_{`\275\016\255\225<\364\250y\276\226\223w>\276\347 >\\\205\331\275\347>%\277k\3135=\274\033O>q\231\273>\330\322\350<\210\377\222>;\240\306\276ds\241\275J\217\236\274\221\332y<\025\221-\275\321\364\013\277f\262\271\275\201\226\372<\270w\206\275\221\370<\275i\3213\277\261,\235\276H1U\275.]\353<\321J\213< \244P\276\340^,>\305\242\377\276?\325\316=\254t\211\274\302\207Z\275+}\355=\200j[\276\037a\212\276\220\260\213>\235.\022\277\214{\020>\033\261\351\276\016.\265\276\244@\271\274Yn\303\274/S.\274[n\240>\370Q\005=P\351\233>\235\251\231\276N\244\330=\347j-\275\375\037\276\274\275\250+=g\341\n\275{\363z?\246x\207=-K\276\275\236\'\245>OY\272=\3068Y\276\024M\216>2\016\326=q\233\233\276M\365\026\275\2257\230\275\322i\325\275:\302\r\276\347\242\202=\377<)=\022i\031>\n\3129\274\000\377E>\342\375\315=>,\237\276\220B#=-\206\000?\312\317v\276B\272%>\322\206h\273\013-\001<\221\023g>\362A0\276\355\025\211\276Ff\030;\375N\002\275\327\342+>:\200\262=\316\222 >*\232\241\276\203\214!>j\232A>\344\366\202>\353\317)\276\351\336}\276\375\014\233>a:<>\307\343H\275\300!\252=\234\276\223\275\202-\004\276\243o\261\274\027\267\232\274\313t\215<\377\345\273=\017\221\220=\274\030\235=\020\237\024\275m\273\025\276\344/<\276aKe\275\3712\375\274\254\343^\276\202+W\276\275\371\305\275]\":\277\330\356\274=!\364\t\276\010\377\270\276\222\321E\274\267s\336=z\377l\276d\316#\2777\"\032\277z\303\300=\r-\014\276\250\307S\277\3071\261\272\356T|\276\361w!>\204\010\345\275C\203I\276\357?\331\275WGg>\'?\t\277\304n\311\275\334&\305\275\007LH\275\231\371B\275\251\220\320=$\241\000>:\337\344;&\221\267=\t0\014>\276\221\300\275\322\273\t\275\325\0275;\323\310\257\277\331\275\353\275\342F|;\361\240\201\275\013f/\276~U\221\276\3747\326\274u0\216>\302\273\220\276{0\307=\032\020T\277}d\322<\357\347\311\275K#\006\276\350\021^\276\031\273e>\237.\255>]]\324\275\317\267V>6\t\261\275\325gi\276\004\325\302\276\222Z\306<|\330\224>d\226Z\276\2569\261;\273\014\214=\342\344\220>\321\2209>\211\354:\275>O\304\277\013\351H\275\237O0\276\236\221\337>\310\016.=\314\177\264\276AD\222=O02\276\324.l\275\010\3104>\266Z;\277\236\261\336\275]v@\276y\371q>\371\376?\276\361\026\330=\031\357\257\276\2247\335\274\335%\033\277-8\360=^\327\321\276\211\020\017<)h\270\275U9\033\276\032\335\251=\344\253\202=\246\363\033\275J\003\013>\350%O>\314\352\234\275\004\031n\276%\016\224\275i\373b>?\256\017\277A\367\304>\314=\245=\303\251\246\274\250\237\314=\005\016\327=\351\372\312=N\'\000\277\332\340\202=\204\277\254> 1v\276\n>\265=\267\245B\277K\363\n>\355\265l\276\20190=\361h\341\275\223\t\230\275\016<x;\377\316*\277\362\355\201\276*\222(\276Z\315\233\276\024\216\'>\247\347\326\274\374\332\022>BXf\2779\033/\276?\257\276>\343&->\305B|\274@\372\007\275\371\346\270\275\256\233\340=Nr\213>P\020\223\274\331\312\240\276\330x\002>\310Q\001\276\321J5>\025\264\037>\373\330\252\274\203t\021\277\r\375\300=l\223\007>\275\261&\275e\221\362=s\005\030\276\326K\267>\377\224\005=\371c\261\274\\\323`\275T*I\275\3776\'\276\373\337\357\276:\333\253\275\024\210\021\277\266@A\276\024\236\023\275\232d-=\313os>\211\367\305>\366 \213=s\353\357=\314\223\337>\010\362\244\276\267\344\327\275\257\204p>\325m\017?\214\320\251\275\332\326\376>\236/\220\276c\220\313=\025\n\215>\372\223\247>\010\034H>\360\205\316=j\220\227>\267\270\314\275\271+s\277\004%\216\276\353\273p<Y\344\320\275\340\236\242>uQ\302\276(\n\231=LX\264\277B?\023?\222 )>\0062=\276\'\017H?\007\221\237=\334J\323\276_W\322>\035 \215=K\222G\276^o\334=~%\322=Dg!>u \224\274\371\033\305>\271\332\r\276\234\373\212\275\201\241\276>\"F\026\276\263\210\367\274\013\343\013?\0312x>\\\332$>\177\376D?*q\021\276A\374M\277w\272\226=\223, \275\364\335\301\276kp\203\276a\270(\277\363\004->\010\327V\276\235oh\274\341\353@\276OQ\023>]\210\231\276\322\316\360=,\210-\277ze\\>p\343\226=.\341\265>\362[\331\276\271\n2\274j\360K\277.\351$=\005\236+>wO\022=\353\313\016>^\2372\275KO\261=ww\326\274I\\k>\016)\337=\027nv\276\300k\">\201K\177>\\\204\r?_I\037>\231\254m\275\005\027\374\276\022e\n\276\233\2379?z\024}\276U\272\037\277\"\216\001>\264\201\364\275\275\002\177=\271<>>\360\210\241\276\373\370\005\276\002\006\240\275\366\240\026\275\211\037\233\276_\014*\275\317\252\230>\0317A\277\n\360g\275\301\320N\277\355Aq\276\2555d>\\U\010=\267h\031\276\325\222-?\366\360\346> \"\033;\t\347\224>s\000\362<M\377\013\276\272\207\345\277\243\\\275>\210\022\216\275\2165\354>\370HO<\226\250E\277\273}\177\276\203/\365\275\003\222\034\274\214\327\037\276\365@\212=`\200\246>j%\252>\213D\n?o+\206>AU\203\276Q`\247\276?A\317=\304\344??\3023\234\2746\267\264>\222Zd?\256s2?\361]|\276F\261G>40\244?}\336\262>\025\374\365=\305u\">\243u\256<\2164\217\276\007\311\332\275"
      }
    }
  }
}
node {
  name: "decoder/de_dense_final/BiasAdd/ReadVariableOp/resource"
  op: "Const"
  attr {
    key: "dtype"
    value {
      type: DT_FLOAT
    }
  }
  attr {
    key: "value"
    value {
      tensor {
        dtype: DT_FLOAT
        tensor_shape {
          dim {
            size: 512
          }
        }
        tensor_content: "{m:?\020yE>`~D?l\036\010?x\306\244?\'\366\321?5\025\326;\034\024\260>\246c\335\273\245\341\273<\245x\344=\355iJ?\037\3462?\032\345\326>?\004\345?\303\034R?ET\236>gy\007?l#-\276\253\rK?\0002\004\300-\341A?Ji\202?r\004\310\277\354\031\005?\202\301\014?_\364\210?=*\340> A\022?6B\022\276\251\027-?TQ\021\276\316\326\217==\250\242\276Mz\306=8&\242?\257\341\310>R\n\315>w\250\224>\371\002\222>W\224\204>\007\273\030?\036\375\374\277\335\n\204?\331\242~<\313A\232>\221\350\343>K\271n>h\324\355?\220\370\251>\237N\334\276\025be\276\262\2606?R\031\367\274\321q\265<\335c\177>T\212\036?\372S\313\276=\005\000?\003\217\275\277Y\337G\276}\306\227>Q\n\004?\022\033\310\274=\335\031>m$V>\373\362x>I\032S>s\304\240<\374\262\274?d\365\374\275\322\212\351\277\206JT?\026\310\036\300\342\034\263\276}b\360?8\275\242?\335\344\270\277\034\313\036?\272\3669>\257\032\003?\232u\307?d\311J>(\354\253>K\331\244\277C\002\030\277\362\331\t\277\364\\\330\274~a\207\274\302?a=$+7\276\355\312\310=\372v\304\273\301\010\251\277\300h\t?GkD>\2305\031?y\272\330?I[%?\223\r\212?>\352\202?^\320%\277\257\307\332=\334\277\353?\220m\233?\263\337\330>r\346\264\276\232\315\330>Z\032\221?\'\201^>\233I\357=\326\270\010\271\375\207\264>\300\300w>~L)\277\317\031\361>\341I+@\2504\266=d\023A\275Q\361\310>#\202\357>\344\3400=1\002j\274@\'\342?\275\261\244=\331Dt?\215W\375>\217\265\342\277\234Td\275\270q\363>Z\331\215>)HQ?\357O\016?\264\177\177=X\243I\277(\2172>0\023\\\300\316\252\371>\361\3345\276\224\375\373\274\364\375\005?q\305|>\362\366\266\2733\005\243>:\2330?\314\254b?\235\000\327\276\226\376\032\277\013\230\206>\004CG=b\016J\300\372\334\351\276\237Y\321>\367\025c=\320G\324>\251B3>\360Z\274=\336\211\r?\266\n\223>\221\377\363?\016?\303\276\022\265\231\277U\025\027\277 v.\274\357\277\007\2749<\001\276)\t\217>\355\201\267?IpS?!\314K\300pO[\277\375\347\305\277\231k\202>kB\232\276\302\312\005?\245\366\311\276w-\036>\315\250,?\006\220\037>\312\245\027?\313X\217\274\273_\250\275,\251z\275A\346o\276\027\200\261\277\306\234\272\277\266\242\221\277N\277\034?\301.\205>mA\253>I\245\226>0~D?\026I\255=\210\002\360\275\"qK>^r\221?b!\351>>\347\205>\255\366\225\277\2671\304=}\230\035\275\241X\263\276L\201\364\2751\220\r?\3378\307>\002=\355\275\311!\210>\2266\255>\254\222\030>\246\002\002?\3223K\276*(\211\277D\021S?\241\n;\277\2317b\276=%L\276m\2528?r\0002?\317\260\004\300\353\271\264\275k,\222?9\035\344\275\210\235\203?\260!\374=G\177\221?xk\263\274\200it\300S\341\036?s\024_\274\264M^\300\020=E?\227\221\016?\307[\'?\350\227\363\276\016\366y>5\030\217\276\023\276i\274\np\\\300\243\231\327>\351]\324>\316l]?\226A\343>\344\240\r>?\003(?C\357\211?\330\235\016@q+\234\300}\260)\276v\225\021?\243\200\037\276y\310\213\300\267\263\004>\010|%?\273q=>\305;\321>\326\267\363?S\260\204?\035\213@\276s\330Q?\245w\225>\234R/?\266\244\346>\322\026\275>*\203\327>ps\006?\347\3333\2740*\201\300l\347\346>\244\364\251>\225O\277?7|\373\276\355\nm?\322\277m\275\362\365\276\274\275\035\232=\220\320D?\262\234K>\007\264\200\277\313\013\022\300\336[\212>c\022%\275\023i\024?TC\316\275\330\277C>\024\333R>\344\243\336>S\307\311>\nc\341\275\'@[?\202\351\244>\224ct\300\337\276\246\277;1\021?\014\270\331>kWB\300_\222\027\300\2345;\275\220)\267\276\322\371\030\275j\277,?\310J \300~3\177\275}v\224>I\305\232>\320\302,\277\220\026\251>X\031c\300\230\375\244>Z\343\365<\346\006V>\001\251\223>\227\025\'\300A\004R;\237{\035\300\341T\217?<MH?a8\233>\257s\244\276t\024[\275H\336\271?\022\263\031>G^\"\277\356\367\022\300\371\245i\276\306,\356\277eq\307\277=\321\321\277b\217\212>\201\'\211>q\221\247=\303\357L\277\362N\203\300\372\001\317\276P\203\256\277j\313\246\277\215:\373\277\365+\345>/n\220>\211\212\337\276Qh\310>\372\227\246>l\371\031\276\247W\033\276\345\357N\276\272*\277>\375\215T=^\377\365\273\254\324\001?\034\240\246\275\267\003\345\275R\347C\277\237\036j?\304\352[\2763\216\243\277\262\215\017\277i.)\277\007\016\235>\221 \334>\004\272\350\276\r\321~\300\024\\L?\020\231c\276P]\303\277M\240\370\276\310E\213\277\262\\\007\300O\226\376\275\240\257\347>\003\217\241?W\272\020>\033\001\357\277\241\272=>o\005W\276\251\270J\300\267\212W\273\252\2156<\377\366\022\277\372\325C\300a#\030\274J\250=\300k\243\234\275\355\2265?\327\323f?d\342\310\274\r\317\026\300a1\231=j\366\210>\200am>TyZ=}\306\001\277\025w*@\201\301;?\340\217R\300\226\006\021\277{\363\267\274\r\322\254?{gb\277!`\025?\3172\235>\356\263-?\202\376G=\242\365\207@\331\340b>\031| ?\327\223]\275\222+F?L/\002\300\315\260\034\275`X7\300\225{\t\275\305\230=\274\317\341\201?)\347\364=6\346\213\276\352\036j>\336%:?\201\241\036?<\255\327\275\034Q\214\276\301\273\304?\212)\227>s\217\267\276\332Ac>u\nf\277T:c\274\205g,?\013BE\300\265\201q\300Vu0?X\324\010\276\000:c>\322g\321>\034\313\326?\312\255\364>\377\333\263\276\356qf?P\366\200\300\225\342P?g.\\?\377C\177\300\301\244\375?\247]G?8\273[\274kf\212>&o\200>\242u\270\277\364\325_>y\260\272=\225\271\320\276\2316\010\2775\255\304\273r\177\300\274\310@\354\276\242\323s\300Jv;>w\262\016?\247\241\330?\017\003\004\277\216*\014\300BT:\300\031^\332\276YM:\276\266k\223\274d\210\004\277\036\331\236\277\333Zz?\373\266\302>\002/\232?\027Ok?>\271\241>?\362\361>\242e!\277\013\253\325>\340\3255?\241\336\200\300\333\t\244?xl\300?\251\017\225;I\250\023\277\034\026\321?\277\035o>\342\330i\2775\231\027\276\317>\006\277(D\204\274O=q>D|\326\277`\342\253\277\t\376f\276j\026\245\276\027ip\277\212F\226\277\0002*\300\212\rz\277\234\243\013\277K\262\333\276CC\213\277_\366+\277\351\346F?\346\337\016?\360\272\377\276 q\303\3000\314\234\300\331\317\242\276\016\027B\277R\032\276\300\226i\234\277B\346w\277\364p1\276\337z\264\274\313\332k\277w\264:\274"
      }
    }
  }
}
node {
  name: "decoder/de_reshape/strided_slice/stack"
  op: "Const"
  attr {
    key: "dtype"
    value {
      type: DT_INT32
    }
  }
  attr {
    key: "value"
    value {
      tensor {
        dtype: DT_INT32
        tensor_shape {
          dim {
            size: 1
          }
        }
      }
    }
  }
}
node {
  name: "decoder/de_reshape/strided_slice/stack_1"
  op: "Const"
  attr {
    key: "dtype"
    value {
      type: DT_INT32
    }
  }
  attr {
    key: "value"
    value {
      tensor {
        dtype: DT_INT32
        tensor_shape {
          dim {
            size: 1
          }
        }
        int_val: 1
      }
    }
  }
}
node {
  name: "decoder/de_reshape/strided_slice/stack_2"
  op: "Const"
