node {
  name: "x"
  op: "Placeholder"
  attr {
    key: "dtype"
    value {
      type: DT_FLOAT
    }
  }
  attr {
    key: "shape"
    value {
      shape {
        dim {
          size: -1
        }
        dim {
          size: 8
        }
        dim {
          size: 8
        }
        dim {
          size: 1
        }
      }
    }
  }
}
node {
  name: "encoder/conv2d/Conv2D/ReadVariableOp/resource"
  op: "Const"
  attr {
    key: "dtype"
    value {
      type: DT_FLOAT
    }
  }
  attr {
    key: "value"
    value {
      tensor {
        dtype: DT_FLOAT
        tensor_shape {
          dim {
            size: 3
          }
          dim {
            size: 3
          }
          dim {
            size: 1
          }
          dim {
            size: 8
          }
        }
        tensor_content: "P\025\340\276\226\377\020\275\203\234\014\2779\036\233?\027\177\275>\tw\234=\032\360.\276lk\347=\004u\234=$i\034\2763R\354\276\251\211\204?\370\2339>\031\316<?\367\255F\276~B\253<\314\243E>\354\315\300=\345\307\003\276\243\224\200\273\274\222\002?=\013\242\275\027K\032\276\207E\004;o\330\320\276\253?\r\276Co\005\277\036\275\202?N\004f\275k>\257>=\365M\276\340\317\177?\220d\260\275\324(A\277\313\225\361\276\323\320\017?o\306(=\354_\303>\202\222v?\370g\036>\3636S=\200\336\021>\302\342\316\275p\257\276=\331Q\324\276\3528J\275U\200\235=\327\222\252=\\\312\004\2752*\201\274+)\216\275\210\331\360=\\\222\n\276G6\312>_\023;\276o\362W\276x\365\330\276\320\363\r>\014v\373\275\212\301\202>\016u7\276\264iX>\350\314\277=X\000\247\276\"\005\314\276\305U\364\275\355\322\221\274\240\007\365=\326<O\276\010Xf=N>\200>rWE="
      }
    }
  }
}
node {
  name: "encoder/conv2d/BiasAdd/ReadVariableOp/resource"
  op: "Const"
  attr {
    key: "dtype"
    value {
      type: DT_FLOAT
    }
  }
  attr {
    key: "value"
    value {
      tensor {
        dtype: DT_FLOAT
        tensor_shape {
          dim {
            size: 8
          }
        }
        tensor_content: "\177\213\305>X\352\370=\346\242@>\025\342\013<\374\036\366<\250\237\316\275\346\034.>\317\254\205<"
      }
    }
  }
}
node {
  name: "encoder/flatten/Const"
  op: "Const"
  attr {
    key: "dtype"
    value {
      type: DT_INT32
    }
  }
  attr {
    key: "value"
    value {
      tensor {
        dtype: DT_INT32
        tensor_shape {
          dim {
            size: 2
          }
        }
        tensor_content: "\377\377\377\377\200\000\000\000"
      }
    }
  }
}
node {
  name: "encoder/encoded_vector/MatMul/ReadVariableOp/resource"
  op: "Const"
  attr {
    key: "dtype"
    value {
      type: DT_FLOAT
    }
  }
  attr {
    key: "value"
    value {
      tensor {
        dtype: DT_FLOAT
        tensor_shape {
          dim {
            size: 128
          }
          dim {
            size: 16
          }
        }
        tensor_content: "\314\273w<&\222\203>/\257\240\276R:\227?\251k\342>L(\237>&\212\305>\260N\253\275\225\213+\276\"5\013>C\3571\275\0059\236=\355\357\232\274x\320\025<)\326d\275\340o\376>\362i[=\244`\267>\tG\365\274\354\342L>7\374\031??\023\024?\224<\253>D7\'\276\364D|>\021\326\233>\313\n\331>\035\207\376=E\020\272>l\324\220\276n-e=/\315(>S>\326=hf$\276*n\303>\336\027\212\277\241\325\331>3\274Q=Q~\355=\1777\014?\002\367\342>\347R\261>\006\275\026\276\352\320\"\276k:G>Z\0014>c\377v?\335\307F\276\332=\005\2776\265\300;\336\034(\277\nT\220\275\205l\335>\347Q\023\277\217\214\t?\337w%>9\360x\276n\337K\276_\267\257\276\327\206\364\276y?\002\277\365&\232>\355JO?\234\327\324\275\231q\244\275m\004\261>\n\335\316\275\361\"(?\232f\"<\270x\017?7Z==\013\362\213\274N\005\224\275f%!>xH5\277\002\034\312\276#\345\275=CB4\277\n$\205\276\203N\301>\276\021\026>\301\261\276>p\310\010\275\256\177\266?\316\234\246\276\220\325^=\320\177\310\276R]\022\277f\024-\276{\004i>\377\357A?%qG?\202^\013\276|\347Z\276\267\364\216\2770\277\272>\2055\260\275}<\301>Q\364\326\276\355\254\234\275\243\227O?\017\004\003?^\225\275>m\037*\276\232\227\223=\013\251\235>$\344\240>5}C>\\f\300=\007\000\270\276\365U\213=\346S\004\275V\000\247>\006=\030\277\323\266\026\275\330\311\363\275\n@\022?~\340\023?\001s\315\275\333SX>\276\013\345\276/\030\003>\271\301\223\276\336Xy>aBc\275\236{\002\274^Lk\277\001\351\002?\227;\325\275\365\277\236\276X,M\277\304\361\010\277\261\274\201>\250\314y\275\262\275\203>\200/\315\276\000}k=\333E\211\275\216\203v\277\205\217~<=:\222>7\202\303\276x\224\277\276\264S\033>T\212\025\276\220\363\330\275\327\204\210=\t\317\003\277\"\343\005?t&\023?\270\263\220\272.\246\351>:\031i>f\007!>\251q\\\276;\243G>\314\356#?I\275\253\276\027\207[?D\377`\276\'N\223>\334!)?\2657\327>\316\213\242?\356\031\214=*\236\331>\305\227\377\275\300\230a>\2029J<\027(e>\262\371\217?G\261\266>\362\375[\276\341*\315>!\337\257\275\267\004\303>`\r\227\275\332@\226\274\317\177\024\277\264\262\341>\000\254\260<>\320\271\276x\356\213>\020\356\200\274\345\2261\277B\017\320\276\325t\026\276\267^\253>[\375\206>)\250\r>\343~\002\275\273Q\017\277\342?\000>5\204\344\276\037*\202\275\024{&\277\031\255Y>\177\003q\276y-\001>3J\t\275k\302\310=\247\"\326>\016\337f\277\217og>2s/?\022\032\367\276\213\022\n?\373\227\240=\331$\010\276W\"p\274k\3130\276\006:\177\277\336\370\332\276EM\021>\256\331\234=\002\340\212\276\274\372\203?qN\\>\220\0237?\373\331}\276\346LH?\025\332\273\276\206b\214\276(\025\220>\240r3\275\036j\030\2762\213-\276\024\250O\276\332p\021?\373\2218?tJ\216>]r\n?\t\031\274\275\222\315\270;\014\260\020\276\355\227#=3\374 ?\374\020\246\275\350\335\035?\220w\r\276h\331\237>\275\367m\276y@\302\275d\261\014?1m\245>\022ob?1\264\306=@\316\246>\245\373\202>|\363\376=\243\211\364>\030\223\005\276FT\214>r\220\361\275\036\231\005\277\326\275\035?\275\377\245>\205\204I>\377K\335\276U?\006\277\203\210\210>\337\006\006\276RR\014\277{$\004\277\226\327\020>\311\202\347>S\013R>\374\203\363\276\003\313Q\273\332\340\017?\\\246\373=\024\213\226\276Y\227\252\2765\233\265>\373;\213>\t5\364=;\270\033?\036m\360>\177\022C>~\022\250><\2411>\215re>]\264\325\273\272`T\274\272\3126\275z\270Q?\350#\330>.8t=>\371j?\362Y*\276\372\177h>\2127\231\277\270I\213=\317;&>Jf\326>\235\252\220\276<3Q?j\026\024\277\222=\202\276\243\3406?U7 \277\r\343H\277Ma\013\277\'\"\343>\2464\236\274\272c\275=\332{1\277(\261\356\2760%\216=4\344\213\276\253c%\277\354d\000\277\304)\'\276\305o\005?I\025\330\275\317\332\352\276\240X\201\276\351[Y>\365\"\213\275\214\304\263\276D\021\034\276\314G\010?\255|\360>\201t\032=\216\242&?\245\014\017>\275f\267>^^\022?\353\275!\274\253\243->\276\'\275>\262\004\212<&\242Q\276\207\363C>\353\372%?\3562\376>d\254V\276\261\321\262\276\365$n>\355\007\202?\246\366\010\277\364\267\311<<b\005?\202D\275=Y\267b\275%T\270\276e\344\271?\243\272\375=8\275R>\300\266\376>\306\025\317\276]=;?\326\355\354\276\243\344\256>\240:\200\275\020o1\276\242g\007?<\222O>+1\001\274\221\263\347>\260\313\331=\345\343\275>\031r\325\276F\214;\276\363\364\241\276\0165E?|\333\344>\224\177\252>}\377\255>o\230\366\2763+\255>\371\363\200:H\244\244=\024\312\004\276\275i\234=\020|\334>xDh\276\333\'R>\247\004\020\2774\340\256\276m\272\035??\322\352>\257y\373>p\r\004>c\305C\276\304\250\255>\365#\021\275\336\210U\277|\025\022\276j\3516\277\363~\003\277=\001\203?\253\3324\276g\366\260\275(\250\273\276\360\276x\276\034\237f\276\371\322\031>\357\263\020\275P\255\021\276\301u\245\276f\332\177>\177-s>\247T\035\275,\234\301>\337_\245\276\224q\030>Dv\036?n\027\205\2760\327P>\013\322\351\277\244\230\202>\030\346\">\300\327\312\276\351\363\216>\216B_>/eS?\362\233\321\277\267\373e\274\344/j?w\r)=\"\254\010?_]J>B\323\270\277\351\3659?\207S3>l^9=\235I\347>{\317e=\035\365\324>\376\034Z>\271\'\316>\315\242\345\2765P1?c\376\252\276\r4\226\275\222E\220\275\r\221A\275\224M\001\277\275\213\335>\345G\030\277G\206#>\306\206\032\276\361`\210\276n\206\255<\334\027n\276\272E\r\277]\311\r\277\306&\377>\265\375\225\274[\233\344\274\314\226\037?\247\356\333>\027\242m\277L\262\346>\022\017!\277\3737\321>\233\344F>\312<\005\277\303W\006=\242\023L?s\257\020>\234I\010\277v\361\314\277\2569\371\275\353\020\273=\225\003~\275S`-\277z\371\035\277@@\240\276@d\226=:\230\274>d4\373>\353\350\341\276\365\201\224>U\371\340>n$\001\277I8M\276\204\264\251>,\355\205?\246\017c<\204>\032?X\302\256\271\014%p\275g\330\034?\214X\024\276\326\317\224=\212\335)?\335\220\312\276R%\353>\362Q\305\277=X\261<&\361\234>\315\277\254\276X\337\230\275\372\376f\275\345\254\224?Z\345\216>\261\000\240>?]\005?\377vL?\305\024~<3\027\320>58.?/\340\361\275\2214\271>\304\264\323<\357\344\242\275\343\330\021>\343M\021>\010\360\305\276&-+?\203O\310>\273\350\017\276\024F\000=\307\322\337\276\031\371\032>9\236E=H\201d>1C\022?\272\220F\276]}\364\275\026\272\221>q\364\352\275gb\003\277M\361\205>\306\355\222=\223\314\212>\255\3105?-g\274=$\252\262>*\317w>\252g\253>\321\'\356\276j\220\271>\023q\237>\207d\014\276\030\254\240>]\002d?\365\201K\276O\227\030=\310\264\357=\374]\030?\003aO>\2304+\276d-\030=\021\326\263>\362\300\270;\356\300\267\276\355\257j>\210\224\217\276\236\034\231\276m\340\375<\307\321.>\377Kr\276t\354\007\275\022h\363>\333\344\305\276\277\022\255\276\2503\365=mN\224\274J\263\364\276c\214\323\276\027\320\226\276^\265\265>\301\001\230\276\032\317{=\261\023\312\274\235.C\277$\300\320\275F5\332=!\177F?\322\252\241\275*\020\274>\034\010\360\276A\014q\274E-9?\241\010\304\274\020\t{>\353\327\305\276\017\034\312>=\023\206=3\014\364=p\303[>\223\243\302>\245Y!=\221\354|>F\253\034?\213\n\305>\346\323\352>\202%\010\276h\311\006\276\023\032\303<\034\013\021\276}*]=4U\270\276\334m$?\030\226 >\204Fu=\n\374\t?\027\360\364>u\252=>\313\363\244>\255>\333\276\304\345\370\276\264\036Y>\202uZ?o\224u>DF\006?\212S\320>G\027C\273\363,\371>j\247\033?\325\027t\277\255\026/?a\n\275>\324\245d<X\316\304>6\276F>V(\260>\017\2065>QY\020?A\3020?}_\235=\351\235\\\276^\265\363>\302D\354=\336S\230\276\363\254\216=\240\225\376\276\346\327\264>\311\244\\>\310T9=O\315\242\275\024\327>\277E\261\220>\0367\337=d\300\021?\324\350\222?\355\265\353\276\030Qs>\327[\003\277\023\362c=\275\2455\277y\376U<\330-\350>_|\233>\"Y\372=\245\350\336\276D\372\243\276\273h\243\276\205J\222\275JD\334>Vb\270>M8\366\276\351M\224\273\256\210h\276\202#I\275\373~\216=\334<?>\333X\223\276\244\233\t\276\324#|>dp\204\276\267\221;>\242\3038>\34529\277\030\234)=\241\342\216?\277\210\302>\336\306\234\277\213\203<>\'\265\346=^\t\311>f\331\230>\370\254K>\322\256\300=\r\271\226\276\346\376\037\276\231\364-=\356\014\016?Xv\261>)\000)?\'\363\232\276\303\361\r\277\271k\252=\353\305\240\274x0\347\274H\203\001\277\000\253\275\275\0046\n\277\355\370\363>\013\344\320>\230\232:=>\356\020?\253B\301>\204\363y>e\273\272\274\024|\037<\351\316\000\276\312.H=\202\301\"?\3302\370\276\270n\270>\376\322`\277vG\035\277\232\314\035\276\007\216\030?\235h\215\276\213\350\023?\350\351\203\275\253\301u\276\032\221\270>\347<&=|\240\311\276\256\324>\276\003\241\330>\216UM>\001(\260\276\300\235\032?U\232\310\275\002\237\014\275\035;\213>;l\257\275\266H\261\2757\373\320>\303\020\020\274\260!\221>\356\336f\276Rm*\276g\206\243\276j\2127\276.^n>\373\357\247=\247\376\377>\304o\270<\345\327\263\276J\362 >\376\353\377\275(\362(=\334\033\244\276\217\267\265\276\234\312\320>\203\356,\276\215\035\206\275Rp\n\276<\251?\277^q\244=fI6?^*)?\313\337e\277\211_\013>\216|R?x8\256>\327o\003>>\305G\277\217>\275\276T\215}>\327\377\017>I8K\277E\267a\275\275\204\201\276\214\001\017<WO\217\274\211\334\267>dup?\002D\303\276\036\225\210\276\313`\r?XYB>\320X8=Da\212?\302T\375=\246\035p>\211[^\276v\336\360>}K\000\277\347\264\307>\346e\037\277\340o\t>t\256(?b\356\305>\277?P=\237\n,?7\214\252>\333\324\320>n\232.=z\177\351>\0204F>\232A1?<]\035>\n]\307\274\000\333r=1?y>m\374\324\276\241_\277>c7\351=r\321\351>H8??\3471[>/\356\026?R\177\376\276\243\215\353>\002,\204\276\302\250\335>@+`?\036\210\035?\021\010\016\275-\t >\251\277V\276\272\023\250==\336\376\276\233*\371>%fL\276H\020+\277\232\356\254\275\247\035\310>\315\333\233=\2364\211\276\204}:>\"\273e\276:\266\331=\020!\377\276\023\336\230>N\250\241\276\021at>`\002O\2761(\212\276\2670\316>\222\005\376>\023\251\206=.\3550\276l\250\274>\233\253\334>Q\262\021=<\266\212>\244\201T\275\241\345\373>n\333:\275\224f\201=\224\177\177\274\215E\352=eGt\277\231\320.?\354\317\004>\330\325\305=\377\303\341=\266\351\234>\327\"e\276f\200u=NJ\233=}&.?\2517\235>\"\277\203\277B<k>\273\035\316>\013\253\233\275Je\006?\265-n\276\265q\262?\247\310>\276\214\031\207\276u\212)?\003\243r?\333\343\207>\305MK?\020\\\232\276\246j\243>=\027a<\203\0210?m\327\270\275\2201\321\275\032\\J>\322\337\213>\235\274\232>\216\255N?f\000\211>(0\351=>\237\242=\351\245]\276\037\016\366\276\355_\204>\265\253\246\276\212]\025?\376=\344\275\271)\250?~j\207\276xT\352<\340r\351>1\2203>\222\312-\277\016^\274>\367\332N=]\302\006\277\324v\031\277\266s\221>*DA>\260\344S?\001\315\336\275\246\254\034?X\354\231\275]\013\215\276`\3276\276\311\034\312>\033{Q>\217\303\275=\231\233\004\2746\255\006\277\306O\333=%\010\016?p\306p>=\261/\277\223}@>P9N\276x\364\357\275F\346\'?L\020\004\276\205\370\272\276@\022\221=\343/~\276\325\242\004?Z6\345=\273yp?S1\261=\375n\365\275\010\010\232>v|\305>\026P\342;/\331\212= P\312\276\213\217\223>\006\3178>\203\376)\276\360\265\272>\236\242\021?\3532l\276\021\250\211>\311\236\314\275\265\003\237>\251\330\200>d\334{>\250\236\310<[K*>!\344~?\363AH?\303U\237>\275\000\003\277\302v\n;\"|M\276\036Z\232\276mA\231\276\312\320\010?\217sE>\014\356H>\372~\211=\302o\375\276F\375\024\275Q\264\310>a\024\277\276\335\201\242\276i\034\214?\225#\265>w\300T\275\033\311\364\276P\270\020?\304\235&\277\321\307\270>F6\022\277`y\322>`\0256>\010<\027?\374\333\217\276\034\357\312>l\026,\276}\201h\277\363Lw<\312\022q>/\365z\276\254\r\013>\330\0219\276\256n\332=\370\215\207>\020\273Q\275\026\350\343=\262\037\373>V7\301\276\233\232e\277\324ue>c\000\037\277\')\362\275\341\352\263>;\356I\277\001!\270=\025\235\211=\216\023\303\276\311\224\347>\241\017\333\276D\320]\275\2557\242\276r\321\215\275K\266\217>uW!\275\276n7?\332\264o\276t\237\306\276(\370+>%\007\373>\\\325\257\276\267\3471>0\330\r?c\334\344<\346\256\202>p\230\002\275\240\261\360>!a\t\276\366\242\240>\343q-\276\311\014\212\275\302#\250\276\004:\027>\355j\344\276\302\337\300\276\343@e?\n\257C>*\026\374>\227\265\366>\346la>}+\235=\350W\034\277\367Bn>~~\234>\222\333\"\274\247\027\231>E;\016=G\251\365>i\036\346\276LD$\277W\254\255>>\351\n?\317\372y\277\250\017*?\210\253\220\276\351\217\374>\345&\207?\326\313e>f\204E\275:\317\006>\216\037\343>\340\303\305\276z\003\207\276=M\363>QMV\277\264=\021\276\206\376\324>A\336\255>\263\0030\277@+\224\276\357y\017\277:uz\273\021\222\204\276\361}\316=+g\314\275\331F\215\276\266\317\317>mn#\276\333\374\213\276\033\204g\276\300\307]>\315I\325>\322I\214\276\251\260\367<\200$\273>0<\253\276\014\r\004\276\034\230\256\275)nk\277\250\363a\277\2446\332\276\303\240\006?q1\330>\004\025\006\276\017\313\273>C\253\262\276\225\200\234=\013\377\316\276z\000\356>\306B\261>T|)\277\356\332\223?i\272\237\276=\335\214>\371\242w\276\301\t\277\275\032_V\275G\205\303<{q\236>b\224\261\276\310R\227\2767\222\206\275N\277\026\276\014\300T>\3224\025>\205R\002?\310\330\275\2750\241$>\264\034+?\030\277\210\273\251\005G?\217q3=!\026\253\276O<\374<R\215\032\277\016\305\214=\377+g>\2621\336\275\204Y\366=H}\234;v\013\272>:T\307=O\005\327>0k\326>3\316\364\276\340\304a>\022\266z?\377\376C\276>\316h\276<\277C>\027.\226>\350\332K\277\247M\231=\224,\031?}\222\021\277#b\210\276\357\006\237>\313Qs\276\033o\273\276\316\003\220\275Az\250\276\0041\236\275\265d\252?\212\270\200>\206\220\'\276\341\325\227<<\245\002\276\245\'\200\275t!\344>s\337\315>\366\014\362:F\262b\276\377\240\331<<\311Q\277\001g\327\275\003\217\302>\026{\344=O\256\215=\253\274\201\277~\246t\276\246\023)?\310\342\344>\311`\333\274r\370@>\373\365o>G\246\001?u\260\212>\364\307\310\2759j\032\276\240-\311\274\353\244f>\272\365\355\276<\252\'>\024\254\206>P4\344\276\235\361j<\037jD?<K\317\2751\361\352\275y\177\341\276\335\020\261\274\311\377\210\275\345yK?\006\234\377>&\346\262\276!\312\205=\241W\000?\330\334\n>\216\303\251;\245@$>\300\265`?\227\355\010?\370\330H\277\001\266P\2750\220\003?\314\351\024>\377\370;\2763\266\021?2\301\276\275,\346\374\275\223da=\203\325\343>\377~\006>\247-\256\276\353\372\321>\312Z\251\2757\036%\277R\347X\277\2023\022?\013\316\025?\236\341Z\276\323\323\031\277\036\312\372>5Z\262>\341\336\026\276b\375Q\276\204\344\002\275w\234\322\275\250\270\033>\026.0?F\233\024?\013uu\275}*\244\2777B\214>|kh>\252}\207\274\235\223\345\276\305\363\270:1\034\034\276^\355\244> \261\326\276d-\n\277L,n\276J\022b\277\345\334F?F*\265=\301\312\301\275\255e\013\276h^\233>\003S\247>\217)\322\275\370\037\334=\210\230\034=\227\243\316>F\014\221>p/p;\301\360=?C\370\265>\361*1=J\325\342\276\241r\225?y\261\030\277\203\366\023>\261\225\233\274S\262\321\276l\215\356\275\217\276\r?1\357\326=\376t\202>\322k\007\277\326\345\232>\350\027\321\275Q<\'? A\272<^\310\003\277\\\014\335>\376M\261>/\321\010?\357\035\300\276\025?\361=zq\252\276[\353\032>\277\365\001\277\032<\350<\315\014r?`&\224\276b\306\320\275\350m!?3\356\274>\346\"\377\275\351c\330\276\304\273y?\\7\370>en\236\274\350\262\024>|\330\212>Q\017\220>A$\236>\024Gw\276\027\323>=\267El\276\3017>>{\223J\276v\204;=s\365\247>OT\340=\317\252\231=)e\227=\325f\237=\252\346\344\275\302f\014>\332GU>\374\253J>s*:\275&\361\r\276\372\220\033\276\241b\215\276B\305v=&\346\350\275q\320o>k\316\313\275\000{\257=\222\343\307\275]7_\275\223i\241<\3607\301={\254Z>\316j\244>\331\355\213>\234\200\235<\357^\236\275#-\250\275\321\234\252\276\314\375\201>s\016\300\275\220X\207>\"\370\216>\302\326R>\032\3130\276\233\341\211=\333(\346=\313\243l>\000aM\276\376\013\234?\r\202\026?\310\337\000?\257\202\252>\263h\271\276\343\336\033\277~\311m?&\272\032\2772\003J=Og\311>qm~>\334\221$\277!P\256>\250\343\t?\216\372\325\276\034\247d>\023c-\276\367\341\271>\304\034\014\276\344\t\307\275\307\026U\276\013! >\207\017\260\2759\326\310=\314\321\325>Ih~\276\312\330\205\275\007\357\314>\345\202\302>$\304\304\275\343\363\236=zz\264\274`Ex>\312\263\207=a\263\234\275\356\351\373<\303\036\250\273\331\210\326\275\001\323[>\330$\266\275Wk_\274\232\000\244\275\306\005\231=\237Q3>\247SN>\016\331\204>\203\225\241\275\303\215I>\205\236b>\372\037O>g\313\230\274\265\326|\276f#%\276/\261\337\275l\234\025>\221\003$\275,\363e>\353s7>\365\307\230;u<\237\275s\300H>H\232\013>5\2120>\361B\376\274#?\375\273\315\331\333\276\251uc=[\3737\277 \213\216=2\262\201\276\341\365\001>\312\243?\276\"g\276>\310\241\223\276\361\212\210=\347\330\227\275\300n\350\275\205\330k\276\3658O\276\261D\323\275Z_\366>\366\314C=\212\007O>\226`\216\275\177\226\006=\266f\234\2765^M>\023\357\247\276H\377\320\272\"\245g\275\243\207.>\254\365\221\276\212\243\205\273\205S\245>RM\375\275n\326k>\336\210\237=\007\346\251=V\032\016>B\314\242\275\356\2779\276{\014\206\276\231Q\231>:\263\235<\252>X\275\021\256M>\275\001\327\273\342b5>\344\317\270\273\243\212\342=\225 \000\276\263\216\316=\2709\260>\004o\021>\360\312\303\275\306\312^=\251\212.<Y)-\276\0223c>S\216`<\243C\301\275\307:T>\232G%>\365A\277\275\227s\304\274\017\253\007\274`!\n\274z\342`\276\276\331\245?\037\325\016?\3172l>s9\327>{\253\371\276#\316\347\276\010\226@?L\3335\277\362\311\034>\tC\251>\313\235\376>n\374\310\276\342\243\'>H\332\024?\350\237C\277\272\032n>-\345\010\276\031\345\223>\300>\203\2754\214A\276a\304C\276\\\240\202>\330\032$\276\267Z\275\275\204\276\360>`\3665\276\364ZW=6\327\301=~\243T>\216$C>k0\252\2752\021\207>\251\010\223>A7\023\275\213pZ>\316\315,>\214\260\376\275\303,\227=ML!>\344\314\n\276\255KK=\000\003v\275\005\302\333\271\277\363Z>\204\006\224>|\274\216>9\326\022>\177\200\204<b\334\212>y\337\374\274\300\323U>j\\\270\275\315AV\275Yi;\276\260\377\266>\351\000R\276\262\303\350\275\014;\307=\256C\034>\035\242\263\275\025\326\341\275R\250h>\211\r.>\337?\217>W\004.>Y\352\327\276L\204\200\276K\026#\277\006\331r<q\235\210\276\312\313\330<\376\231D\276\350\006\360>j\342\304\275\247\366\357=\313\316\314\275\023\344\027\276K\0206\276\r2o\277\373\024K\276\244\325\250>\303\243\225>k\351\273\276\326uC>\330>L\276\220\342\367>\225\240D\276\2241z>\324\010\226?\355{\335>\010r\002\277\342u!\277\035t\005?\013!\016\2779\000\021?\027\210R\277\267\3315>\221\263\000\277\003\3459>qii>\016\250\225\275\316]\346>)R\246>\335t*\275\300sZ?Z\325\263>\032\031\025?\233\223\n=\247[3\277\261\365{\276\273\244\264=\371\327\267>J\353\312\275Q\251/\272\334%\020>:\032\275<\223\316@=\356\246\024>\306\375\t?\205\276y\2760e(\276\271m\252=\223\037\204>\\n\242=\242\202g>:\370\206?\206\246\364>\001\216j\276\355\337,\276\254\310r=\267\027\214\275D?-?A\220\332>\2447^=\231_\350\2768@V?\211\013\'\276\000\006\334\275\261\300p\276\033\327\200\275y6\t\277#kn\276\363U:\277d.\277\276\352\007\265>A\250|?Wj\237>^\'q>2\263\224\275B\203\r?\010\367e\276\t\022+>\013w\r>\242\361\315>H\353\236>\326D\225\2756C\r?\036m\347\276X\252\201\276Ma|>\300\017\234>2\257\212>sq\252=3q\233>\027\262\206\276PcF>P\367\321\276\243\347\225\276/\241\217?\206\251\213=\353\215\207\276\033\3245\276O{\227?\242\330y\2762U\242=%\014\020\277\342\366\316\2754\204D\277\366\332b\275tu\005?\264\373\027>\323\307\252>\267\266\'>\2656m>\207\234*?r\234=>\006R\216>4\275&\275H\031\031\277\205\017\233\276\317\204\316\277\032\026\262>\233h\371\275A.\317\276\030\242\266\276\337\265\005?\024l\361<B\333<\276\336\254\363>\322\224\021\274\345F\237>\005(\002\275G\326)\276)F@;x\334G>\217\366\376\276>\244\337\275\323\032Y\276-(\262\274\267/\273=o{\314<\017$#?\343\225\026?IL\340>\341\212\235>t\375\333>\230\217\267>\270\216\221\275\362D\002\277\027\224R=\024\022\335=\235\264\032\274/\341\033?\207l&>\337\036L\275\016\275\253?\362\377K\276\r\377\357\275\003\007\207>\277KH=2\210\372>>V`>~\357\337\275\202\335\023\276*\261\023?B\355\331=\327\013\212\276[\357\030?A\361_=n\207\334\275u\332\224=\013\256,>\251G\303>\311$y\276e&W\276zk\202\274\332\362\212\276\225\300\273\275\263\260X\276R\266\353>\226\230\026>\257\205l=\270H\305=^\3335\276\342\262\363>\026\272\316=\025\021\275\276B\326\010\277\262v\024\276TcK\275\355q\030?\210=\016?\250\022\030>0\000>?\211\327J\275s\027\371\275P\234\336\276\241\273\212\276\211\003<>\302\340\230>\027\345_?\205\237\207\276\264U\017>\340\274\246\276\314\304\361=\254\305\250=_\361\321>\251R\270>\212@\304\276-\"A\275t\236\313=>I\361>\234\347\021\277\032\232\227\275|O\211\275[\227\005\276\273B=\277\222A:?\256<\226\275\260d\340;\321\361\352>c\\\274>\210\226\346>\002\340\010?\227`v?^\302\314=Q>\360>o\205\366\276J0\005>\246\031m<\330?C?\264l\342>^P)\275.=\253>\372\255b\276\003)\221?\250\360u\276b\371\025\275\233\311\032?\341\026\320=E\230\245>\204\351\'?A\003\312\276\363G\230\276\265\240W>\251\233\253=\023g(\276xA\200>\036z\303\277\326\254\315\276k\237\271=\323\300\253?\210\267\232\276m\375\r\276\204E\315;\3056:=O\322\355\276&\232\374=5\264\r=\315;\177>rd\365\275\026\267\251<\366\346\370>ap<\277\223\237h\276\347y\317=\344U\232>\003\351\244<\257rv\275/\343\377\275\313}n\275L\371\277\276\314\346\211>\003\025,\276X\2544=\023\204%>\205fK\275\255$\265\275U\242\270=\031[\217>\256\316\264<6\356@>\224/\366=R\0264>\035+\364<\000?z\276G}\206\275Y\267\225\276\212$\016=&k\206\276\212\224i\275\237V\215\275\220\024R>\276\270\251\275\221\316o<\260a4>\036\024\232\275\007$Z=H\2668>\205S\330=\364\304\373=\001\316\357\273\242\332$\276.\035\356\275\264\n1>#\272\311\275\010Mi>\255f}>V\002/>\234\312\034\276\356\271E\275Q\246\277;\361\030\317=q>>\275\3600\214?\201V\354>\333S\304>\010\336\346=3\346\226\276\233\261\315\276j\262w?\360@B\277\370\341\255>f\351Y>\221\255\205>\316l\010\277\307\250\255>\030n\025?\356\365\372\276t=:=\013x{;9Ps>h\266\022=\333>g<\332#R\272\275\201\017>\025_\241\276\0077\224=z\035n>2\\a\276\250\362\353\275\027\337*>\226\335\210=c\027s\273/\317\305\275s\343j>tow\275\216y\205>\367b]>;\210\276=\344+\320\275+#J>\323\363\036>\\\252\341\275>\254H\276\244\314$=\373\230\024=\370G\217<\0135]=\222\t\213>\224~\030\275\374\n\320=\0367\345>\216\317\020\274;\240\207=\003\253/\276j\014s\276\244\342\354\276\316\362f>\225i\241< I%\275V\024\334=\367\312\326\274\000+/\275\347\016>=\354\022C>M\276\306>u\327\247=\315\035U\274\033\213\036\277\002u\214=\003\233\323\276J\335?\276\247\373\370\276\272I8=\221uD;\307x\234=\216\0204\276\236\325\350\272<\342\004\276\236}\364\274\340\3469\275q\255\031\276_\366t\275\326\323\352>\204\255+\275\323\203a=,\226\"\276=5\302\275\367\345\364\275\233\255\375<\031\345\260\276k\242\255=\3352\210>\026\242\221>?\340\273\275\345rN=\211\234\347==\326G\276\262\335\r>2\245\330=`\354P=\341\252L=m_\025=[p\305\275\253\373h\276\355\001\227=@\037\275=\327\204w>\t\267\226>\200\212\340\275\314\0346\275_R|=\272\255\032\275x\225\207\276\201^(\275\232\033c>\223q\305\273\004cU\275\203b9\276\270\232?\276\343\363r\276D\306@>\241\325\224\276\343\313\321=F\216\317=\014\214\354\275Y\006\374\275\315W\225\275\032\304\034>T\255\\<\261\r~\275\250\342\221?\t\241\264>\273\010\310>\3416/>\321AA\276\367\025\000\277\004\204k?\321G\000\277y4\200>\031L\255>!<\006?\n\330\362\276\017)\276>\210\270)?j\014\320\276\232\373%>\\\213\276=o\242\370>B&g\2762|\027=\246\272\242\275\215\303+>(\245\034<\177&\332=\263\334\030?p\313\022\276\311\351\216\276\3365\200>\326\370\014>L2\242\275&\372\217<o\367\332=,\327\031>/}\030>}\213\323\275\\\310p>\016\210\201>m@+\276G@v>\216\000\013\276It\025<\275\327W>\206W\007\276.\036f=\263\343S>\261>+>\260\241\036=\344\327\366=\3336\003?P\'E>=\020\037\275\236\305\207<\373\277T=\342U\315\276i<{>\242\356\231\276\264\314i>d\324\207>\tS\307<\202\227|\276\273\256)\276\316\3159>\254\034\255=+\251\253\274D\217\020\276\255\010\256\276|\367\343\274\3007\"\277KHB\275o\266\310\276\362\340\215=\321`\033\276\322\211*>q\220^\276\360\024$=\315Y\307=\263o\'=\0347t\275"
      }
    }
  }
}
node {
  name: "encoder/encoded_vector/BiasAdd/ReadVariableOp/resource"
  op: "Const"
  attr {
    key: "dtype"
    value {
      type: DT_FLOAT
    }
  }
  attr {
    key: "value"
    value {
      tensor {
        dtype: DT_FLOAT
        tensor_shape {
          dim {
            size: 16
          }
        }
        tensor_content: "\367\232@\275\014[\277<\367T\264>\356F\262=\303\216\240=`\307\364\274\214\363\376\273\003\275r\276Wr]>\223\267\017\276\355[d=\273\210\007>\241yS=\033\351\347\275W\214?\274\'\"9>"
      }
    }
  }
}
node {
  name: "encoder/conv2d/Conv2D/ReadVariableOp"
  op: "Identity"
  input: "encoder/conv2d/Conv2D/ReadVariableOp/resource"
  attr {
    key: "T"
    value {
      type: DT_FLOAT
    }
  }
}
node {
  name: "encoder/conv2d/Conv2D"
  op: "Conv2D"
  input: "x"
  input: "encoder/conv2d/Conv2D/ReadVariableOp"
  attr {
    key: "T"
    value {
      type: DT_FLOAT
    }
  }
  attr {
    key: "data_format"
    value {
      s: "NHWC"
    }
  }
  attr {
    key: "dilations"
    value {
      list {
        i: 1
        i: 1
        i: 1
        i: 1
      }
    }
  }
  attr {
    key: "explicit_paddings"
    value {
      list {
      }
    }
  }
  attr {
    key: "padding"
    value {
      s: "SAME"
    }
  }
  attr {
    key: "strides"
    value {
      list {
        i: 1
        i: 2
        i: 2
        i: 1
      }
    }
  }
  attr {
    key: "use_cudnn_on_gpu"
    value {
      b: true
    }
  }
}
node {
  name: "encoder/conv2d/BiasAdd/ReadVariableOp"
  op: "Identity"
  input: "encoder/conv2d/BiasAdd/ReadVariableOp/resource"
  attr {
    key: "T"
    value {
      type: DT_FLOAT
    }
  }
}
node {
  name: "encoder/conv2d/BiasAdd"
  op: "BiasAdd"
  input: "encoder/conv2d/Conv2D"
  input: "encoder/conv2d/BiasAdd/ReadVariableOp"
  attr {
    key: "T"
    value {
      type: DT_FLOAT
    }
  }
  attr {
    key: "data_format"
    value {
      s: "NHWC"
    }
  }
}
node {
  name: "encoder/conv2d/Relu"
  op: "Relu"
  input: "encoder/conv2d/BiasAdd"
  attr {
    key: "T"
    value {
      type: DT_FLOAT
    }
  }
}
node {
  name: "encoder/flatten/Reshape"
  op: "Reshape"
  input: "encoder/conv2d/Relu"
  input: "encoder/flatten/Const"
  attr {
    key: "T"
    value {
      type: DT_FLOAT
    }
  }
  attr {
    key: "Tshape"
    value {
      type: DT_INT32
    }
  }
}
node {
  name: "encoder/encoded_vector/MatMul/ReadVariableOp"
  op: "Identity"
  input: "encoder/encoded_vector/MatMul/ReadVariableOp/resource"
  attr {
    key: "T"
    value {
      type: DT_FLOAT
    }
  }
}
node {
  name: "encoder/encoded_vector/MatMul"
  op: "MatMul"
  input: "encoder/flatten/Reshape"
  input: "encoder/encoded_vector/MatMul/ReadVariableOp"
  attr {
    key: "T"
    value {
      type: DT_FLOAT
    }
  }
  attr {
    key: "transpose_a"
    value {
      b: false
    }
  }
  attr {
    key: "transpose_b"
    value {
      b: false
    }
  }
}
node {
  name: "encoder/encoded_vector/BiasAdd/ReadVariableOp"
  op: "Identity"
  input: "encoder/encoded_vector/BiasAdd/ReadVariableOp/resource"
  attr {
    key: "T"
    value {
      type: DT_FLOAT
    }
  }
}
node {
  name: "encoder/encoded_vector/BiasAdd"
  op: "BiasAdd"
  input: "encoder/encoded_vector/MatMul"
  input: "encoder/encoded_vector/BiasAdd/ReadVariableOp"
  attr {
    key: "T"
    value {
      type: DT_FLOAT
    }
  }
  attr {
    key: "data_format"
    value {
      s: "NHWC"
    }
  }
}
node {
  name: "encoder/encoded_vector/Relu"
  op: "Relu"
  input: "encoder/encoded_vector/BiasAdd"
  attr {
    key: "T"
    value {
      type: DT_FLOAT
    }
  }
}
node {
  name: "NoOp"
  op: "NoOp"
  input: "^encoder/conv2d/BiasAdd/ReadVariableOp"
  input: "^encoder/conv2d/Conv2D/ReadVariableOp"
  input: "^encoder/encoded_vector/BiasAdd/ReadVariableOp"
  input: "^encoder/encoded_vector/MatMul/ReadVariableOp"
  attr {
    key: "_acd_function_control_output"
    value {
      b: true
    }
  }
}
node {
  name: "Identity"
  op: "Identity"
  input: "encoder/encoded_vector/Relu"
  input: "^NoOp"
  attr {
    key: "T"
    value {
      type: DT_FLOAT
    }
  }
}
versions {
  producer: 1205
}
